{
  "version": "1.0",
  "truncation": null,
  "padding": null,
  "added_tokens": [
    {
      "id": 0,
      "content": "<|endoftext|>",
      "single_word": false,
      "lstrip": false,
      "rstrip": false,
      "normalized": false,
      "special": true
    }
  ],
  "normalizer": null,
  "pre_tokenizer": {
    "type": "ByteLevel",
    "add_prefix_space": false,
    "trim_offsets": true,
    "use_regex": true
  },
  "post_processor": null,
  "decoder": {
    "type": "ByteLevel",
    "add_prefix_space": true,
    "trim_offsets": true,
    "use_regex": true
  },
  "model": {
    "type": "BPE",
    "dropout": null,
    "unk_token": null,
    "continuing_subword_prefix": null,
    "end_of_word_suffix": null,
    "fuse_unk": false,
    "byte_fallback": false,
    "ignore_merges": false,
    "vocab": {
      "<|endoftext|>": 0,
      "!": 1,
      "\"": 2,
      "#": 3,
      "$": 4,
      "%": 5,
      "&": 6,
      "'": 7,
      "(": 8,
      ")": 9,
      "*": 10,
      "+": 11,
      ",": 12,
      "-": 13,
      ".": 14,
      "/": 15,
      "0": 16,
      "1": 17,
      "2": 18,
      "3": 19,
      "4": 20,
      "5": 21,
      "6": 22,
      "7": 23,
      "8": 24,
      "9": 25,
      ":": 26,
      ";": 27,
      "<": 28,
      "=": 29,
      ">": 30,
      "?": 31,
      "@": 32,
      "A": 33,
      "B": 34,
      "C": 35,
      "D": 36,
      "E": 37,
      "F": 38,
      "G": 39,
      "H": 40,
      "I": 41,
      "J": 42,
      "K": 43,
      "L": 44,
      "M": 45,
      "N": 46,
      "O": 47,
      "P": 48,
      "Q": 49,
      "R": 50,
      "S": 51,
      "T": 52,
      "U": 53,
      "V": 54,
      "W": 55,
      "X": 56,
      "Y": 57,
      "Z": 58,
      "[": 59,
      "\\": 60,
      "]": 61,
      "^": 62,
      "_": 63,
      "`": 64,
      "a": 65,
      "b": 66,
      "c": 67,
      "d": 68,
      "e": 69,
      "f": 70,
      "g": 71,
      "h": 72,
      "i": 73,
      "j": 74,
      "k": 75,
      "l": 76,
      "m": 77,
      "n": 78,
      "o": 79,
      "p": 80,
      "q": 81,
      "r": 82,
      "s": 83,
      "t": 84,
      "u": 85,
      "v": 86,
      "w": 87,
      "x": 88,
      "y": 89,
      "z": 90,
      "{": 91,
      "|": 92,
      "}": 93,
      "~": 94,
      "¡": 95,
      "¢": 96,
      "£": 97,
      "¤": 98,
      "¥": 99,
      "¦": 100,
      "§": 101,
      "¨": 102,
      "©": 103,
      "ª": 104,
      "«": 105,
      "¬": 106,
      "®": 107,
      "¯": 108,
      "°": 109,
      "±": 110,
      "²": 111,
      "³": 112,
      "´": 113,
      "µ": 114,
      "¶": 115,
      "·": 116,
      "¸": 117,
      "¹": 118,
      "º": 119,
      "»": 120,
      "¼": 121,
      "½": 122,
      "¾": 123,
      "¿": 124,
      "À": 125,
      "Á": 126,
      "Â": 127,
      "Ã": 128,
      "Ä": 129,
      "Å": 130,
      "Æ": 131,
      "Ç": 132,
      "È": 133,
      "É": 134,
      "Ê": 135,
      "Ë": 136,
      "Ì": 137,
      "Í": 138,
      "Î": 139,
      "Ï": 140,
      "Ð": 141,
      "Ñ": 142,
      "Ò": 143,
      "Ó": 144,
      "Ô": 145,
      "Õ": 146,
      "Ö": 147,
      "×": 148,
      "Ø": 149,
      "Ù": 150,
      "Ú": 151,
      "Û": 152,
      "Ü": 153,
      "Ý": 154,
      "Þ": 155,
      "ß": 156,
      "à": 157,
      "á": 158,
      "â": 159,
      "ã": 160,
      "ä": 161,
      "å": 162,
      "æ": 163,
      "ç": 164,
      "è": 165,
      "é": 166,
      "ê": 167,
      "ë": 168,
      "ì": 169,
      "í": 170,
      "î": 171,
      "ï": 172,
      "ð": 173,
      "ñ": 174,
      "ò": 175,
      "ó": 176,
      "ô": 177,
      "õ": 178,
      "ö": 179,
      "÷": 180,
      "ø": 181,
      "ù": 182,
      "ú": 183,
      "û": 184,
      "ü": 185,
      "ý": 186,
      "þ": 187,
      "ÿ": 188,
      "Ā": 189,
      "ā": 190,
      "Ă": 191,
      "ă": 192,
      "Ą": 193,
      "ą": 194,
      "Ć": 195,
      "ć": 196,
      "Ĉ": 197,
      "ĉ": 198,
      "Ċ": 199,
      "ċ": 200,
      "Č": 201,
      "č": 202,
      "Ď": 203,
      "ď": 204,
      "Đ": 205,
      "đ": 206,
      "Ē": 207,
      "ē": 208,
      "Ĕ": 209,
      "ĕ": 210,
      "Ė": 211,
      "ė": 212,
      "Ę": 213,
      "ę": 214,
      "Ě": 215,
      "ě": 216,
      "Ĝ": 217,
      "ĝ": 218,
      "Ğ": 219,
      "ğ": 220,
      "Ġ": 221,
      "ġ": 222,
      "Ģ": 223,
      "ģ": 224,
      "Ĥ": 225,
      "ĥ": 226,
      "Ħ": 227,
      "ħ": 228,
      "Ĩ": 229,
      "ĩ": 230,
      "Ī": 231,
      "ī": 232,
      "Ĭ": 233,
      "ĭ": 234,
      "Į": 235,
      "į": 236,
      "İ": 237,
      "ı": 238,
      "Ĳ": 239,
      "ĳ": 240,
      "Ĵ": 241,
      "ĵ": 242,
      "Ķ": 243,
      "ķ": 244,
      "ĸ": 245,
      "Ĺ": 246,
      "ĺ": 247,
      "Ļ": 248,
      "ļ": 249,
      "Ľ": 250,
      "ľ": 251,
      "Ŀ": 252,
      "ŀ": 253,
      "Ł": 254,
      "ł": 255,
      "Ń": 256,
      "Ø§": 257,
      "ÙĦ": 258,
      "ÙĬ": 259,
      "ĠÙ": 260,
      "ĠØ": 261,
      "Ø§Ø": 262,
      "Ø§ÙĦ": 263,
      "ÙĪ": 264,
      "ÙĨ": 265,
      "Ùħ": 266,
      "Ø±": 267,
      "ĠØ§ÙĦ": 268,
      "Øª": 269,
      "Ùĩ": 270,
      "Ø©": 271,
      "Ø¯": 272,
      "Ø¨": 273,
      "ĠÙĪ": 274,
      "Ùĥ": 275,
      "ĠÙħ": 276,
      "Ø¹": 277,
      "ÙĤ": 278,
      "Ùģ": 279,
      "Ø³": 280,
      "ĠØ¨": 281,
      "ĠÙĦ": 282,
      "ØŃ": 283,
      "Ø§Øª": 284,
      "ĠÙĥ": 285,
      "Ø´": 286,
      "ĠÙģ": 287,
      "Ø¬": 288,
      "ĠØ¹": 289,
      "ÙĩØ§": 290,
      "..": 291,
      "ĠØª": 292,
      "Ø§ÙĨ": 293,
      "ÙĬÙĨ": 294,
      "Ø·": 295,
      "ĠØ¯": 296,
      "Øµ": 297,
      "ÙĦÙĬ": 298,
      "Ø®": 299,
      "Ùī": 300,
      "Ø§Ø±": 301,
      "ØĮ": 302,
      "ĠÙĩ": 303,
      "Ø²": 304,
      "Ø§Ø¯": 305,
      "ĠÙĬ": 306,
      "ÙĬØ©": 307,
      "ĠÙĨ": 308,
      "ĠØŃ": 309,
      "ĠØ§ÙĦÙħ": 310,
      "ÙĬØ±": 311,
      "ĠÙħÙĨ": 312,
      "ĠØ§": 313,
      "Ø¶": 314,
      "Ø§Ø§": 315,
      "Ø§Ø³": 316,
      "ÙĶ": 317,
      "Ø§Ø¨": 318,
      "ĠØ´": 319,
      "Ø§Ùħ": 320,
      "Øº": 321,
      "Ø§Ø´": 322,
      "ĠÙģÙĬ": 323,
      "ĠÙĦÙĬ": 324,
      "Ġ..": 325,
      "ÙĦÙī": 326,
      "ÙĪÙĨ": 327,
      "ĠØ±": 328,
      "Ø±ÙĬ": 329,
      "ĠØ³": 330,
      "ĠØ®": 331,
      "ĠØ¯ÙĬ": 332,
      "ĠØº": 333,
      "ĠØ¹ÙĦÙī": 334,
      "ĠÙĤ": 335,
      "ÙĩÙħ": 336,
      "ÙĪÙĦ": 337,
      "ĠØ¬": 338,
      "Ø§ÙĬ": 339,
      "ĠÙĥÙĬ": 340,
      "ĠØ¯ÙĬØ§ÙĦ": 341,
      "Ø§Ùģ": 342,
      "Ø¯ÙĬ": 343,
      "ØªÙĬ": 344,
      "ÙĪØ±": 345,
      "Ø§ØŃ": 346,
      "ĠÙħØ¹": 347,
      "ĠØ£": 348,
      "Ø§Ùĥ": 349,
      "Ø£": 350,
      "ÙĦØ§": 351,
      "Ø§Ø¹": 352,
      "Ø¨ÙĬ": 353,
      "Ø«": 354,
      "ĠÙĪØ§ÙĦ": 355,
      "Ø§Ø¬": 356,
      "âĢ": 357,
      "ĠÙĥØª": 358,
      "Ø§Ø¡": 359,
      "ÙĪÙħ": 360,
      "Ø°": 361,
      "Ø´ÙĬ": 362,
      "ĠÙĦÙĦ": 363,
      "ÙĪÙĪ": 364,
      "ÙĥÙĨ": 365,
      "Ø±Ø¨": 366,
      "ĠØµ": 367,
      "ÙĬØª": 368,
      "ĠÙĩØ§Ø¯": 369,
      "ĠØ¹ÙĨ": 370,
      "ĠØ§ÙĦØ¹": 371,
      "ĠØ§ÙĦØª": 372,
      "Ø¯ÙĪ": 373,
      "ĠØ¨Ø§ÙĦ": 374,
      "Ø§Ùĩ": 375,
      "ÙĦØ©": 376,
      "ĠØ·": 377,
      "Ø§Øµ": 378,
      "Ø±ÙĪ": 379,
      "ĠÙģØ§ÙĦ": 380,
      "ÙĨÙĬ": 381,
      "ĠØ§ÙĦØŃ": 382,
      "Ġ:": 383,
      "Ùķ": 384,
      "Ø±Ø¬": 385,
      "ĠÙĥØ§ÙĨ": 386,
      "Ø±Ø©": 387,
      "ÙĨØ§": 388,
      "ÙĬÙĬ": 389,
      "ÙĪÙģ": 390,
      "Ø³Øª": 391,
      "ĠØ¹ÙĦÙĬ": 392,
      "ÙĪÙĤ": 393,
      "Ø¯Ø©": 394,
      "ØŁ": 395,
      "ĠØ§ÙĦØ³": 396,
      "ÙħØ§": 397,
      "ĠØ§ÙĨ": 398,
      "Ø±Ùģ": 399,
      "Ø§ÙĪ": 400,
      "Ø§Ø®": 401,
      "Ø§ÙĤ": 402,
      "ĠØ§ÙĦØ¨": 403,
      "ÙĦÙĪ": 404,
      "ĠÙħØ§": 405,
      "ĠØ§ÙĦØ¬": 406,
      "Ø¯Ùħ": 407,
      "ØªÙĪ": 408,
      "Ġ...": 409,
      "ĠØ§ÙĦÙģ": 410,
      "Ø¯Ø±": 411,
      "ĠÙĩÙĪ": 412,
      "...": 413,
      "Ġ(": 414,
      "ÙĨÙĪ": 415,
      "ÙĥÙĬ": 416,
      "Ø§Ø¯ÙĬ": 417,
      "Ø¨Ø©": 418,
      "Ø¹Ø¯": 419,
      "Ø³ÙĬ": 420,
      "ĠØ§ÙĦØ§": 421,
      "ĠØ§ÙĦÙĦÙĬ": 422,
      "ÙĦÙħ": 423,
      "âĢĿ": 424,
      "ÙĤØ©": 425,
      "ĠØ¨Ø§Ø´": 426,
      "ÙħØ¹": 427,
      "ÙĨØª": 428,
      "Ø¸": 429,
      "ĠØŃØª": 430,
      "ÙĥÙĪÙĨ": 431,
      "ÙĬØ¯": 432,
      "ÙĬÙĨÙĬ": 433,
      "ĠØ§ÙĦÙĨ": 434,
      "ĠÙĩÙĬ": 435,
      "ĠØ§ÙĦØ£": 436,
      "ÙħÙĪ": 437,
      "ĠØ§ÙĦÙĤ": 438,
      "ÙĦØ¨": 439,
      "ÙĩÙĩ": 440,
      "Ø§Ø·": 441,
      "ÙħØ±": 442,
      "ĠØ²": 443,
      "Ø®ÙĦ": 444,
      "ĠØ¥": 445,
      "ÙĪØ¬": 446,
      "Ø¨Ø±": 447,
      "Ø¹Ø©": 448,
      "ÙħÙĬ": 449,
      "ÙĥÙĦ": 450,
      "ÙĥØª": 451,
      "ĠØ§ÙĦØ´": 452,
      "ÙħÙĨ": 453,
      "ĠÙĪÙĦ": 454,
      "Ġ1": 455,
      "ÙĬØ§": 456,
      "ĠØ´ÙĬ": 457,
      "ÙħÙĦ": 458,
      "ØŃØ§ÙĦ": 459,
      "ĠÙĪØª": 460,
      "ĠØºÙĬØ±": 461,
      "Ø§Ø²": 462,
      "Ø¯Ø§": 463,
      "ĠÙĪÙĩ": 464,
      "ĠØŃØªÙī": 465,
      "ĠÙĦØ§": 466,
      "Ø¨ÙĦ": 467,
      "ÙģÙĬ": 468,
      "ÙħØ©": 469,
      "ĠâĢ": 470,
      "ĠÙĪÙĤ": 471,
      "Ø§ØŃØ¯": 472,
      "Ø±Ùĥ": 473,
      "Ø§Ø¦": 474,
      "Ø§Ø³Øª": 475,
      "ĠØ§ÙĦÙĦ": 476,
      "Ø§Ø¶": 477,
      "ÙħÙĥÙĨ": 478,
      "ĠØ§ÙĦØµ": 479,
      "Ø´ÙĪÙģ": 480,
      "ÙĥØ±": 481,
      "ĠØ§ÙĦØ®": 482,
      "ĠØ¹ÙĨØ¯": 483,
      "ĠØ§ÙĦØ¯": 484,
      "ÙĪØª": 485,
      "ĠÙĪÙĦØ§": 486,
      "ĠØ¨ÙĬ": 487,
      "ĠÙģÙĬÙĩØ§": 488,
      "ĠÙĥÙĦ": 489,
      "ĠØ¶": 490,
      "ÙĪØ¯": 491,
      "Ġ2": 492,
      "ÙĬÙĦ": 493,
      "ØŃØª": 494,
      "ĠØ§ÙĦØ·": 495,
      "ĠÙħØª": 496,
      "ĠÙģÙĬÙĩ": 497,
      "Ø²ÙĬ": 498,
      "ÙĦÙĤ": 499,
      "ĠØ§ÙĦÙĥ": 500,
      "ĠØªÙĤ": 501,
      "Ø¥": 502,
      "Ø§ÙĨÙĬ": 503,
      "ĠØ±Ø§Ø³": 504,
      "Ø¨ÙĪ": 505,
      "ØªÙĩØ§": 506,
      "ĠØ¨Ø²": 507,
      "ĠâĢľ": 508,
      "ĠØ§ÙĦÙĪ": 509,
      "Ø§Ø±ÙĬ": 510,
      "ÙĬØ±Ø©": 511,
      "Ø¦": 512,
      "Ø§ÙĦÙĬ": 513,
      "ĠÙĪÙħ": 514,
      "ĠÙħØ´": 515,
      "Ø¹ÙĬ": 516,
      "ĠØºØ§Ø¯ÙĬ": 517,
      "ÙĤÙĬ": 518,
      "ÙĬÙĨØ©": 519,
      "ÙĦØ§Øª": 520,
      "ÙĦØ¹": 521,
      "ĠØ¨Ø¹Ø¯": 522,
      "Ø¤": 523,
      "ĠÙĪØ¬": 524,
      "ĠĠ": 525,
      "ØŃÙĬ": 526,
      "ÙģØ©": 527,
      "Ø¬ÙĬ": 528,
      "Ġ\"": 529,
      "ĠÙĦÙħ": 530,
      "ÙģØ±": 531,
      "ĠÙĪØ§ØŃØ¯": 532,
      "ĠØ¨ÙĬÙĨ": 533,
      "Ø§Ø§Ø§Ø§": 534,
      "ÙĤØ§Øª": 535,
      "ÙĩØ¯": 536,
      "ĠØªØ¹": 537,
      "ĠØ§ÙĨØ§": 538,
      "ĠÙĦÙĬÙĩØ§": 539,
      "Ø±Ø§": 540,
      "ØŃØ©": 541,
      "ÙĪØ³": 542,
      "Ø§Øº": 543,
      "ĠÙĥÙĨ": 544,
      "Ø§Ø±Ø©": 545,
      "ÙĪÙĬ": 546,
      "Ġ.": 547,
      "ĠÙĪØŃ": 548,
      "Ø¯ÙĬØ±": 549,
      "ĠØ§ÙĦØ±": 550,
      "ØµÙĦ": 551,
      "ÙĪÙĬØ©": 552,
      "ĠØ¨Øº": 553,
      "ĠØªØŃ": 554,
      "Ø·ÙĬ": 555,
      "Ø³Ùħ": 556,
      "ĠØĮ": 557,
      "ĠÙħØŃ": 558,
      "Ø¨Ø¯": 559,
      "Ø¯Ø§Ùħ": 560,
      "Ø³Ø¨": 561,
      "ÙĦÙĥ": 562,
      "ĠÙĬØª": 563,
      "ÙĪÙĦÙĬ": 564,
      "ÙħØ¯": 565,
      "Ġ-": 566,
      "ÙģØ³": 567,
      "Ø§ÙĦØ©": 568,
      "ÙĥØ§ÙĨ": 569,
      "Ø·ÙĪ": 570,
      "ÙĥÙħ": 571,
      "ĠÙĥØ§ÙĨØª": 572,
      "ĠÙĦÙĬÙĩ": 573,
      "Ø§Ø´ÙĬ": 574,
      "ĠØ¨ÙĨ": 575,
      "ĠÙĦØ¹": 576,
      "Ø®Ø±": 577,
      "Ø§ÙĩØ§": 578,
      "ĠÙĪØ§Ø´": 579,
      "ÙĩØ§Ø¯": 580,
      "ĠØ¨ØŃØ§ÙĦ": 581,
      "Ø§ÙĬÙĨ": 582,
      "Ø³Ø©": 583,
      "Ø·Ø©": 584,
      "Ø±Ø¶": 585,
      "ĠÙĪØ¨": 586,
      "Ø®Øµ": 587,
      "Ø§Ø§Ø§": 588,
      "ĠÙĪÙĬ": 589,
      "ĠØ¹ÙĦÙĬÙĩØ§": 590,
      "ĠØ±Ø¬": 591,
      "ØªØŃ": 592,
      "ĠØ®Ø§Øµ": 593,
      "Ø¬ÙĪ": 594,
      "ĠØ¨Ø¹": 595,
      "ĠÙĨÙĤ": 596,
      "ĠØ¨Ø²Ø§Ùģ": 597,
      "ÙĪØ§": 598,
      ",,": 599,
      "Ø¶Ø±": 600,
      "ÙĬÙĨØ§": 601,
      "Ø¨Ø¹": 602,
      "ÙĬØ³": 603,
      "ĠÙħØ±": 604,
      "Ø¯Ø§Øª": 605,
      "Ø§Ø¬Ø©": 606,
      "Ø¹Ø±Ùģ": 607,
      "ĠØ¨ÙĦ": 608,
      "00": 609,
      "ÙĨØ¯": 610,
      "ØªÙħ": 611,
      "ĠÙĪÙĨ": 612,
      "Ø¨ÙĤ": 613,
      "ØŃÙĥ": 614,
      "ĠÙĬÙħÙĥÙĨ": 615,
      "ÙĦØ³": 616,
      "ĠÙģØ±": 617,
      "Ø¹Ùħ": 618,
      "ĠØ¨ÙĦÙĬ": 619,
      "ĠØ§ÙĦÙĦÙĩ": 620,
      "ĠØ¹ÙĬÙĨÙĬ": 621,
      "ĠÙĨØª": 622,
      "Ø®Ø±Ø¬": 623,
      "Ø¹ÙĦ": 624,
      "ĠÙĥÙĬÙģ": 625,
      "Ø§Ø¯Ø©": 626,
      "ØºØ±Ø¨": 627,
      "ĠÙĪÙĦÙĥÙĨ": 628,
      "Ø±ÙĬÙĤ": 629,
      "ĠÙħÙĪ": 630,
      "Ø§Ø±Ø§Øª": 631,
      "ĠØ§ÙĦÙĬ": 632,
      "ØªØµ": 633,
      "ĠÙĥØ§ÙĬ": 634,
      "ĠÙħØ³": 635,
      "ĠØ¹ÙĦÙĬÙĩ": 636,
      "Ø§Ø¨Ø§": 637,
      "ĠÙħØ§Ø´ÙĬ": 638,
      "Ø«Ø±": 639,
      "ĠØŃÙĬ": 640,
      "ÙĨØ³": 641,
      "ĠÙĪØ§": 642,
      "ĠØ³ÙĬ": 643,
      "ØªØ±": 644,
      "ĠÙĥØ§Øª": 645,
      "ÙĦÙĬØ©": 646,
      "Ø³ÙĨ": 647,
      "ĠÙĩØ°": 648,
      "ĠØ¹ÙĦ": 649,
      "Ø§Ø©": 650,
      "ÙħØ´ÙĬ": 651,
      "ĠÙĦØ¨": 652,
      "Ø´Ø±": 653,
      "Ġ)": 654,
      "ĠÙħØ¬": 655,
      "ĠØ¨ÙĤ": 656,
      "Ø§ÙĦØª": 657,
      "ĠØ´Ø§Ùģ": 658,
      "ÙħÙħ": 659,
      "Ø§ÙħØ©": 660,
      "ĠØ´ÙĨÙĪ": 661,
      "ÙĤÙĦ": 662,
      "ĠØ§ÙĦØ¨ÙĬ": 663,
      "ĠÙĪØ¹": 664,
      "Ø§ØªÙĪ": 665,
      "ĠÙħØµ": 666,
      "ĠØ±ÙĬ": 667,
      "ÙĨØ©": 668,
      "ĠØ¯ÙĬØ§ÙĦÙĪ": 669,
      "ĠØ¯Ø§Ø±": 670,
      "ĠÙĦÙĤ": 671,
      "ĠÙĬÙĤ": 672,
      "Ø§ÙģÙĬ": 673,
      "ÙĦÙģ": 674,
      "ØºÙĬ": 675,
      "ĠØ£ÙĨ": 676,
      "ÙħØ³": 677,
      "ĠØ§ÙĦØ°": 678,
      "ĠØ¨Ø´": 679,
      "ĠØŁ": 680,
      "ÙĩØ±": 681,
      "ØªÙĥ": 682,
      "ĠÙħÙĤ": 683,
      "Ùĳ": 684,
      "ĠØ§ÙĦØªÙĬ": 685,
      "Ø¯Ø§Ø±": 686,
      "ĠÙĬØ¯ÙĬ": 687,
      "ĠØªÙĨ": 688,
      "ĠØ¨Ø±": 689,
      "ĠØ§Ø®": 690,
      "Ø¹ÙĪ": 691,
      "Ø§ØªÙĩØ§": 692,
      "ĠÙĤØ¨ÙĦ": 693,
      "ĠØŃÙĬØª": 694,
      "ĠÙħØ®": 695,
      "ØŃØ¯": 696,
      "ĠØ®Ø±Ø¬": 697,
      "Ø¨Ø§": 698,
      "ĠØ§ÙĬ": 699,
      "Ø®Ø¯Ùħ": 700,
      "ÙĪÙĦØ©": 701,
      "ĠØ§ÙĦÙħÙĨ": 702,
      "Ø³Ø±": 703,
      "Ø§ÙĦÙħ": 704,
      "Ø¤Ø§ÙĦ": 705,
      "ĠØ§Ø³Øª": 706,
      "ĠØªØ§": 707,
      "ĠÙĦÙĬÙĥ": 708,
      "ĠØ§ÙĦØ¥": 709,
      "ĠØªØª": 710,
      "ĠÙĥÙĬØª": 711,
      "Ø¬Ø±": 712,
      "ĠÙĬØ¹": 713,
      "ÙĪØ²": 714,
      "Ø±ÙĤ": 715,
      "ÙĪÙĥ": 716,
      ".\"": 717,
      "Ø§Ø³Ùħ": 718,
      "ÙĪØ±Ø©": 719,
      "Ú¯": 720,
      "Ġ3": 721,
      "ÙĦØª": 722,
      "Ø¡": 723,
      "Ø§Ø¹Ø©": 724,
      "ĠØ±Ø§Ùĩ": 725,
      "ÙĬÙĩ": 726,
      "ĠØ§ÙĦÙħÙĪ": 727,
      "ÙĦØ§ÙĦ": 728,
      "Ø¨Øª": 729,
      "Ø¬Ø©": 730,
      "ÙĩÙĪ": 731,
      "ĠØ§ÙĦØ²": 732,
      "ĠÙĦØŃ": 733,
      "ĠØŃØ§Ø¬Ø©": 734,
      "ĠØ°": 735,
      "ĠØ§Ø´": 736,
      "ĠÙĦÙĬØ§": 737,
      "ÙĦÙĩ": 738,
      "ÙĩØ§Ø±": 739,
      "ĠØ§ÙĦØ«": 740,
      "ĠÙģÙĬÙĨ": 741,
      "Ø§ÙħÙĦ": 742,
      "ÙĦØ§Ùħ": 743,
      "ÙħØ§ÙĨ": 744,
      "Ø¶ÙĬ": 745,
      "ÙĪØ¹": 746,
      "Ø®ÙĦÙĬ": 747,
      "Ø§Ø«": 748,
      "ĠÙĪØ³": 749,
      "Ø¨Ø·": 750,
      "ĠÙĩØ§Ø¯Ø´ÙĬ": 751,
      "ÙĩØ§Ø§": 752,
      "ÙģÙĪ": 753,
      "Ø¨Ø§Ø±": 754,
      "Ø¨ÙĬØ±": 755,
      "ÙĩØ©": 756,
      "ĠÙĪÙĥ": 757,
      "ĠØªÙĬ": 758,
      "ĠØªØµ": 759,
      "ĠØºÙĬ": 760,
      "ĠØ§Ø¨": 761,
      "ĠØ¹Ùħ": 762,
      "Ġ20": 763,
      "ØªØ´": 764,
      "ĠÙĥØ§ÙĬÙĨ": 765,
      "Ø§Ø³ÙĬ": 766,
      "ĠØªÙħ": 767,
      "ĠØªÙģ": 768,
      "ÙĪÙĤØª": 769,
      "ÙĪØµ": 770,
      "....": 771,
      "ĠØ«": 772,
      "ØºØ±": 773,
      "ĠØ±Ø§Ø³ÙĩØ§": 774,
      "Ø§ÙĨØ§": 775,
      "ÙĪÙĨÙĬ": 776,
      "ĠÙĩÙĩÙĩ": 777,
      "ØªÙĤ": 778,
      "Ø¯Ø¯": 779,
      "**": 780,
      "ĠÙħØ²": 781,
      "ĠØ¯Ø®ÙĦ": 782,
      "Ø§ÙĨÙĬØ©": 783,
      "ĠÙĬÙĥÙĪÙĨ": 784,
      "ĠÙĪÙģ": 785,
      "ĠØ¯Ø±": 786,
      "ĠØ¢": 787,
      "ĠØ¨Øµ": 788,
      "ĠØ¯Ø§Ùĥ": 789,
      "Ø¯ÙĬØ¯": 790,
      "ĠÙĪÙĩÙĬ": 791,
      "Ø¬ÙĪØ§Ø¨": 792,
      "ĠØ¹ÙĨØ¯ÙĪ": 793,
      "ĠÙĩØ²": 794,
      "ÙģØª": 795,
      "ĠØ¯Ø§Ø¨Ø§": 796,
      "Ø±ÙĥØ©": 797,
      "ĠØªØ³": 798,
      "Ø®ÙĬ": 799,
      "ĠÙģÙĪÙĤ": 800,
      "Ø¯ÙĩØ§": 801,
      "ĠÙĪØµ": 802,
      "Ø§ÙĦÙĬØ©": 803,
      "Ø²ÙĬØ§ÙĨ": 804,
      "ĠØ§ÙĦØº": 805,
      "ÙĪØ¨": 806,
      "ÙħØª": 807,
      "Ø¯Ø®ÙĦ": 808,
      "ĠÙħØ³Øª": 809,
      "Ø¹Ø§Øª": 810,
      "Ø·Ø±": 811,
      "ĠØ¨Ø¯": 812,
      "Ø¹Ø±": 813,
      "ÙĪØŃ": 814,
      "ĠØ§ØŃ": 815,
      "ĠÙħØ§Øª": 816,
      "ÙĨÙĬØ©": 817,
      "ÙħÙĦØ©": 818,
      "ĠØ§ÙĦÙħØºØ±Ø¨": 819,
      "--": 820,
      "ĠÙħØ¨": 821,
      "ĠÙĪØ´": 822,
      "ØŁØŁ": 823,
      "ØŃØ±": 824,
      "Ø³ÙĪ": 825,
      "Ġ!": 826,
      "ĠØ¯ÙĬØ§ÙĦÙĩØ§": 827,
      "ĠØ¨Ø§": 828,
      "ĠÙĨØ³": 829,
      "ĠØªØ¬": 830,
      "Ø§Ø¨Ø©": 831,
      "ĠÙĪÙĩÙĪ": 832,
      "Ø§Ø°": 833,
      "Ø·Ø§Øª": 834,
      "ĠØ´ÙĪÙĬØ©": 835,
      "ÙĪÙĩ": 836,
      "ï»": 837,
      "ĠÙħØ±Ø©": 838,
      "Ø¹Øª": 839,
      "ĠØ¹ÙĬÙĨÙĬÙĩØ§": 840,
      "ÙĥØ©": 841,
      "Ø§ÙĬØ§": 842,
      "ĠÙĨØªÙĬ": 843,
      "ĠØ§ÙĦÙĩ": 844,
      "ĠØ§ÙĦØ±ÙĬ": 845,
      "ØµØ¨": 846,
      "ĠØŃØ¯": 847,
      "ØªÙĦ": 848,
      "ĠÙħÙħÙĥÙĨ": 849,
      "âĢĿØĮ": 850,
      "ĠÙĪØ±": 851,
      "ÙĤØ¯": 852,
      "ØºÙĬØ±": 853,
      "ĠØ§Ùĩ": 854,
      "ÙĪÙħØ©": 855,
      "ĠÙĦÙĥÙĨ": 856,
      "ØŃØ³": 857,
      "ĠÙħÙĬ": 858,
      "Ø²Ø©": 859,
      "ĠÙħÙĥ": 860,
      "Ø§Ø¶ÙĬ": 861,
      "Ø§ØªÙĬ": 862,
      "ĠÙħØ²ÙĬØ§ÙĨ": 863,
      "ĠØ§ÙĦÙħØ´": 864,
      "ĠØªØ´": 865,
      "ØªÙĩ": 866,
      "ĠØ¹Ø§Ø¯": 867,
      "ĠÙĨÙģØ³": 868,
      "Ġ....": 869,
      "ĠÙħÙĦÙĬ": 870,
      "ĠØ§ÙĦØ³ÙĬ": 871,
      "ĠÙĩØ§Ø¯ÙĬ": 872,
      "Ġ19": 873,
      "Ø§ÙĦØ³": 874,
      "ĠØ³Ùħ": 875,
      "Ø¨Ø§ÙĨ": 876,
      "ØªØ³": 877,
      "ĠØ¹ÙĬ": 878,
      "Ø§ÙĩÙħ": 879,
      "ÙĥØ«Ø±": 880,
      "ĠØ¹ÙĨØ¯ÙĩØ§": 881,
      "ĠÙĪØ§Ø®": 882,
      "ĠØŃØ³": 883,
      "ĠÙħØº": 884,
      "Ø¶ØŃÙĥ": 885,
      "ÙĤÙĪ": 886,
      "Ø´Ø©": 887,
      "ĠØªØ±": 888,
      "ÙĬØ±ÙĬ": 889,
      "ÙĨÙĩ": 890,
      "Ø¨Ø§Øª": 891,
      "ĠÙĥÙĨØª": 892,
      "ÙĪØ§ÙĬ": 893,
      "Ø§Ø±Ùģ": 894,
      "ĠØ§ÙĦÙħØ¹": 895,
      "ĠØ¹ÙĦØ§Ø´": 896,
      "ĠÙĪØ²": 897,
      "ĠÙģÙħ": 898,
      "ØµØ©": 899,
      "ĠÙĨØ¹": 900,
      "Ø§Ø¯Ø±": 901,
      ":(": 902,
      "ĠØ§ÙĦÙħØ±": 903,
      "ĠÙĪØ§ÙĤ": 904,
      "ØµØ±": 905,
      "ĠÙĪØŃØ¯Ø©": 906,
      "ĠØ¨ÙĦØ§": 907,
      "Ġ4": 908,
      "ĠØ§ÙĦÙħØ³Øª": 909,
      "ĠÙĦÙĥ": 910,
      "ĠÙģØ¹": 911,
      "Ø¹Ø±ÙģÙĪ": 912,
      "ĠØ¨Ø§Øº": 913,
      "ĠØªÙĥÙĪÙĨ": 914,
      "Ø±Ø¬Ø¹": 915,
      "er": 916,
      "Ø§ÙĪÙĦ": 917,
      "ÙĪÙħØ§": 918,
      "Ø¯Ø±ÙĪ": 919,
      "ĠÙĦÙĦÙħ": 920,
      "ĠØ§ÙĦØ°ÙĬ": 921,
      "ÙĦÙĬÙħ": 922,
      "ĠØ§ÙĦÙĨØ§Ø³": 923,
      "ĠØ§ÙĦØ§Ø³Øª": 924,
      "ĠØªÙĪ": 925,
      "ĠÙĤØ¯Ø§Ùħ": 926,
      "Ø§Ø§Øª": 927,
      "Ø¨ÙĬÙĨ": 928,
      "ĠØ¨Ø¬": 929,
      "ÙĪØ§ÙĨ": 930,
      "ÙĨÙĬÙĨ": 931,
      "ĠÙħØ§Ùĥ": 932,
      "ÙĪÙĤØ¹": 933,
      "ĠØ¯ÙĬØ§ÙĦÙĥ": 934,
      "Ø¯ÙħØ©": 935,
      "ĠØ¹Ø§Ùħ": 936,
      "ĠØ§ÙĦÙĬÙĪÙħ": 937,
      "ĠØ§Ø³": 938,
      "ØªØ¨": 939,
      "ĠÙħØ¯": 940,
      "Ø§ØŃØ©": 941,
      "Ø§ÙĦØ§Øª": 942,
      "ĠÙĩØ°Ø§": 943,
      "Ø¢": 944,
      "ÙĤÙĪÙĦ": 945,
      "ĠØ§Øª": 946,
      "ÙĤØ±": 947,
      "ĠÙĪØ§ÙĦÙĪ": 948,
      "ĠÙĦÙĪ": 949,
      "ĠØ´Ùģ": 950,
      "ØªÙĨ": 951,
      "Ø´Ùģ": 952,
      "Ġ5": 953,
      "ĠØ¹ÙĦÙĬÙĥ": 954,
      "ĠÙĬÙĨ": 955,
      "ÙĥØ³": 956,
      "ĠÙĤØ±": 957,
      "ĠØ¨ØŃ": 958,
      "Ø§Ø¬ÙĦ": 959,
      "ÙĪÙĪÙĪ": 960,
      "ĊĊ": 961,
      "in": 962,
      "ĠÙĩÙĨØ§": 963,
      "ĠÙĦØ£": 964,
      "ÙĬÙģ": 965,
      "on": 966,
      "ÙĩØ²": 967,
      "ĠØ§ÙĦÙħØª": 968,
      "ÙĨÙĬÙģ": 969,
      "Ø§ØµØ©": 970,
      "ÙĥÙĪØ¯": 971,
      "ĠÙħØ¹Ø§Ùĩ": 972,
      "âĢĿ.": 973,
      "ĠØ§ÙĦÙĪÙĤØª": 974,
      "ĠØ§ÙĦØ¶": 975,
      "ĠÙĪØ®": 976,
      "ÙĥØ§": 977,
      "ÙĩÙĬ": 978,
      "Ø¶Ø©": 979,
      "ÙĬÙĬÙĬ": 980,
      "ĠØ±Ø§Ø³ÙĪ": 981,
      "ĠØ¨ÙĪ": 982,
      "ĠÙĪÙĥÙĬ": 983,
      "Ø§ÙĦÙĥ": 984,
      "ÙĨØ§ÙĨ": 985,
      "Ø§ÙģØ©": 986,
      "Ø¨ÙĬØ©": 987,
      "ÙĢ": 988,
      "ĠÙĥÙĬÙģØ§Ø´": 989,
      "ÙĤØ·": 990,
      "ĠØªØŃØª": 991,
      "ĠØ®ÙĦØ§ÙĦ": 992,
      "ĠØ§ÙĦÙħØ³": 993,
      "Ø§ÙĪÙĨ": 994,
      "Ø²ÙĦ": 995,
      "ØŃÙĦ": 996,
      "ïº": 997,
      "ĠÙģØ§Ø´": 998,
      "ÙħØ´": 999,
      "ĠÙħØŃÙħØ¯": 1000,
      "ĠØªØ¨": 1001,
      "Ø§ÙĨØª": 1002,
      "ÙĪØ§Ø¨": 1003,
      "ĠØ§Ùħ": 1004,
      "ĠÙħØ¹Ø§ÙĩØ§": 1005,
      "ÙĥØªØ¨": 1006,
      "ÙģÙĥ": 1007,
      "ĠØ§ÙĦÙģØ±": 1008,
      "Ø§Ø¨ÙĬ": 1009,
      "ĠÙĪØ¯": 1010,
      "ĠØ§ÙĦÙī": 1011,
      "Ø¶Ø§Ø¡": 1012,
      "Ø§ÙĦØ¬ÙĪØ§Ø¨": 1013,
      "Ø³ÙĦ": 1014,
      ":-": 1015,
      "ĠÙħÙĨÙĩØ§": 1016,
      "ĠØ§ÙĪ": 1017,
      "ÙĦÙĬÙģ": 1018,
      "ÙĪØ´": 1019,
      "Ø³Ø§Øª": 1020,
      "ĠØ¨Øª": 1021,
      "ĠÙħØ§Ø¹": 1022,
      "Ġ=": 1023,
      "ÙĬÙħ": 1024,
      "Ø²ÙĬØ¯": 1025,
      "ÙĥÙĪ": 1026,
      "ĠØŃØªØ§": 1027,
      "ĠØ§ÙĦØ´ÙĬ": 1028,
      "Ø§ÙħØ§": 1029,
      "ĠÙĤØ§ÙĦ": 1030,
      "Ø±ÙĬÙħ": 1031,
      "ĠØ§Ø¹": 1032,
      "ĠÙĪÙĦÙĬ": 1033,
      "ÙĨØ¨": 1034,
      "ÙĪÙĤÙģ": 1035,
      "ĠÙħØ§Ø¨": 1036,
      "ÙĪØ§Ø±": 1037,
      "ĠØ¹Ø·": 1038,
      "ĠØ§ÙĦÙħØ¬": 1039,
      "ÙĪØ§Ø´": 1040,
      "Ø§Ø®ÙĦ": 1041,
      "ĠÙħØ§ÙĬ": 1042,
      "Ø±ÙĬØ¨": 1043,
      "ĠØ·ÙĦØ¹": 1044,
      "ĠÙĦÙĩ": 1045,
      "Ø±ÙĬÙĤØ©": 1046,
      "Ø®Ø±Ùī": 1047,
      "ÙĨØ§Ø¡": 1048,
      "ĠÙĤÙĦØ¨": 1049,
      "ĠØ¹Ø±Ùģ": 1050,
      "ÙĥØ¯": 1051,
      "ĠÙģØ§ÙĦÙħ": 1052,
      "Ø¬ÙĦ": 1053,
      "Ø§ÙĨØ§Øª": 1054,
      "ĠÙĨÙĩØ§Ø±": 1055,
      "Ø¨Ø§ÙĦ": 1056,
      "Ø·ÙĦØ¹": 1057,
      "ĠØ¨ØºÙĬØª": 1058,
      "Ø¨ÙĬÙĦ": 1059,
      "ÙģØ¶": 1060,
      "ÙģØ¹": 1061,
      "ĠÙĬØŃ": 1062,
      "Ø§Ø¹ÙĬ": 1063,
      "__": 1064,
      "ĠØŃØ¯Ø§": 1065,
      "Ø§ÙĤÙĬ": 1066,
      "ÙĨÙĤ": 1067,
      "ar": 1068,
      "Ø¶Ø±Ø¨": 1069,
      "ØŃÙĪ": 1070,
      "ĠÙĦØ§Ø¨": 1071,
      "Ø¬Ø¨": 1072,
      "ĠÙĦÙģ": 1073,
      "ĠØ§ÙĦÙħØŃ": 1074,
      "ĠÙĪØ§Ø®Ø§": 1075,
      "Ø§ÙĬØ±": 1076,
      "ĠÙģÙĬÙĩÙħ": 1077,
      "an": 1078,
      "ĠØªØ®": 1079,
      "ĠØ§ÙĦØ¨Ø§Ø¨": 1080,
      "Ø§ÙĦØ®ÙĬ": 1081,
      "Ø·ÙĦ": 1082,
      "ÙĩØ¶Ø±": 1083,
      "ĠÙģÙĩØ§Ø¯": 1084,
      "Ø¬Ùħ": 1085,
      "Ø§Ø±Ø¬": 1086,
      "Ø§Ø³Ø©": 1087,
      "Ø§ÙĨØ©": 1088,
      "ĠØ§ÙĦØªØ¹": 1089,
      "ĠÙĬØ¯ÙĬÙĩØ§": 1090,
      "ĠÙĦØª": 1091,
      "ĠØ§ÙĦÙħØµ": 1092,
      "Ġ201": 1093,
      "ĠÙĬØ¯ÙĪ": 1094,
      "ĠØ£ÙĨØ§": 1095,
      "ĠÙĨØ¹Ø±ÙģÙĪ": 1096,
      "ÙĬØªÙĬ": 1097,
      "Ø²Ø¨": 1098,
      "ĠØ¯ÙĬÙĥ": 1099,
      "Ø§ÙĦØ®ÙĬØ§Ø±Ø§Øª": 1100,
      "ĠØ´ØŃØ§ÙĦ": 1101,
      "Ø§ÙĪØ¯": 1102,
      "ĠØ¨Ùħ": 1103,
      "ĠØ¹ÙĦÙĬØ§": 1104,
      "Ø§Ø±Øª": 1105,
      "ÙĤÙĦØ¨": 1106,
      "ĠØ§ÙĦÙĪØ·": 1107,
      "ĠØ£ÙĪ": 1108,
      "ĠØ§ÙĦÙħØ¯": 1109,
      "ĠØ¨ÙĬÙĩØ§": 1110,
      "ĠÙĬÙħÙĥÙĨØ´": 1111,
      "ĠÙĪÙĤÙģ": 1112,
      "ÙĨØ§Øª": 1113,
      "Ø¨ØºÙĬ": 1114,
      "Ø°Ø§": 1115,
      "ĠØ§ÙĦØ¨Ø±": 1116,
      "Ùĵ": 1117,
      "ÙĦØ§ÙĤ": 1118,
      "ĠÙĥØ§ÙĨÙĪ": 1119,
      "ÙĬÙĬÙĬÙĬ": 1120,
      "Ø·ÙĤ": 1121,
      "ĠØ¥ÙĬ": 1122,
      "Ø¯ÙĬØ¯Ø©": 1123,
      "ÙĪØ¶": 1124,
      "ĠÙĪØ¬Ùĩ": 1125,
      "Ø±Ø¨Ø©": 1126,
      "ĠÙĥÙĦØ´ÙĬ": 1127,
      "ĠÙĥØ±": 1128,
      "ĠØ³ÙħØ¹": 1129,
      "ÙĨÙĩØ§": 1130,
      "ĠØ§ÙĦØ¬ÙħÙĦØ©": 1131,
      "Ġ|": 1132,
      "Ø§ØªØ´": 1133,
      "ĠØ§ÙĦÙħÙĤ": 1134,
      "ÙħÙĪØ¹Ø©": 1135,
      "ĠØ¨Ø¯Ø§": 1136,
      "Ø§ÙĥÙĦ": 1137,
      "ĠÙĥÙĬØ¹": 1138,
      "ĠÙĥÙĬØ´ÙĪÙģ": 1139,
      "ÙĩÙĩÙĩÙĩ": 1140,
      "Ø¨ÙĬØ±Ø©": 1141,
      "Ø§Ø¹Ø¯": 1142,
      "ĠØ¨Ø¹Ø¶": 1143,
      "ÙħÙĪØ¹": 1144,
      "Ø§ÙħÙĬ": 1145,
      "ÙĦÙĬÙĦ": 1146,
      "Ø¹ÙħÙĦ": 1147,
      "ÙĪÙħØ§Øª": 1148,
      "ÙħØ§Ø±": 1149,
      "ÙĪØ±ÙĬ": 1150,
      "ĠØµØ¨": 1151,
      "Ø¹Ø¨": 1152,
      "ĠØ´Ø§ÙģØª": 1153,
      "ÙĪØ©": 1154,
      "ĠØ¯ÙĬØ§ÙĦÙĩÙħ": 1155,
      "Ø§ÙĪØ¨": 1156,
      "ĠÙĬØ³": 1157,
      "Ø¬Ø±ÙĬ": 1158,
      "Ø±Ø±": 1159,
      "ÙĦÙĬÙģÙĪÙĨ": 1160,
      "ĠÙĪØ§ÙĦÙħ": 1161,
      "!!": 1162,
      "ĠØ¹ÙĬÙĨ": 1163,
      "ĠØ¨ÙĬÙĩ": 1164,
      "ÙģÙĬÙĨ": 1165,
      "ÙĪØ§ÙĬØ¬": 1166,
      "Ø§Ø³ÙĩØ§": 1167,
      "ĠĠĠ": 1168,
      "ÙĪØ§Ø¬": 1169,
      "ĠØ¹ÙĨØ¯ÙĬ": 1170,
      "Ø§ØµÙĦ": 1171,
      "Ø¨ÙĬØ¨": 1172,
      "ĠÙħØ¹Ø§Ùĥ": 1173,
      "Ø§ØªÙĩÙħ": 1174,
      "ĠØ¨Ø´ÙĥÙĦ": 1175,
      "ØªØµÙĨÙĬÙģ": 1176,
      "ÙĨØ²": 1177,
      "ĠØŃÙĬØ«": 1178,
      "ĠØ§ÙĦØ¨ÙĦ": 1179,
      "ĠÙĥØ§": 1180,
      "ĠÙĥØªØ´ÙĪÙģ": 1181,
      "ĠØ¨Ø·": 1182,
      "ĠØ®Øµ": 1183,
      "ÙħØ§ÙĦ": 1184,
      "ĠÙĪÙħÙĨ": 1185,
      "ĠÙĨØªØ§": 1186,
      "ĠØ£Ø³": 1187,
      "ĠØ¨Ø®": 1188,
      "ĠØµØ§ÙģÙĬ": 1189,
      "ĠØ¹ÙħØ±": 1190,
      "ÙĩÙĪÙħ": 1191,
      "ÙĪÙĪÙĪÙĪ": 1192,
      "ÙĪÙĩØ§": 1193,
      "Ø§ÙģØª": 1194,
      "ĠÙĤØ¯": 1195,
      "ÙĬØ§Øª": 1196,
      "ÙħÙĬØ©": 1197,
      "ÙħØ§Ùħ": 1198,
      "Ø¸Ø±": 1199,
      "Ø§ÙĦØŃ": 1200,
      "ÙĨÙģØ³": 1201,
      "Ø§ÙĬØ©": 1202,
      "ĠÙĥØ§ÙħÙĦ": 1203,
      "ĠÙĩØ°Ùĩ": 1204,
      "ĠÙĬØ¯": 1205,
      "ĠØ£ÙĬ": 1206,
      "ĠØªØ²": 1207,
      "Ø§Ø¬ØªÙħ": 1208,
      "ĠØ¬Ø±": 1209,
      "at": 1210,
      "en": 1211,
      "ĠÙĦØ¯": 1212,
      "ĠÙĬÙĪÙħ": 1213,
      "es": 1214,
      "ĠØªÙĤØ¯Ø±": 1215,
      "ĠØ¹ÙĬÙĨÙĬÙĩ": 1216,
      "ÙĬØ´": 1217,
      "ĠÙħÙĩÙħ": 1218,
      "Ø³ÙĬÙĨ": 1219,
      "ĠÙĥØ¨ÙĬØ±": 1220,
      "ĠÙħÙģ": 1221,
      "ĠÙħÙĨÙĪ": 1222,
      "Ø¶ÙĬØ©": 1223,
      "ĠÙĥØªØ¨": 1224,
      "Ġ6": 1225,
      "ÙħØ«": 1226,
      "ĠØ¹Ø§Ø±Ùģ": 1227,
      "ÙĪØ§ØŃØ¯": 1228,
      "ØªØ¹": 1229,
      "ĠÙħÙĦ": 1230,
      "ĠØ§ÙĦØ¹Ø§Ùħ": 1231,
      "Ø³Ø¤Ø§ÙĦ": 1232,
      "ĠÙħÙĥØ§ÙĨ": 1233,
      "ĠØ¨ÙĤØ§Øª": 1234,
      "ĠØ¨Ùĩ": 1235,
      "ĠÙħØ«": 1236,
      "ÙĪÙĨØ§": 1237,
      "ĠØ¹ÙĨØ¯Ùĥ": 1238,
      "Ø§Ø¨Ø¹": 1239,
      "Ø¶Ø¹": 1240,
      "ĠA": 1241,
      "al": 1242,
      "ÙĦØ¹Ø¨": 1243,
      "ĠÙĪÙĤØ§ÙĦ": 1244,
      "ĠÙĨØ¬": 1245,
      "ĠØ®ÙĦ": 1246,
      "ÙĥÙĬØ©": 1247,
      "ØªÙĪØ¬": 1248,
      "Ø·Ø§Ø±": 1249,
      "ĠÙĬØ´": 1250,
      "ĠÙĪØµÙĦ": 1251,
      "ÙĦÙĩØ§": 1252,
      "ĠØ§ÙĦØ¯Ø§Ø±": 1253,
      "ÙĬØ±Ø§": 1254,
      "ĠÙĨØµ": 1255,
      "Ø¨ØŃ": 1256,
      "ĠØ¨Ø§Ø¨": 1257,
      "ĠØŃØ·": 1258,
      "ĠØ¥ÙĦØ§": 1259,
      "ÙĨØªÙĬ": 1260,
      "ÙĩØ§Ø´": 1261,
      "ĠØ§ÙĦØŃÙĬ": 1262,
      "ĠØ£ÙĥØ«Ø±": 1263,
      "ĠÙĥÙĪÙĦ": 1264,
      "ĠØ´ÙĥÙĪÙĨ": 1265,
      "ĠØ¸": 1266,
      "ĠÙĪÙĥØª": 1267,
      "ĠØ¨Ø³Ø¨": 1268,
      "Ø±ÙģØ©": 1269,
      "Ø«Ø©": 1270,
      "ÙĪØ±ÙĪ": 1271,
      "ÙĦÙĬÙĩØ§": 1272,
      "ÙĨØªØ§Ø¬": 1273,
      "ĠÙĥÙĪÙĨ": 1274,
      "Ø¹Ø±ÙĩØ§": 1275,
      "ĠØ¬ÙĪØ¬": 1276,
      "ĠØ§ÙĦØ¹Ùħ": 1277,
      "ÙħÙĬØ¹": 1278,
      "ÙĨØ¯ÙĪ": 1279,
      "ĠÙĤØ±Ø¨": 1280,
      "ÙģÙĥØ±": 1281,
      "Ø§Ø±ÙĬØ®": 1282,
      "ĠÙĬØ§": 1283,
      "ĠØ§ÙĦØ§ÙĨ": 1284,
      "ĠÙĦÙĦÙĬ": 1285,
      "ĠÙħÙĪØ±": 1286,
      "ĠÙħØ´Ø§Øª": 1287,
      "Ø¨Ø§Ø¨": 1288,
      "ÙĨÙī": 1289,
      "or": 1290,
      "ĠØªÙĥ": 1291,
      "ĠØ§ÙĦÙħØ®": 1292,
      "Ø§ØµØ±": 1293,
      "ĠØ§ÙĦØŃÙĥ": 1294,
      "ĠØ±Ø¬Ø¹": 1295,
      "Ø§Ø³ÙĬØ©": 1296,
      "ĠØ´Ø®Øµ": 1297,
      "ĠØ¯ÙĬØ§ÙĦÙĬ": 1298,
      "ÙĤÙĬÙĤ": 1299,
      "ĠØ§ÙĦØ¯ÙĪ": 1300,
      "ĠØ¨ÙĨØª": 1301,
      "ĠØ§ÙĦØ¯ÙĬÙĨ": 1302,
      "ĠÙĬØ¯ÙĬÙĩ": 1303,
      "ĠÙĪØº": 1304,
      "ĠØ§ÙĦÙģÙĬ": 1305,
      "ĠÙħÙĩ": 1306,
      "Ø¨Ø³": 1307,
      "):-": 1308,
      "ĠØ¯Ø§ÙĥØ´ÙĬ": 1309,
      "Ġ'": 1310,
      "ĠÙĦÙĥÙĦ": 1311,
      "ĠØ¤": 1312,
      "ĠÙĪØ£": 1313,
      "Ø§ÙĪÙĬ": 1314,
      "ĠÙħØ§Ø±": 1315,
      "Ø®Ø¯Ø§Ùħ": 1316,
      "Ø¶Ø±Ø©": 1317,
      "ĠÙĨØ§Ø¶": 1318,
      "Ø±ÙĪÙģ": 1319,
      "ÙĥØ±ÙĬ": 1320,
      "ĠÙħØ²Ø§ÙĦ": 1321,
      "ĠØºØ§ÙĨ": 1322,
      "Ø¦Ø©": 1323,
      "ØºØ§Ø±": 1324,
      "++": 1325,
      "ĠØ¹ÙĦÙĬÙĩÙħ": 1326,
      "ÙĦØ§ØŃ": 1327,
      "ĠØ§Ø®Ø±": 1328,
      "ðŁ": 1329,
      "ÙĦØ§Ùĩ": 1330,
      "ĠÙĦØ¬": 1331,
      "Ø°ÙĦÙĥ": 1332,
      "ĠÙĩØ¯": 1333,
      "ĠÚ¯": 1334,
      "Ø¯ÙĬÙĥ": 1335,
      "Ø§ÙĦÙĪ": 1336,
      "ĠØºÙĨ": 1337,
      "ÙĦÙħØ©": 1338,
      "ĠØ¹Ø¨Ø¯": 1339,
      "Ø³Ø§ÙĨ": 1340,
      "ÙĤÙĩØ§": 1341,
      "ĠØ§ÙĪÙĦ": 1342,
      "ĠØ§ÙĦØ¬ÙĪØ§Ø¨": 1343,
      "ØŃÙĬØ©": 1344,
      "ĠÙĩØ§Ùĥ": 1345,
      "Ø§Ø¯ÙĬØ©": 1346,
      "Ø±ÙĥØ§Øª": 1347,
      "ÙĪÙĬÙĨ": 1348,
      "ĠÙĦÙĬÙĩÙħ": 1349,
      "ÙĩÙĪØ±": 1350,
      "ÙĤÙĬÙĤØ©": 1351,
      "Ù¾": 1352,
      "ÙĪØ¬Ùĩ": 1353,
      "Ġ8": 1354,
      "ĠÙĨØ²": 1355,
      "ĠØµÙĪØª": 1356,
      "ĠÙĬØ§Ø³": 1357,
      "ĠØŃÙĦ": 1358,
      "ÙħØ±ÙĬ": 1359,
      "Ø§ÙģÙĬØ©": 1360,
      "ĠØ§Øµ": 1361,
      "Ø±Ø¶ÙĬØ©": 1362,
      "ØŃØ§Øª": 1363,
      "ĠØºØ§": 1364,
      "ĠØ¹Ø¯Ø¯": 1365,
      "Ø¨ÙĤÙī": 1366,
      "ÙĤØµ": 1367,
      "ÙĦÙĪØ³": 1368,
      "ĠØ¨Ø§ÙĨ": 1369,
      "ØºÙħ": 1370,
      "ÙĤØ§": 1371,
      "ĠØ¨Ø§ÙĦÙħ": 1372,
      "Ø§Ø¨Ø§Øª": 1373,
      "ĠÙĬØ§Ùĥ": 1374,
      "ÙģÙĩØ§": 1375,
      "ĠÙĦØ¨ÙĬ": 1376,
      "Ø¨ÙĩØ§": 1377,
      "ĠØ´ÙĪÙģ": 1378,
      "ĠØ¬Ø§": 1379,
      "ĠØºØ§ÙĬ": 1380,
      "Ø¨Ùĩ": 1381,
      "ĠØ¨Ø§ØºÙĬ": 1382,
      "ÙĪØ§Øª": 1383,
      "ĠØµØŃÙĬ": 1384,
      "ĠÙĥØ¨ÙĬØ±Ø©": 1385,
      "ĠÙģØŃØ§ÙĦ": 1386,
      "ĠØºØ§Øª": 1387,
      "Ġ10": 1388,
      "ĠS": 1389,
      "ØŃÙħ": 1390,
      "ÙĦØ§Ø«": 1391,
      "Ø§Ø¹Ø§Øª": 1392,
      "Ø·Ø¨ÙĬ": 1393,
      "Ø§ÙĨÙĪÙĨ": 1394,
      "ØºØ±Ø¨ÙĬ": 1395,
      "ÙħÙĬÙĨ": 1396,
      "ĠØ§ÙĦØ´Ø®Øµ": 1397,
      "Ø¬ÙħØ¹": 1398,
      "Ø§ÙĨÙĬØ§": 1399,
      "ĠØ¨Ø§Ø³Øª": 1400,
      "Ø³ÙħØ¹": 1401,
      "Ø§ÙĤØ©": 1402,
      "Ø±ÙĬÙĨ": 1403,
      "Ø·ÙĪØ±": 1404,
      "ĠØ¹Ø§Ø¦": 1405,
      "ÙĬØªÙĪ": 1406,
      "Ø¨ÙĦØ©": 1407,
      "ĠØªØ³Øª": 1408,
      "ØªØ³Ø§ÙħØ©": 1409,
      "ĠÙĨÙħØ´ÙĬ": 1410,
      "ĠØ¨ØºÙĬØªÙĬ": 1411,
      "ĠØ¯ÙĬØ±": 1412,
      "ĠØ§ÙĦØªÙĤ": 1413,
      "Ġ7": 1414,
      "ĠÙĬØ§ÙĦ": 1415,
      "ĠÙĪÙħØ´": 1416,
      "Ø¬ÙĨ": 1417,
      "Ø§Ø±Ø¯": 1418,
      "ÙĪÙī": 1419,
      "ĠÙĬÙĤØ¯Ø±": 1420,
      "ĠØ¹ÙĨØ¯ÙĩÙħ": 1421,
      "Ø¯ÙĬØ©": 1422,
      "ĠØªØ£": 1423,
      "ĠÙĪÙĥØ§ÙĨ": 1424,
      "ĠØŃØ³Ø¨": 1425,
      "ĠÙĨØ´ÙĪÙģ": 1426,
      "ĠØ¨Ø¯Ø§Øª": 1427,
      "ĠÙĨØŃ": 1428,
      "ĠÙħØ§ÙĨ": 1429,
      "Ø±Øª": 1430,
      "ĠC": 1431,
      "ÙħØ§Øª": 1432,
      "ĠØªØ¯": 1433,
      "Ø§Ø¬ÙĬ": 1434,
      "ÙĦØ¨ÙĬ": 1435,
      "Ø¯ÙĬÙĩØ§": 1436,
      "ÙĬÙĥ": 1437,
      "ĠÙĪØ·": 1438,
      "ĠØ¹ÙĦØ§": 1439,
      "Ø·ÙĤØ©": 1440,
      "ĠØ§ÙĦØªØŃ": 1441,
      "ÙģÙģ": 1442,
      "ÙĦÙĬÙĨ": 1443,
      "ĠØ¯ÙĪÙĦ": 1444,
      "ĠØ§ÙĦÙĤØ±": 1445,
      "Ø¯ÙĪØ²": 1446,
      "ĠÙĪÙĤØ§ÙĦØª": 1447,
      "ĠØªØ´ÙĪÙģ": 1448,
      "Ø§Ø±Ùĥ": 1449,
      "ĠØ§ÙĦØ§Ùħ": 1450,
      "ĠØ¨Ø§ÙĤÙĬ": 1451,
      "ÙĨÙģ": 1452,
      "ÙĨØ§Ø³": 1453,
      "20": 1454,
      "ĠÙĤØµ": 1455,
      "ĠØ¨Ø³": 1456,
      "Ø§ÙħÙĦØ©": 1457,
      "ĠØ¬ÙħØ¹": 1458,
      "ĠØ¬Ø§Øª": 1459,
      "ĠØ²ÙĬ": 1460,
      "ĠØ¹Øµ": 1461,
      "ĠØ§ÙĦØ´Ø±": 1462,
      "Ø§ØŃØª": 1463,
      "ĠÙĦÙĩØ§": 1464,
      "ĠÙĪÙĦØ¯": 1465,
      "ĠØ¯Ø§Ø±Øª": 1466,
      "Ø¬Ø§Ø¨": 1467,
      "ĠØ¯ÙĪØ±": 1468,
      "ĠØ´Ø±": 1469,
      "ĠÙħØ¹Ø§ÙĬØ§": 1470,
      "ĠØ¨Ø´ÙĪÙĬØ©": 1471,
      "Ø¯ÙĬÙĨ": 1472,
      "ĠØŃÙĤ": 1473,
      "Ø±Ø¬Ø©": 1474,
      "ĠØ§ÙĦÙħÙĦÙĥ": 1475,
      "ĠÙĩÙĪÙħØ§": 1476,
      "ØŃØªÙī": 1477,
      "ĠØ¬ÙĦØ³": 1478,
      "ĠØŃØ§ÙĦØ©": 1479,
      "ĠØ§ÙĦØ¯Ø±": 1480,
      "Ø¯ÙĬÙħ": 1481,
      "Ø·Ùģ": 1482,
      "Ø®ÙĦÙĪ": 1483,
      "Ø§ÙĦØ§": 1484,
      "ÙĬØ¨": 1485,
      "ĠØ¬ÙĪ": 1486,
      "Ø§Ø§Ùģ": 1487,
      "ĠÙĥÙĬÙĨ": 1488,
      "ĠØ¯Ø§Ø®ÙĦ": 1489,
      "ĠÙħØ´Ø§": 1490,
      "Ø¨ÙĤØ§": 1491,
      "ÙĨØ¬": 1492,
      "ĠØ§ÙĦÙħÙĩÙħ": 1493,
      "ĠØ¨Ø£": 1494,
      "Ø¯ÙĬØ±ÙĪ": 1495,
      "Ø§ÙĦØ¹": 1496,
      "ĠØ¥ÙĦÙī": 1497,
      "ĠÙĨØ´": 1498,
      "ĠØ®ÙĦÙĬ": 1499,
      "ĠØ¨ÙĤØ§": 1500,
      "Ø«ÙĬØ±": 1501,
      "ĠØ§ÙĦÙģØ±Ø¶ÙĬØ©": 1502,
      "Ø·Ø¹": 1503,
      "Ø²ÙĨ": 1504,
      "Ġ!!": 1505,
      "ĠÙĦÙĤØ§Øª": 1506,
      "ĠØ¬Ø¯ÙĬØ¯": 1507,
      "Ø±Ø¯": 1508,
      "Ø¶Ø§": 1509,
      "----": 1510,
      "ÙĤÙħ": 1511,
      "ÙĤØ¯Ø±": 1512,
      "ĠØ®Ø¯Ùħ": 1513,
      "Ý£": 1514,
      "ĠÙħÙĨÙĬÙĨ": 1515,
      "ĠØ§ÙĦØ§Ø®": 1516,
      "ØºÙĬØ±Ø©": 1517,
      "ĠØ§ÙĦØªÙĪ": 1518,
      "ĠÙħØ¬ÙħÙĪØ¹Ø©": 1519,
      "ĠÙģØ´": 1520,
      "ĠØ§ÙĦÙĪÙĦ": 1521,
      "Ø§Ø¨ÙĤ": 1522,
      "ĠÙģØŃ": 1523,
      "ĠØ´Ø¹Ø±ÙĩØ§": 1524,
      "ĠÙĥØªØ¹": 1525,
      "Ø§Ø§Ùĩ": 1526,
      "ĠØ¶Ø±Ø¨": 1527,
      "ĠØ®Ø±Ø¬Ø§Øª": 1528,
      "ĠØ§ÙĨØª": 1529,
      "ĠØ¬Ø§ÙĬ": 1530,
      "ĠĠĠĠ": 1531,
      "ÙĪÙĦÙĪ": 1532,
      "ÙģØ§Ø´": 1533,
      "ÙĪÙĨØ³": 1534,
      "ĠÙģÙĢ": 1535,
      "Ø¸Ø§Ùħ": 1536,
      "ĠÙģØª": 1537,
      "ĠØ®Ø¯Ø§Ùħ": 1538,
      "Ġ9": 1539,
      "ĠÙĪØ³Ø·": 1540,
      "ĠØ§ÙĦØ§Øª": 1541,
      "ĠÙĥÙħØ§": 1542,
      "ĠÙĪÙĤØª": 1543,
      "ĠØ§ÙĦØ¨ÙĬØ§ÙĨØ§Øª": 1544,
      "le": 1545,
      "ĠĊ": 1546,
      "ØŃØ§Ø¨": 1547,
      "Ġ200": 1548,
      "ĠØ¯ÙĬÙħØ§": 1549,
      "ĠÙĪØ§ÙĦØª": 1550,
      "ĠØ±Ø§": 1551,
      "ĠÙĩØ§": 1552,
      "ĠÙħØ§ÙĦ": 1553,
      "Ø¯ÙĬÙĪ": 1554,
      "ĠØŃØ§ÙĦ": 1555,
      "Ø§Ø¨Øª": 1556,
      "ĠØªÙħØ§": 1557,
      "ĠØ§ÙĦØŃØ±": 1558,
      "Ø§Ø³ÙĪ": 1559,
      "ÙĨØ´": 1560,
      "ĠØ´Ø¹": 1561,
      "ĠØ§ÙĦØ³ÙĦ": 1562,
      "ÙĪÙĦØ§": 1563,
      "ĠØ§Ø±": 1564,
      "Ø±Ø§Øª": 1565,
      "ou": 1566,
      "ĠÙĦØ®": 1567,
      "ØºÙĦ": 1568,
      "ĠÙĥÙĨØªÙĬ": 1569,
      "Ø§ÙĦØ¨": 1570,
      "Ø¹ÙĬØ´": 1571,
      "ĠÙĨÙĪ": 1572,
      "ÙĤØ±Ø¨": 1573,
      "Ġ0": 1574,
      "ÙĥØ´": 1575,
      "ĠÙĤØ§ÙĦØª": 1576,
      "ÙĬØ±Ø§ÙĨ": 1577,
      "Ø¶ÙĪØ¹": 1578,
      "ĠØ§ÙĦÙħØºØ±Ø¨ÙĬØ©": 1579,
      "ĠØ§ÙĦÙĪØ·ÙĨÙĬ": 1580,
      "ĠØ§ÙĦØ§Ø¬ØªÙħ": 1581,
      "ĠØ±Ùĥ": 1582,
      "ØªØ§Ø±": 1583,
      "ĠÙĥÙĬØ´": 1584,
      "ĠØ§ÙĦØ¹Ø§ÙĦÙħ": 1585,
      "Ø³Ø±Ø¹Ø©": 1586,
      "ÙĨØ¹": 1587,
      "ÙĬØªØ´": 1588,
      "ÙĬØªÙĩØ§": 1589,
      "Ġs": 1590,
      "ÙĨØ¯ÙĬ": 1591,
      "ĠØ§ÙĦØªØ±": 1592,
      "Ø§Ø¨ÙĦ": 1593,
      "ĠÙĩÙĩÙĩÙĩ": 1594,
      "ĠØ§ÙħØ§": 1595,
      "ØªÙĩÙħ": 1596,
      "ĠÙĬØ³Øª": 1597,
      "ØŃØ³ÙĨ": 1598,
      "ĠÙĪØ®Ø±Ø¬": 1599,
      "ĠÙĦÙĩØ§Ø¯": 1600,
      "ĠÙĦØ¹ÙĨØ¯": 1601,
      "ĠÙħØ§Ùħ": 1602,
      "ĠØ§ÙĦØŃÙĥÙĪÙħØ©": 1603,
      "ĠÙģÙĥ": 1604,
      "ÙĨÙĪØ§ÙĨ": 1605,
      "ĠÙĦÙĦØ§": 1606,
      "ĠÙģÙĦ": 1607,
      "ĠÙĪÙģÙĬ": 1608,
      "ÙĪÙħÙĪ": 1609,
      "ch": 1610,
      "ĠÙħÙĨÙĬ": 1611,
      "ĠØ§ÙĦÙħÙĨØª": 1612,
      "ĠØ·Ø±Ùģ": 1613,
      "Ø¯Ø§Ø¡": 1614,
      "Ø§Ø¯Ùħ": 1615,
      "ØµÙģ": 1616,
      "ĠÙĥØ§Ø¹": 1617,
      "ĠØ²Ø§Ø¯": 1618,
      "ĠØ®ÙĦØ§": 1619,
      ").": 1620,
      "ĠØ®Ø·": 1621,
      "ØŃØ§ÙĪÙĦ": 1622,
      "Ø¹ÙħØ§ÙĦ": 1623,
      "ÙĪÙħÙĬ": 1624,
      "ĠØ·Ø±ÙĬÙĤ": 1625,
      "Ø¯ÙĬÙĩ": 1626,
      "ĠØ³ÙĨØ©": 1627,
      "ĠØ¯Ø®ÙĦØ§Øª": 1628,
      "ĠØ§ÙĦØ±Ø¬": 1629,
      "Ø§ÙĦØ³Ø¤Ø§ÙĦ": 1630,
      "Ø§Ø®Ø¯": 1631,
      "ĠM": 1632,
      "re": 1633,
      "ÙģÙĦ": 1634,
      "Ø·ÙĦÙĤ": 1635,
      "Ø§ÙħØ¬": 1636,
      "ÙĪÙĬØ§": 1637,
      "ĠÙģØ±ØŃ": 1638,
      "ÙĪØ³Ùģ": 1639,
      "ÙĬÙĩØ§": 1640,
      "ĠÙĦØº": 1641,
      "ØªÙĦÙģØ©": 1642,
      "ÙģÙĩÙħ": 1643,
      "ĠÙĩØ²Ø§Øª": 1644,
      "ĠØ¬Ø¯ÙĬØ¯Ø©": 1645,
      "ĠØºØª": 1646,
      "ĠÙĤÙĦØª": 1647,
      "Ø¨ÙĬØ¨Ø©": 1648,
      "ĠâĢĵ": 1649,
      "ÙĩÙĦ": 1650,
      "ĠÙĦÙĦØŃ": 1651,
      "Ø·ÙĪØ©": 1652,
      "Ø¬ÙĬØ¨": 1653,
      "Ø¬Ø²": 1654,
      "Ø§Ø¦ÙĬØ©": 1655,
      "ĠØ±Ø§Ùĥ": 1656,
      "ÙĥØ§Øª": 1657,
      "ĠØŃÙĪÙĦ": 1658,
      "ĠØ§ÙĦØ³Ø¤Ø§ÙĦ": 1659,
      "ÙĤØª": 1660,
      "ĠÙĨØ³Øª": 1661,
      "ĠØ§ÙĦØ¹Ø§ÙħØ©": 1662,
      "Ø§Ø§Ø§Øª": 1663,
      "ÙĦÙĬÙĩ": 1664,
      "ĠP": 1665,
      "Ø§Ø§Ùĥ": 1666,
      "Ø¨Øº": 1667,
      "ĠÙģÙĬÙĥ": 1668,
      "ĠÙĬØ¹ÙĨÙĬ": 1669,
      "ÙģÙĬÙĪ": 1670,
      "ÙĪÙĨØ©": 1671,
      "Ø·ÙĦØ¨": 1672,
      "ÙĨØ³Ø¨Ø©": 1673,
      "ØµØ§ÙĦ": 1674,
      "ĠÙĪÙĤØ¹": 1675,
      "ĠÙĪØ§ÙĨØ§": 1676,
      "ĠØ¬ÙĩØ©": 1677,
      "ÙĪÙĦÙĪØ¬": 1678,
      "ØŃÙĦØ©": 1679,
      "ĠØ¨Ø³Ø¨Ø¨": 1680,
      "ÙĨÙĨ": 1681,
      "Ø³Ø·": 1682,
      "Ø§ÙĬØ§Øª": 1683,
      "ĠØ³Ø±": 1684,
      "ĠØ³Øª": 1685,
      "ÙĨÙĬØ§": 1686,
      "ĠÙĪØ¬ÙĩÙĩØ§": 1687,
      "ÙĥØ¨Ø±": 1688,
      "Ø§Ø±ÙĬØ©": 1689,
      "ĠÙģÙĬØ§": 1690,
      "Ø®Ø§Øµ": 1691,
      "Ø§Ø±Ø¶": 1692,
      "ĠØ£Ø®Ø±Ùī": 1693,
      "ĠØŃØ±": 1694,
      "ÙĪÙģØ±": 1695,
      "ĠØ¯ÙĪÙĦØ§Ø±": 1696,
      "Ø¸Ø©": 1697,
      "ĠØ¯Ø§Ø²": 1698,
      "Ø±Ø§Ø¡": 1699,
      "Ø´ÙĨÙĪ": 1700,
      "Ø·ÙĨ": 1701,
      "ĠÙħÙĥÙĨ": 1702,
      "ĠØ°ÙĦÙĥ": 1703,
      "ĠØªÙħØ´ÙĬ": 1704,
      "Ùĭ": 1705,
      "ĠØ®Ø§ØµØ©": 1706,
      "ĠØ®Ø§ÙĬ": 1707,
      "Ø°ÙĨ": 1708,
      "ĠØ±Ø§Ø³Ùĥ": 1709,
      "ĠØ§ÙĦÙħØªØŃ": 1710,
      "Ø§Ø¹Øª": 1711,
      "ĠØ¨ØµÙĪØª": 1712,
      "ĠÙħØ¤": 1713,
      "ĠÙĦÙĬÙĨØ§": 1714,
      "Ġt": 1715,
      "ÙĤØ¯Ùħ": 1716,
      "Ø§Ø³Ø¨": 1717,
      "ĠØ¯Ø§ÙĬØ±": 1718,
      "it": 1719,
      "ÙĪØ·": 1720,
      "Ø¨Ø¨": 1721,
      "ĠØ§ÙĦÙħØ¹ÙĦ": 1722,
      "ĠØ´Ø±ÙĥØ©": 1723,
      "ĠÙģÙħÙĩØ§": 1724,
      "ĠØ¢Ø®Ø±": 1725,
      "ĠØªØ¹Ø±Ùģ": 1726,
      "ĠØ¨Ø³Ø±Ø¹Ø©": 1727,
      "ĠØ³Ø§Ùĥ": 1728,
      "ĠØŃÙĨØ§": 1729,
      "Ġp": 1730,
      "ĠÙĥØªØ±": 1731,
      "ÙģØ±ÙĬÙĤ": 1732,
      "ØµÙĪØ±": 1733,
      "ØªÙĬØ´": 1734,
      "ĠØ³Ø§Ø¹Ø©": 1735,
      "ÙģØ§Ø¹": 1736,
      "ÙĩÙħØ§": 1737,
      "ÙĬÙĨÙĬÙĩØ§": 1738,
      "Ø§ÙĤØ¹": 1739,
      "ÙĬØ±Ø§Øª": 1740,
      "ĠØµÙģ": 1741,
      "ĠØŃÙĪØ§ÙĬØ¬": 1742,
      "ĠØªØ§ÙĨÙĬ": 1743,
      "ĠØ¨Ø¬ÙĪØ¬": 1744,
      "ÙĬØ±ÙĪ": 1745,
      "ĠÙĪÙħØ¹": 1746,
      "Ø²Ø§Øª": 1747,
      "ĠØ±Ø³": 1748,
      "ĠÙĨÙĤØ¯Ø±ÙĪ": 1749,
      "Ø¯ÙĪØ±": 1750,
      "Ø¹ÙĬÙĨ": 1751,
      "ĠØ¯Ø§": 1752,
      "ĠÙĨÙĬ": 1753,
      "ĠØ·ÙĦÙĤ": 1754,
      "ĠØªÙĩ": 1755,
      "ĠÙĬØ¯ÙĩØ§": 1756,
      "ÙħØ¯ÙĬÙĨØ©": 1757,
      "ĠØªÙĦÙĤ": 1758,
      "Ø§Ø·Ø±": 1759,
      "ĠØ¨ÙħØ§": 1760,
      "ĠØ¨Ùĥ": 1761,
      "Ø¯ÙĤ": 1762,
      "Ø£Ø³": 1763,
      "ĠØ¨Ø¹Ø¯ÙħØ§": 1764,
      "ÙĨØ¯ÙĤ": 1765,
      "ÙĨÙĥ": 1766,
      "is": 1767,
      "ĠØ·ÙĦØ¨": 1768,
      "ĠT": 1769,
      "ÙĤØ¨ÙĦ": 1770,
      "ÙħØ¶": 1771,
      "ĠÙĬØ®": 1772,
      "ĠØ§ÙĩØ¦": 1773,
      "ĠÙħÙĪÙĦ": 1774,
      "ĠØµØ¨Ø§ØŃ": 1775,
      "Ø·Ø¨": 1776,
      "ÙħÙĤ": 1777,
      "ĠÙħØŃØª": 1778,
      "Ø±ÙĬØ³": 1779,
      "Ø¨Ø¯Ø§Øª": 1780,
      "Ø§Ø¹ÙĬØ©": 1781,
      "Ø±ÙĥØ²": 1782,
      "Ú¤": 1783,
      "ĠÙĤÙĬ": 1784,
      "ÙħØ¬": 1785,
      "Ø§ÙĥØ´": 1786,
      "ĠØ§ÙĦÙħÙĦ": 1787,
      "ĠâĢ¦": 1788,
      "ĠØ§ÙĦÙħÙĩ": 1789,
      "Ġm": 1790,
      "ĠØ¯Ø§ÙĦ": 1791,
      "ĠÙĪØ§ÙĦØ§": 1792,
      "ØŃÙħØ¯": 1793,
      "Ø¨Ø¯Ø§": 1794,
      "ĠÙĥÙĬØ±": 1795,
      "ĠÙĪØ§ÙĦÙĦÙĩ": 1796,
      "ĠÙĪÙĩØ§Ø¯": 1797,
      "ĠÙģÙĩÙħ": 1798,
      "ĠØ®Ø§Ø±Ø¬": 1799,
      "ĠØ§ÙĦØ¨ÙĬØ¶Ø§Ø¡": 1800,
      "ĠÙħÙĥØª": 1801,
      "ĠÙĩÙĨ": 1802,
      "ĠØ§ÙĦØ£Ø³": 1803,
      "ĠØ§ÙĦÙĥÙĦ": 1804,
      "ØªÙĦÙģ": 1805,
      "ĠÙĪÙĥÙĦ": 1806,
      "ĠØ§ÙĦØªØ¬": 1807,
      "ĠØ¬ÙĦ": 1808,
      "ĠØ¹ÙĬÙĪÙĨ": 1809,
      "ĠØ¶Ø¯": 1810,
      "ĠÙĥØªØ´": 1811,
      "ĠØ§ÙĨÙĩ": 1812,
      "ĠØŃØ³ÙĨ": 1813,
      "Ø¨ÙĬØ¹": 1814,
      "ĠØ¨ÙĩØ§Ø¯": 1815,
      "ØµÙĬ": 1816,
      "Ø®Ø©": 1817,
      "Ġ15": 1818,
      "Ø§Ø±Ø¨": 1819,
      "Ø§Ø¦ÙĬ": 1820,
      "Ø¨Ø¹Ø¯": 1821,
      "ĠÙħØµØ§Ø¯Ø±": 1822,
      "ØŃØ¨": 1823,
      "ĠØ¬ÙħÙĬØ¹": 1824,
      "Ø§ÙĦÙĦÙĩ": 1825,
      "Ø´Ø§Ùģ": 1826,
      "ĠØ§ÙĦØ®Ø¯ÙħØ©": 1827,
      "ĠØ¨ØºØ§Øª": 1828,
      "ĠØ§ÙĦØ¢": 1829,
      "ĠÙħÙĨÙĩÙħ": 1830,
      "as": 1831,
      "Ø§Ø²Ø©": 1832,
      "Ø´Ø§": 1833,
      "ĠØ®Ø§ØµÙĥ": 1834,
      "ØªØ§ØŃ": 1835,
      "ĠÙĪÙħØ§": 1836,
      "ĠØ¹Ø¨Ø±": 1837,
      "ÙĬÙĤ": 1838,
      "Ø°ÙĥØ±": 1839,
      "am": 1840,
      "ĠØ§ÙĦØ¯Ùħ": 1841,
      "ÂŃ": 1842,
      "ĠØ´Ø§Ø¯": 1843,
      "ØºÙĪØª": 1844,
      "ĠÙģØ£": 1845,
      "Ø³ÙĬÙĤ": 1846,
      "ĠØ±ÙĪ": 1847,
      "ĠØ±Ø§Ø¬ÙĦ": 1848,
      "Ø§Ø³Ùĥ": 1849,
      "ĠØ±Ø§Ø³ÙĬ": 1850,
      "ĠØ®Ø§ØµÙĪ": 1851,
      "ĠØ§ÙĦÙħØºØ±Ø¨ÙĬ": 1852,
      "Ø±Ø§Ùĩ": 1853,
      "Ø®ÙĬØ±": 1854,
      "Ø§ÙħØ¹Ø©": 1855,
      "ĠÙĪØ§ÙĤÙģ": 1856,
      "ĠØ¹ÙĤ": 1857,
      "22": 1858,
      "ic": 1859,
      "Ø§Ø¸": 1860,
      "Ø±ÙĪØ¬": 1861,
      "ĠÙĬØ´ÙĪÙģ": 1862,
      "ĠØ®ÙĦØ§Øª": 1863,
      "ĠÙģØ¬": 1864,
      "ĠÙĤØ¯Ø±": 1865,
      "ĠH": 1866,
      "ĠØ¯ÙĪ": 1867,
      "ĠÙĤÙĦ": 1868,
      "ĠÙħØ¹Ø§ÙĩÙħ": 1869,
      "Ø±Ø¨ÙĬØ©": 1870,
      "ĠØ§ÙĦÙĨÙĪ": 1871,
      "Ø§Ø¹Ø¨": 1872,
      "ĠØ§ÙĦØ³Ø±": 1873,
      "ÙĪØµÙĦ": 1874,
      "****": 1875,
      "ĠÙĨØ³Ø¨Ø©": 1876,
      "ĠØ§ÙĦÙħØ¹ÙĦÙĪÙħØ§Øª": 1877,
      "ĠØ³ÙĦÙħ": 1878,
      "ĠØªØ§ÙĦ": 1879,
      "ĠØ´Ø¯": 1880,
      "ĠØµØ§ØŃ": 1881,
      "ĠØ§ÙĦØ±ÙĪ": 1882,
      "Ø±ÙĪØ¹": 1883,
      "Ø¨ÙĬØ¹ÙĬ": 1884,
      "ĠØ³ÙĬØ±": 1885,
      "ØªÙĬÙĨ": 1886,
      "ĠB": 1887,
      "ĠØ¬ÙĬ": 1888,
      "Ø¹ÙĦÙħ": 1889,
      "ĠØ¶ØŃÙĥ": 1890,
      "ĠØ¨ØºØ§": 1891,
      "ĠÙĦØ¨Ø§Ø¨": 1892,
      "ÙĪÙĬÙĦ": 1893,
      "ĠÙĥÙĬØ³": 1894,
      "Ø§Ø±ØŃ": 1895,
      "ÙĦÙĬØ§": 1896,
      "ĠØµØºÙĬØ±Ø©": 1897,
      "Ġc": 1898,
      "ĠÙģØ§": 1899,
      "ĠØ§ÙĦØ¬Ø²": 1900,
      "Ø§ÙĥÙĬ": 1901,
      "ĠÙģÙĤØ·": 1902,
      "ĠØ¨ÙĥÙĦ": 1903,
      "ĠÙĩØ¶Ø±": 1904,
      "ÙĤÙĤ": 1905,
      "ĠÙĨØ§Ø¯ÙĬ": 1906,
      "Ø¨Ø±Ø©": 1907,
      "ĠØ¹ÙħÙĦ": 1908,
      "Ø±Ø¨Ø§Ø·": 1909,
      "ĠØ¹Ø´": 1910,
      "Ø§Ø§Ø§Ø§Ø§": 1911,
      "Ø²ÙĪ": 1912,
      "ĠÙĨÙĪØ±": 1913,
      "Ø¦ÙĬØ³": 1914,
      "ĠØŃÙħ": 1915,
      "Ø²ÙĪØ¬": 1916,
      "ÙĪÙĦØ¯": 1917,
      "ØŃØ´": 1918,
      "ĠÙĨØ§Ø³": 1919,
      "Ø¶ÙĪ": 1920,
      "ÙħÙĪØª": 1921,
      "Ø§ÙĪÙĬØ©": 1922,
      "ĠÙħØ§Øº": 1923,
      "ÙģØ§Øª": 1924,
      "Ø¶Ø±ÙĪ": 1925,
      "ĠÙĦÙĦÙĩ": 1926,
      "Ø¨Ø¯ÙĦ": 1927,
      "ØªØ§": 1928,
      "ÙĩØ§Ø§Ø§": 1929,
      "ĠÙģØ®": 1930,
      "Ø§Ø¯ÙĪ": 1931,
      "Ø±Ø¨Ø¹": 1932,
      "ĠØ§ÙĦÙĥØª": 1933,
      "ĠÙħØµØ¯Ø±": 1934,
      "ĠÙĬØ±": 1935,
      "Ø´Ø§Ø±": 1936,
      "ĠÙģÙĨÙģØ³": 1937,
      "Ø¶Ø§ÙĬ": 1938,
      "ĠØ²ÙĪ": 1939,
      "ĠÙĪØ³ÙĬ": 1940,
      "ĠØ§ÙĦÙĨØµ": 1941,
      "000": 1942,
      "Ġ12": 1943,
      "Ġ18": 1944,
      "ĠÙĥØ§ÙĬÙĨØ©": 1945,
      "Ø¯ÙĪØ¯": 1946,
      "ĠØ¨ÙĩØ§": 1947,
      "ĠÙħØ¯ÙĬÙĨØ©": 1948,
      "ĠÙĥÙĪÙĦØ´ÙĬ": 1949,
      "ĠÙĬØ§Ø³Ø±": 1950,
      "Ġ[": 1951,
      "ĠÙĦØ¥": 1952,
      "ĠØ¯ÙĪØ²": 1953,
      "ĠØŃØ³Ø§Ø¨": 1954,
      "ĠÙħØ®ØªÙĦÙģØ©": 1955,
      "ØºØ©": 1956,
      "ÙĥÙħÙĦ": 1957,
      "Ø§Ø±ÙģØ©": 1958,
      "ĠØ²ÙĬÙĨ": 1959,
      "ĠÙħØ§Ø²": 1960,
      "ĠØ§ÙĦØ§Ø³": 1961,
      "Ø¨ÙĥÙĬ": 1962,
      "ÙĨØ³ÙĬØ©": 1963,
      "el": 1964,
      "ion": 1965,
      "Ø§ÙĦØ³Ø©": 1966,
      "ĠØ§Ø³Ùħ": 1967,
      "ĠØ¨Ø¯ÙĪÙĨ": 1968,
      "ĠÙģÙĬÙĦÙħ": 1969,
      "ĠØ§ÙĦØ·Ø±ÙĬÙĤ": 1970,
      "Ø³Ùĥ": 1971,
      "ĠØ§ÙĦØ§ØŃ": 1972,
      "ĠÙĨØ¯ÙĬØ±": 1973,
      "Ø¹ÙĦÙī": 1974,
      "ĠØªØ®Ø±Ø¬": 1975,
      "ĠÙĨÙĪØ¹": 1976,
      "ØŃØ±Ùĥ": 1977,
      "Ġd": 1978,
      "ĠÙĬØ¯ÙĬØ±": 1979,
      "ĠØ¨ÙĦØ§Øµ": 1980,
      "ĠØ¨ÙĬÙĨÙħØ§": 1981,
      "ÙĩØ§Øª": 1982,
      "ĠÙħØ´ÙĬ": 1983,
      "Ø¬Ø¹": 1984,
      "ĠØ§ÙĦØªØµ": 1985,
      "ĠØªØ§ÙĬ": 1986,
      "ÙĪÙĦÙī": 1987,
      "ØºØ§Ø±Ø¨Ø©": 1988,
      "ĠØ§ÙĤ": 1989,
      "âĢ¦": 1990,
      "ĠØ§ÙĦØŃÙĤ": 1991,
      "ĠØºØ§ÙĦ": 1992,
      "ÙĪÙĦÙĬØ©": 1993,
      "ÙĨØ§ÙħØ¬": 1994,
      "Ø§ÙĥÙĨ": 1995,
      "Ø±ÙĬØª": 1996,
      "ĠØ§ÙĦØ¬Ùħ": 1997,
      "ÙģØ¶ÙĦ": 1998,
      "Ø´Ø´": 1999,
      "Ø·Ø§ÙĨ": 2000,
      "ĠØ¬Ø§Ø¨": 2001,
      "ÙĦØ¨ÙĬØ©": 2002,
      "ĠÙĤÙĦØ¨ÙĩØ§": 2003,
      "ĠØ¨Ø±Ø§": 2004,
      "ØĽ": 2005,
      "Ø§Ø§ÙĦ": 2006,
      "ĠØ§ÙĦØªÙĨ": 2007,
      "ĠØ§ÙĦØ¨ØŃ": 2008,
      "ĠÙħØ§ÙĤ": 2009,
      "Ø®ÙĦØµ": 2010,
      "ÙĦÙĬÙĥ": 2011,
      "Ø§Ø¬Ø¹Ø©": 2012,
      "Ġ+": 2013,
      "ĠØ§ÙĦØ§ÙĤ": 2014,
      "ĠØªØ§Ø±ÙĬØ®": 2015,
      "ÙĨØ³ÙĬ": 2016,
      "om": 2017,
      "ĠØ³ÙĪ": 2018,
      "ĠØ¹Ø§ÙĬ": 2019,
      "ĠØ¬ÙĬÙĩ": 2020,
      "ÙĦÙħÙĬ": 2021,
      "Ġï»": 2022,
      "ØªÙĪØ¨": 2023,
      "Ø±Ø§Ø¬ÙĦ": 2024,
      "ĠÙĩØ¨Ø·": 2025,
      "ÙĨÙĪØ§Øª": 2026,
      "ØªÙħØ¹": 2027,
      "ĠÙĪÙĦÙĬØ¯": 2028,
      "ĠØŃÙĬØ¯": 2029,
      "ØªÙģ": 2030,
      "Ġb": 2031,
      "Ø±Ø³": 2032,
      "Ø§Ø¹Ø¯Ø©": 2033,
      "ØŃÙĬØ§Ø©": 2034,
      "ÙĨÙĬØ´": 2035,
      "Ġ/": 2036,
      "ÙĥÙĬØ¯": 2037,
      "ĠÙĪØ¬ÙĩÙĪ": 2038,
      "Ø±ÙĬØ¨Ø§": 2039,
      "ĠÙģØ§ÙĦØ¹": 2040,
      "Ø±ÙĬØŃ": 2041,
      "Ø·Ø¨ÙĬÙĤ": 2042,
      "Ø³Ø³Ø©": 2043,
      "ĠØµØºÙĬØ±": 2044,
      "19": 2045,
      "ĠÙĩØ¦": 2046,
      "ĠØ£Ùħ": 2047,
      "Ø¯ÙĬØ§": 2048,
      "ĠØ¯ÙĬØ§ÙĦÙĨØ§": 2049,
      "ĠØ§ÙĦØ¬ÙħØ¹": 2050,
      "ĠØ§ÙĦØ¹Ø¯": 2051,
      "ĠØ¨Ø§ÙĦÙĨØ³Ø¨Ø©": 2052,
      "ĠØ·ÙĬ": 2053,
      "ĠØ§ÙĦÙĨÙĩØ§Ø±": 2054,
      "Ø¯ÙĪÙĬ": 2055,
      "ĠØ¬Ùħ": 2056,
      "ĠØ²Ø¹": 2057,
      "ÙĪÙħÙĪØ¨ÙĬÙĦ": 2058,
      "Ø¶ÙħÙĨ": 2059,
      "Ø®Ø¯ÙħØ©": 2060,
      "ØµÙĪÙĦ": 2061,
      "ÙħÙħÙħ": 2062,
      "Ø¨ÙĪØ¹": 2063,
      "Â»": 2064,
      "ĠØ§ÙĦØ¨ÙĨØª": 2065,
      "Ø§Ø§ÙĬ": 2066,
      "Ø§Ø¬Ø±": 2067,
      "ØµØŃ": 2068,
      "ĠØ¨ÙĪØŃØ¯": 2069,
      "ĠÙģØ¨ÙĦ": 2070,
      ".\"ØŁ": 2071,
      "ĠØ¯Ø±ÙĩÙħ": 2072,
      "Ø°Ùĥ": 2073,
      "Ø§Ø¦ÙĦ": 2074,
      "ĠÙĥØ§ÙĬÙĨÙĬÙĨ": 2075,
      "ĠÙĦÙĦØª": 2076,
      "ĠØ§ÙĦÙħØ¯ÙĬÙĨØ©": 2077,
      "Ġ*": 2078,
      "Ø¯Øª": 2079,
      "ĠÙĨÙĤÙĦ": 2080,
      "ĠØªÙĨÙĩØ¯": 2081,
      "ÙģÙĥÙĬØ±": 2082,
      "ĠÙĬÙĪØ³Ùģ": 2083,
      "ÙĪØ±ÙĬØ©": 2084,
      "ĠØ¨Ø§Ø±": 2085,
      "ÙĪØ§Ø®": 2086,
      "Ø¹Ø·": 2087,
      "ĠÙĩÙĪØ§": 2088,
      "ĠØ§ÙĦØµØŃ": 2089,
      "____": 2090,
      "ĠØ¹ÙħÙĦÙĬØ©": 2091,
      "ĠÙħÙĥÙĬ": 2092,
      "ĠÙĪØ§ÙĦØ£": 2093,
      "ĠÙĦØ¯Ø§Ø±": 2094,
      "ĠÙĨØ§Ø¹": 2095,
      "ĠÙĦÙĥÙĦØ§Ùħ": 2096,
      "ĠØ§ÙĦØ£ÙĪÙĦ": 2097,
      "Â«": 2098,
      "ĠØ§ÙĦÙħÙĨØªÙĪØ¬": 2099,
      "ĠØŁØŁ": 2100,
      "ing": 2101,
      "Ø¬ÙĦØ³": 2102,
      "ĠÙĬØ¬ÙĬ": 2103,
      "Ø³Ø§": 2104,
      "ĠÙħÙĨÙĥ": 2105,
      "ĠD": 2106,
      "ĠØ§ÙĦÙħØªØŃØ¯Ø©": 2107,
      "ØºØ·": 2108,
      "ĠÙĩØ§Ø¯Ø§": 2109,
      "ĠØ¨ÙĦØ§ØµØ©": 2110,
      "ĠØ§ÙĦØ±ÙĬÙģÙĬÙĪ": 2111,
      "Ø¶ÙĪØ±": 2112,
      "ĠØ¨ÙĬÙĩÙħ": 2113,
      "Ø®Ø¨": 2114,
      "ĠÙĥÙĦØ§Ùħ": 2115,
      "Ø´Ø§Øª": 2116,
      "ÙĥØ±Ø§": 2117,
      "Ø¶Ø§Øª": 2118,
      "Ø§Ø²ÙĬ": 2119,
      "ĠØªØ¨Ø¹": 2120,
      "ÙĩÙĩÙĩ": 2121,
      "Ġ~": 2122,
      "Ø±ÙĬØ¯": 2123,
      "ĠÙĨØ§Ø¶Øª": 2124,
      "ĠØ£ÙĪÙĦ": 2125,
      "Ø§Ø¬Ø§Øª": 2126,
      "ĠÙħÙĦÙĬÙĪÙĨ": 2127,
      "ÙģØ§": 2128,
      "Ø¬Ø±Ø§Ø¡": 2129,
      "Ø¹Ø¹": 2130,
      "ÙĦÙĬØ§Øª": 2131,
      "Ø§Ø¨Ø¹Ø©": 2132,
      "Ø²ÙĬØ²": 2133,
      "ÙħÙĩØ§": 2134,
      "ĠÙĪØ±Ø¬": 2135,
      "Ø³ÙĨØ§": 2136,
      "ĠØ´ÙģØ§ÙĬ": 2137,
      "ØŃØ·": 2138,
      "ÙĦÙħØ§Øª": 2139,
      "ĠØ§ÙĦØŃØ§ÙĦ": 2140,
      "ĠØ§ÙĦØ¯Ø§Ø®": 2141,
      "ĠØ¯ÙħÙĪØ¹": 2142,
      "Ø¯ÙĬØª": 2143,
      "ÙĪØ³Ø·": 2144,
      "Ø§Ø¨Ø·": 2145,
      "ĠØªØ¹ÙĦÙĬÙħ": 2146,
      "ĠØ§ÙĦØŃØ§Ø¬Ø©": 2147,
      "Ø§Ø·ÙĬ": 2148,
      "Ø¸ÙħØ©": 2149,
      "ĠÙĥØ«Ø±": 2150,
      "ĠÙĨÙĩ": 2151,
      "ĠÙĦØ§Ø¨Ø³": 2152,
      "ĠØ§ÙĦÙĪØ²": 2153,
      "Ø³ÙħØŃ": 2154,
      "Ø§ÙģÙĤ": 2155,
      "ĠÙĦØµ": 2156,
      "ĠØ§ÙĦØŃØ§ÙĦØ©": 2157,
      "ÙĦØ³ÙĦØ©": 2158,
      "ĠØ¨Ø§ÙĦØ§": 2159,
      "Ø·ÙĪØ§Øª": 2160,
      "Ø¶Ø§ÙģØ©": 2161,
      "Ø§Ø¯Ø±Ø©": 2162,
      "Ø¹ÙĦÙĤ": 2163,
      "ĠÙĥÙħÙĦ": 2164,
      "ĠØ¨ØµØŃ": 2165,
      "ĠÙĦØ´": 2166,
      "ĠÙĪØ²ÙĬØ±": 2167,
      "ĠØŃØ¯Ø§ÙĩØ§": 2168,
      "Ø¨Ùĥ": 2169,
      "ĠØºØ±": 2170,
      "ĠØ§ÙĦØ¹ÙĨÙĪØ§ÙĨ": 2171,
      "Ø§Ø³ÙĬÙĨ": 2172,
      "ĠÙģØ·": 2173,
      "ĠÙĬØµ": 2174,
      "ĠØ£ÙĨÙĩ": 2175,
      "ĠØ¹ØµØ§Ùħ": 2176,
      "Ø³ÙĬÙĦ": 2177,
      "ĠÙģØµ": 2178,
      "ĠØŃØ§Ø¬": 2179,
      "ĠÙĥÙĪØ±": 2180,
      "Ø§Ø±Ø¹": 2181,
      "ĠÙĨØ¸": 2182,
      "Ø±ÙĬØ¨Ø©": 2183,
      "ÙĪÙĨÙĬØ©": 2184,
      "ĠÙĩÙĬØ§": 2185,
      "Ø¶Ø¨": 2186,
      "ÙĬÙĬÙħ": 2187,
      "Ġ,,": 2188,
      "ÙĪØ¯Ø©": 2189,
      "ĠÙħØ¹ÙĦ": 2190,
      "ĠØ¨Ø§ÙĦØ¹": 2191,
      "Ø§ÙĦØ¯": 2192,
      "ĠØ§ÙĦØ³Ø§Ø¹Ø©": 2193,
      "ĠÙĩÙĥ": 2194,
      "Ø§Ø¯Ø§Øª": 2195,
      "ĠØ®Ø§ØµÙĩØ§": 2196,
      "ĠØ§ÙĦÙĩØ¶Ø±Ø©": 2197,
      "ĠØµØŃÙĬØŃ": 2198,
      "ĠÙĥÙĦÙħØ©": 2199,
      "ĠØªØ¬ÙĬ": 2200,
      "Ø²Ø²": 2201,
      "ĠÙĦÙĦØ¹": 2202,
      "ĠÙĨØ²ÙĦ": 2203,
      "ĠØ±Ø¬Ø¹Ø§Øª": 2204,
      "ĠØ´ÙĨ": 2205,
      "Ø¬Ø§Ùĩ": 2206,
      "Ø¨ÙĦØº": 2207,
      "ÙĩØ¯Ùģ": 2208,
      "ĠÙĨÙĤØ¯Ø±": 2209,
      "ĠÙĨÙģ": 2210,
      "ÙĬØ±ÙĪØ³": 2211,
      "ĠÙħØ·": 2212,
      "Ø§Ø´Ø±Ø©": 2213,
      "ĠØ§ÙĦØ®ÙĦ": 2214,
      ".....": 2215,
      "ĠØŃÙĬØ§Ø©": 2216,
      "ĠÙģÙĥØ±": 2217,
      "Ø§ÙĬØ¯": 2218,
      "ĠÙģØ§ÙĦØ£": 2219,
      "ĠØ§ÙĦÙĪØ·ÙĨÙĬØ©": 2220,
      "ĠG": 2221,
      "ĠØ§ÙĦØ§Øµ": 2222,
      "ÙģÙĬØ©": 2223,
      "ĠØ¬Ùĩ": 2224,
      "ĠR": 2225,
      "Ø¯ÙĬÙĦ": 2226,
      "ĠÙĥØªØ¨ÙĥÙĬ": 2227,
      "ÙĪÙħÙĬØ©": 2228,
      "ĠØ§Ø¬ÙĬ": 2229,
      "ÙĩØ§Ùħ": 2230,
      "10": 2231,
      "Ø§ÙĩÙĬ": 2232,
      "ĠØ§Ø®ØªÙĬ": 2233,
      "ðŁĺ": 2234,
      "ØªØª": 2235,
      "ÙĬÙĨÙĬÙĩ": 2236,
      "ro": 2237,
      "ĠØ±Ø¨ÙĬ": 2238,
      "Ø§Ø¯ÙĬØ±": 2239,
      "Ø¨ÙĨØ§Ø¡": 2240,
      "ÙĤÙĦÙĬÙħ": 2241,
      "ØŃØ§Ø¯": 2242,
      "ÙĬÙĬÙĩ": 2243,
      "ĠØ§ÙĦÙĤØ§ÙĨÙĪÙĨ": 2244,
      "ĠÙħØ§ÙħØ§": 2245,
      "ÙĦØ¨Ø³": 2246,
      "ĠØ¥Ø°ÙĨ": 2247,
      "ĠØ¯ÙĤ": 2248,
      "Ø§ØŃÙĬØ©": 2249,
      "ÙĬØªÙĥ": 2250,
      "ĠØ§ÙĦØ´Ø±ÙĥØ©": 2251,
      "ĠØ§ÙĦÙħØ³ØªØ®Ø¯Ùħ": 2252,
      "ĠÙĪØ§ÙĦØ¹": 2253,
      "ĠÙħØ±ÙĬ": 2254,
      "ĠÙħØ§ÙĦÙĥ": 2255,
      "ĠØ®ÙģÙĬ": 2256,
      "ÙħØ§ÙĨØ©": 2257,
      "ĠØ¹ÙĬÙĨÙĪ": 2258,
      "ĠÙħØ±ÙĬÙħ": 2259,
      "Ø§Ø·Ø©": 2260,
      ")ØĮ": 2261,
      "ĠØ´ÙĩØ±": 2262,
      "ĠÙģØ§ÙĦØ³": 2263,
      "ĠØ®ÙĬ": 2264,
      "ĠØ³ÙĬÙģ": 2265,
      "ĠØ§ÙĦÙĥØ±": 2266,
      "ĠØ§ÙĦÙĪØ±": 2267,
      "Ø§Ø±ÙĬÙĪ": 2268,
      "Ø¨Ø±ÙĪ": 2269,
      "ÙģÙĤ": 2270,
      "ĠØ§ÙĦØ®Ø·": 2271,
      "ĠÙħÙĪØ¬": 2272,
      "ÙĪÙĦÙĪØ¬ÙĬØ§": 2273,
      "ĠÙĪØ±Ø§": 2274,
      "ĠÙħÙħ": 2275,
      "Ø¨ÙĬØª": 2276,
      "ĠÙħØ§Ø¨Øº": 2277,
      "Ø§Ø³Ø¨Ø©": 2278,
      "Ø²ÙĬÙĨ": 2279,
      "ĠØ§ÙĦÙĤÙĬ": 2280,
      "ĠØ¹Ùģ": 2281,
      "ĠÙĪÙĦØ§Øª": 2282,
      "ĠÙģØ´ÙĬ": 2283,
      "ĠØ§ÙĦØ¯ÙĪÙĦØ©": 2284,
      "ĠÙģÙĨ": 2285,
      "Ø§Ø¨ÙĬØ©": 2286,
      "ĠØ¯Ùħ": 2287,
      "ĠØ¬ÙĨØ¨": 2288,
      "++++": 2289,
      "ÙĥØªØ±": 2290,
      "ĠØ¯Ø¨Ø§": 2291,
      "Ø¬Ø§Ø¨ÙĬ": 2292,
      "ĠI": 2293,
      "ÙĤØ¨": 2294,
      "ĠÙĦØ¨ÙĦ": 2295,
      "ĠØŃØ²Ø¨": 2296,
      "ĠÙħØ§Ø²Ø§ÙĦ": 2297,
      "ĠØ²ÙĪØ¬": 2298,
      "Ø¶Ùħ": 2299,
      "ĠÙģØ§ÙĦØŃ": 2300,
      "ÙĪÙĦÙĩØ§": 2301,
      "ĠØ¨Ùģ": 2302,
      "ĠØ´ÙĥÙĦ": 2303,
      "Ø¬Ø¯": 2304,
      "ĠØªÙĬÙĦÙĬÙģÙĪÙĨ": 2305,
      "ØŃÙĬØ¯": 2306,
      "ĠØ³Ø®": 2307,
      "ĠÙĬÙĤØ¯Ø±ÙĪ": 2308,
      "Ø§Ø±ÙĪ": 2309,
      "ĠØ¨Ø·Ø±ÙĬÙĤØ©": 2310,
      "ĠØ¨Ø¹ÙĬØ¯": 2311,
      "ĠÙĪØ¯Ø®ÙĦ": 2312,
      "ĠØ³Ø¨": 2313,
      "Ø§ÙģØ§Ùĥ": 2314,
      "ĠØ§Ø³Ø¯": 2315,
      "ĠÙĦÙĨ": 2316,
      "ĠØŃØ·Ø§Øª": 2317,
      "ĠØ³Ùĥ": 2318,
      "ĠÙģØ¯": 2319,
      "ĠÙģØªØŃ": 2320,
      "ĠØ¬Ø¯": 2321,
      "Ø¯ÙĬØ¬Ø©": 2322,
      "Ø§Ø®Ø±": 2323,
      "Ø¸ÙĬÙħ": 2324,
      "Ø§Ø§Ùħ": 2325,
      "ĠØ³ÙĦ": 2326,
      "Ø¹ÙĦØ§Ø´": 2327,
      "ĠÙĥÙĦÙĩØ§": 2328,
      "ĠÙĪØªØ¹": 2329,
      "Ø¯Ø§Ø±Ø©": 2330,
      "ĠÙģØ±ÙĬÙĤ": 2331,
      "ĠØ¯Øº": 2332,
      "ĠÙĤØ·": 2333,
      "ÙĪÙĪÙģ": 2334,
      "Ø§Ø¯ÙĬØ´": 2335,
      "ĠØ¨ÙĨØªÙĬ": 2336,
      "ĠÙģØ§Øª": 2337,
      "ĠÙģÙĪØ§ØŃØ¯": 2338,
      "ĠØµØŃ": 2339,
      "ĠØ¯Ø§ÙĬ": 2340,
      "ĠØŃÙħØ±": 2341,
      "ĠØ·Ø±ÙĬÙĤØ©": 2342,
      "ÙĦØ¨ÙĪÙħ": 2343,
      "ÙħÙĬÙĦ": 2344,
      "ĠØ¨Ø²Ø§Ø§Ùģ": 2345,
      "ĠØ§Ø®Ø±Ùī": 2346,
      "ĠÙĪÙĬØª": 2347,
      "Ø§Ø¶ÙĬØ©": 2348,
      "ĠØ§ÙĦØªÙĪØ§ØµÙĦ": 2349,
      "Ø¨Ø±ÙĬ": 2350,
      "ĠÙģØ§Ø³": 2351,
      "il": 2352,
      "ĠØªØ®ÙĦ": 2353,
      "ĠÙĩÙħØ§": 2354,
      "ĠÙĪØ§ÙĦØŃ": 2355,
      "ĠØ±Ø¬Ø§ÙĦ": 2356,
      "Ø§Ø¦ÙĦØ©": 2357,
      "ÙĩÙĪØ©": 2358,
      "ĠÙĩØ§Ø°": 2359,
      "ĠØ§ÙĦØ¹ÙħÙĦ": 2360,
      "ĠØ¹ÙħØ§Ø¯": 2361,
      "ÙģÙĪØ±": 2362,
      "ĠÙĥØ§ÙħÙĦØ©": 2363,
      "Ø¸ÙĩØ±": 2364,
      "Ø²Ø§": 2365,
      "ĠØµØ¯Ø±": 2366,
      "ĠÙĦÙħÙĪ": 2367,
      "ĠÙģÙĤ": 2368,
      "ĠØ¯ÙĪÙĨ": 2369,
      "Ø§ØªÙĥ": 2370,
      "ĠÙĬØ®ÙĦÙĬ": 2371,
      "ÙĨØ§ÙĬØ©": 2372,
      "ĠL": 2373,
      "ĠÙĦØ§Ùħ": 2374,
      "ĠØ¹Ø§Ø±ÙģØ©": 2375,
      "Ø°Ùĩ": 2376,
      "ĠØ¹ÙĤØ¯": 2377,
      "):": 2378,
      "ĠØ¬Ø§ÙĦØ³": 2379,
      "ĠØ§ÙĦÙħØ¨": 2380,
      "ĠÙĦÙĦØ£": 2381,
      "ĠØ§ÙĦÙħÙĩÙħØ©": 2382,
      "ÙĦÙĬØ¨": 2383,
      "Ø¹ÙħÙĦÙĪ": 2384,
      "ĠØ§ÙĦØªØ³": 2385,
      "Ø³ØªØ¹ÙħÙĦ": 2386,
      "Ø¹ÙĬØ¯": 2387,
      "Ø´ÙĪ": 2388,
      "ÙĪÙĦÙĬØ³": 2389,
      "ed": 2390,
      "ĠÙĨØ§Ø¯ÙĬØ§": 2391,
      "ĠØ§ÙĦÙģØ±ÙĬÙĤ": 2392,
      "Ø§Ø±Ø§": 2393,
      "et": 2394,
      "Ø§Ø¯Øª": 2395,
      "Ġ.....": 2396,
      "ĠØ£ØŃØ³ÙĨ": 2397,
      "Ø§ÙĩÙĦ": 2398,
      "ĠØ§ÙĦØ§Ø³ØªÙĨØªØ§Ø¬": 2399,
      "ÙĪØ±Ø·": 2400,
      "ĠØŃÙĥ": 2401,
      "ĠØ®Ø¯ÙħØ©": 2402,
      "ĠÙħØ¹Ø±Ùģ": 2403,
      "ÙħÙĬÙħ": 2404,
      "ĠØ§ÙĦØ«Ø§ÙĨÙĬ": 2405,
      "ÙĦÙĬØ²": 2406,
      "ĠØªÙĤØ±ÙĬØ¨Ø§": 2407,
      "ĠÙĬØ§ÙĦØ§Ùĩ": 2408,
      "ĠÙĪØ§Ø¶": 2409,
      "ĠÙĪØ°ÙĦÙĥ": 2410,
      "ØŃØµ": 2411,
      "Ø§ØªÙĩ": 2412,
      "ĠØ¨ÙĪØŃ": 2413,
      "ĠÙĨÙĩØ§": 2414,
      "Ø¬ÙĬÙĦ": 2415,
      "ĠÙĬÙĦØ§Ùĩ": 2416,
      "ĠÙĪØ§ÙĤÙģØ©": 2417,
      "ac": 2418,
      "Ø¬Ø±Ø©": 2419,
      "Ø®Ø·": 2420,
      "Ø§Ø§Ø§Ùĥ": 2421,
      "ĠØ³ÙĨÙĬÙĨ": 2422,
      "ĠØ®ÙĬØ±": 2423,
      "ĠØ´Ø¯Ø§Øª": 2424,
      "ĠØªØº": 2425,
      "ĠØ¹ÙĦÙħ": 2426,
      "ÙħØ³ØŃ": 2427,
      "ĠØªÙĪØµÙĦ": 2428,
      "ĠØ§ÙĨÙĩØ§": 2429,
      "ÙĪØµØ§": 2430,
      "ĠÙĦÙħÙĨ": 2431,
      "ĠØ§ÙĦÙħØ±Ø§": 2432,
      "ĠØ§ÙĦØ«ÙĦØ§Ø«": 2433,
      "ĠØ¢Ùĩ": 2434,
      "ĠØ§ÙĦÙħØ§": 2435,
      "ĠØ§Ø¨Øª": 2436,
      "Ø¹Ø´": 2437,
      "ĠØ§ÙĦØµØ¨": 2438,
      "Ø§Ø²Ø§": 2439,
      "Ø¹ÙĬØ¨": 2440,
      "ĠØ§ÙĦØ±Ø³": 2441,
      "ĠÙĪÙĨØª": 2442,
      "ĠÙĬØ®Ø±Ø¬": 2443,
      "ĠØ±Ø¬ÙĦ": 2444,
      "ĠÙĦØ§ØŃ": 2445,
      "ĠÙĬÙĩ": 2446,
      "Ø§ØµÙĬÙĦ": 2447,
      "ĠÙĥÙĪ": 2448,
      "ĠÙħØªØ±": 2449,
      "Ø³ÙĦØ§Ùħ": 2450,
      "ĠÙģÙħÙĪ": 2451,
      "ĠØ¬Ø²": 2452,
      "ĠØ²ÙĪÙĬÙĨØ©": 2453,
      "ÙĪÙĦÙĬÙĨ": 2454,
      "ÙĦÙĪÙĥ": 2455,
      "Ùİ": 2456,
      "ĠØ§ÙĦÙħØ±Ø©": 2457,
      "Ø§ÙħÙĬØ©": 2458,
      "Ø¸Ùħ": 2459,
      "Ø§Ø·ÙĤ": 2460,
      "ÙĪÙĬÙĦØ©": 2461,
      "ĠØ§ÙĦØ¨ØŃØ«": 2462,
      "ÙĤÙĬØ©": 2463,
      "Ø¹ÙĬØ·": 2464,
      "ÙĪØ²ÙĬÙĨØ©": 2465,
      "ĠÙĦÙĦØ´": 2466,
      "us": 2467,
      "ĠN": 2468,
      "ÙģØ±Ø¬": 2469,
      "ĠØ§ÙĦØ¶ÙĪ": 2470,
      "ĠØ¹Ø§Ø¦Ø´Ø©": 2471,
      "Ø§ÙĬÙĦ": 2472,
      "ĠÙĬÙħØ´ÙĬ": 2473,
      "ĠØ§ÙĦÙħØºØ§Ø±Ø¨Ø©": 2474,
      "Ø§ÙĬØª": 2475,
      "Ø§ÙĩØ±Ø©": 2476,
      "ÙĨØ¬Ø©": 2477,
      "ĠÙĥÙħ": 2478,
      "ĠØ¬Ø§ÙĨ": 2479,
      "ĠØ§Ø¨ÙĨØªÙĬ": 2480,
      "ÙģØ§ÙĦ": 2481,
      "Ø¬Ùĩ": 2482,
      "ĠØªÙĦÙģ": 2483,
      "ad": 2484,
      "Ø±ØŃ": 2485,
      "ĠØ±Ø¬ÙĦÙĬÙĩØ§": 2486,
      "ĠÙĪÙĤÙģØ§Øª": 2487,
      "he": 2488,
      "ĠØ´Ùĩ": 2489,
      "ĠÙĪØ§ÙĨ": 2490,
      "ĠÙĪÙĥÙĨ": 2491,
      "ĠØ§ÙĦØ§Ø¬ØªÙħØ§Ø¹ÙĬ": 2492,
      "ĠØ·ÙĪÙĦ": 2493,
      "ĠÙģÙĪ": 2494,
      "ĠØ²ÙĬØ¯": 2495,
      "Ġ16": 2496,
      "ĠÙĦØ³": 2497,
      "Ġ11": 2498,
      "ĠØ¨ÙĤÙĪØ©": 2499,
      "ĠÙħØ§Ø¹Ø±Ùģ": 2500,
      "ĠÙĩØ§ÙĥØ§": 2501,
      "ĠØ¹Ø¯": 2502,
      "Ø°ÙĬ": 2503,
      "ĠÙĦÙĦÙĤ": 2504,
      "ĠÙĪØµÙĦØ§Øª": 2505,
      "ÙħØ±Ø©": 2506,
      "Ø¹Ø§Ø¯Ø©": 2507,
      "ÙħØ²": 2508,
      "Ø§Ø§Ø§Ø´": 2509,
      "ÙĪØ§ÙĦ": 2510,
      "ĠØ±ÙĤÙħ": 2511,
      "ĠØŃØ¯Ø§Ùĩ": 2512,
      "ĠÙĪØŃØªÙī": 2513,
      "ØŃÙĥÙħØ©": 2514,
      "ĠØ§ÙĦØ«Ø§ÙĨÙĬØ©": 2515,
      "ĠâĢĿ": 2516,
      "ĠØ§ÙĦØ¬Ø¯ÙĬØ¯Ø©": 2517,
      "ĠØ¨Ø§ÙĦØª": 2518,
      "ÙĦÙĦ": 2519,
      "ĠØŃÙĦØ§Øª": 2520,
      "ĠØ¨Ø§ÙĦØŃ": 2521,
      "ĠØ§ÙĦÙħÙĬ": 2522,
      "ĠØ´Ùĥ": 2523,
      "Ø´Ø±ØŃ": 2524,
      "ĠØ§Ø¯": 2525,
      "ĠÙĪÙĦØ¯ÙĬ": 2526,
      "ÙĤØ¯Ø±Ø´": 2527,
      "Ø³Ùģ": 2528,
      "ÙĥÙĬÙĦ": 2529,
      "ĠÙĪØ¥": 2530,
      "Ø§Ø·ÙħØ©": 2531,
      "ĠÙĦØ§Ø¨Ø³Ø©": 2532,
      "ĠØ¯ØºÙĬØ§": 2533,
      "Ø·Ø±Ø©": 2534,
      "Ø¯Ø±Ø§Øª": 2535,
      "Ø¬ÙĬÙĨ": 2536,
      "ĠØ¨ÙĬÙĥ": 2537,
      "Ġ30": 2538,
      "ĠØ¯ÙĪÙĥ": 2539,
      "Ø³ØªØ±": 2540,
      "ÙħÙĨÙĬØ©": 2541,
      "ĠØ§ÙĦØ®Ø§ØµØ©": 2542,
      "Ø³ÙĪØ±": 2543,
      "Ø§Ø¦ÙĤ": 2544,
      "ĠØ¨Ø§ØºØ§": 2545,
      "ĠE": 2546,
      "Ø±ÙĪØ±ÙĬ": 2547,
      "Ø§ÙĥÙĦØ©": 2548,
      "ĠØ§ÙĦØµØŃØ©": 2549,
      "Ø£Ø©": 2550,
      "Ø§Ø§Ø§Ø§Ø§Ø§Ø§Ø§": 2551,
      "ĠÙĦØªØŃØª": 2552,
      "ĠÙĪØ§ÙĦØ¬ÙĪØ§Ø¨": 2553,
      "Ġ..!": 2554,
      "ĠØªÙģÙĥØ±": 2555,
      "ÙĥÙĬÙĨ": 2556,
      "ĠÙĨØ·ÙĤ": 2557,
      "ĠÙħØ´ÙĥÙĦ": 2558,
      "ĠØ¨Ø§Ø³": 2559,
      "ĠÙģØ³": 2560,
      "ĠÙħÙĪÙĤØ¹": 2561,
      "ĠØ§ÙĦØ¹ÙĬ": 2562,
      "ĠÙĪÙĩÙĬØ§": 2563,
      "50": 2564,
      "ĠØºØ¯Ø§": 2565,
      "ĠØ²ÙĪÙĬÙĨ": 2566,
      "Ø§Ø§Ø§ÙĨ": 2567,
      "ÙħÙĬØ³": 2568,
      "Ø§ÙħÙĨ": 2569,
      "ĠØ§ÙĦØµØŃÙĬ": 2570,
      "ĠØ§ÙĦØ¬Ø¯ÙĬØ¯": 2571,
      "Ø¨ÙĤØ§ÙĪ": 2572,
      "ĠØ§ÙĦØŃÙĬØ§Ø©": 2573,
      "ĠØ§ØµÙĦØ§": 2574,
      "Ø±ÙĬØ·": 2575,
      "ĠÙĨØ·": 2576,
      "ĠÙĥÙĬØŃ": 2577,
      "ĠÙģØ¨": 2578,
      "ĠÙħØ¹Ø§": 2579,
      "ĠØ§Ø³ØªØ®Ø¯Ø§Ùħ": 2580,
      "ĠÙĥÙĬØªÙħ": 2581,
      "ĠÙĦÙħØ±": 2582,
      "ĠØ¨ÙĨØ§Ø¡": 2583,
      "ØªÙĤØ§ÙĦ": 2584,
      "Ø¸Ùģ": 2585,
      "ĠÙĥØ§ÙħÙĦÙĬÙĨ": 2586,
      "Ø·ÙĨØ§Ø¹ÙĬ": 2587,
      "ĠÙħÙĨØ°": 2588,
      "Ø¯ÙĬØ«": 2589,
      "ĠØ§Ø¹Øª": 2590,
      "ÙĬÙĨØ§Øª": 2591,
      "ĠØ¬Ø§ÙĦØ³Ø©": 2592,
      "ÙĩØ´": 2593,
      "ĠØ¨Ø¥": 2594,
      "Ø§ÙĦØ§Ø³Øª": 2595,
      "ĠØ§ÙĦØ§Ø¹": 2596,
      "ĠØ¯ÙĬØ±ÙĬ": 2597,
      "ÙħÙĦÙĥØ©": 2598,
      "ĠÙħÙĥØªÙĪØ¨": 2599,
      "Ø³Ø³": 2600,
      "ĠÙĥØ§Ø±": 2601,
      "Ø¬Ø§Øª": 2602,
      "ĠÙĦÙĬÙĦÙī": 2603,
      "ĠÙħÙĩÙħØ©": 2604,
      "Ø¯ÙħØ§Øª": 2605,
      "ĠØ§ÙĦØ´Ø±Ø·Ø©": 2606,
      "Ø±Ø¨ÙĬ": 2607,
      "ĠØ§ÙĦØ¨ØŃØ±": 2608,
      "Ø§ÙĪØ±": 2609,
      "ĠÙħØ§Ùģ": 2610,
      "ol": 2611,
      "ĠÙĪØ±Ø¬Ø¹": 2612,
      "ĠØ¨ÙĬØª": 2613,
      "ĠØ¨Ø§Ø¨Ø§": 2614,
      "Ø±ÙĬÙģ": 2615,
      "ĠÙħØªÙĪ": 2616,
      "ĠÙĥØªØ³": 2617,
      "ÙĤÙĪÙĦÙĬ": 2618,
      "ĠØ±Ø¨": 2619,
      "Ø¨ÙĪØ³": 2620,
      "\"ØĮ": 2621,
      "ĠØ§ÙĦÙĨÙĬ": 2622,
      "ĠÙĥØ«": 2623,
      "ĠØªÙĤÙĪÙĦ": 2624,
      "ĠØ§ÙĦØ¸": 2625,
      "ĠÙħÙĬÙĦ": 2626,
      "Ø§Ø¶Ø©": 2627,
      "ĠØŃÙĬÙĪØ§ÙĨ": 2628,
      "ÙħØ§Ø¡": 2629,
      "ÙĦÙĬØ§ÙĨ": 2630,
      "ĠÙħØ¯Ø©": 2631,
      "Ø¯ÙĪØ¡": 2632,
      "ĠÙģØ§ÙĦÙĥ": 2633,
      "ÙĤØ·Ø¹": 2634,
      "Ø±Ùī": 2635,
      "ĠØ¯Ø®ÙĦÙĪ": 2636,
      "ĠØ¬ÙĨ": 2637,
      "Ø§Ø³ÙħÙĬÙĨ": 2638,
      "ĠØ§ÙĦØ®ÙĬ": 2639,
      "Ø´ÙģÙī": 2640,
      "čĊ": 2641,
      "ĠÙĤØ±ÙĬØ¨": 2642,
      "ĠÙĪØ¶": 2643,
      "Ø¬Ø§": 2644,
      "\".": 2645,
      "ĠÙħÙĨØª": 2646,
      "ÙħÙĬÙĦØ©": 2647,
      "Ø´Ø§ÙģØª": 2648,
      "ÙħØ«ÙĦ": 2649,
      "ĠÂ«": 2650,
      "Ø¯Ø§ÙĨ": 2651,
      "ĠØ§ÙĦÙħØ§Ø¶ÙĬ": 2652,
      "ĠÙĥØ§Ø³": 2653,
      "ĠØªØ§Ø¨Ø¹": 2654,
      "ĠÙħØ±Øª": 2655,
      "Ø§ÙĦØªÙĬ": 2656,
      "ÙħÙĨÙī": 2657,
      "Ø§Ø§Ø§Ùģ": 2658,
      "ĠÙĦØ¹ÙĨØ¯ÙĪ": 2659,
      "Ø¬Ø§Ø¬": 2660,
      "ĠÙħØ¨Ø§Ø´Ø±Ø©": 2661,
      "ĠØ¯Ø±ØªÙĬ": 2662,
      "ÙħØ§Ø³": 2663,
      "ÙĥÙĥ": 2664,
      "ĠØ¹Ø§Ø¯ÙĬ": 2665,
      "Ġl": 2666,
      "ĠØ§ÙĦØ¨ÙĪÙĦÙĬØ³": 2667,
      "ĠÙĥØ±ÙĬ": 2668,
      "ĠØŃÙĬÙĨ": 2669,
      "ĠÙĬØ¬": 2670,
      "ÙģØ±ÙĬÙĤÙĬØ§": 2671,
      "Ø´ÙĬØ©": 2672,
      "ĠÙģØ§ÙĦØ·": 2673,
      "ÙĪØ§Ø®Ø§": 2674,
      "Ø±ÙĬØ©": 2675,
      "ĠØ§ÙĦÙħÙĪØ¶ÙĪØ¹": 2676,
      "ÙĪØªÙĪ": 2677,
      "ĠØ§ÙĦÙĨÙĤ": 2678,
      "ent": 2679,
      "Ø§Ø´Ø±": 2680,
      "ĠØ·Ø¨ÙĬØ¹ÙĬ": 2681,
      "Ø®ØµØµ": 2682,
      "ÙĬÙĨØ´": 2683,
      "ĠØ¨Ø²Ø²": 2684,
      "ĠÙĬØ¹Ø·ÙĬ": 2685,
      "??": 2686,
      "Ø§Ø¨ÙĪ": 2687,
      "ĠØ§Ø²": 2688,
      "ÙĪÙĦØ§Øª": 2689,
      "ÙĩÙĨ": 2690,
      "ÙĥØ§Ø¡": 2691,
      "Ø·Ø§": 2692,
      "ĠÙģÙĬÙħØ§": 2693,
      "ĠØ¶ØŃ": 2694,
      "ĠØ§ÙĦØ¨ÙĬØª": 2695,
      "Ø´ÙĩØ§": 2696,
      "ĠÙĬØ§Ø³ÙĬÙĨ": 2697,
      "ĠØ§ÙĦÙĥØªØ§Ø¨": 2698,
      "ÙģØ²": 2699,
      "Ġ24": 2700,
      "ØŃØªØ§Ø¬": 2701,
      "Ø®Ø±ÙĬÙĨ": 2702,
      "ÙģÙĥØ§Ø±": 2703,
      "Ø§Ø±Ø¨Ø©": 2704,
      "ĠØŃØ¨": 2705,
      "Ø§Ø¨ÙĦØ©": 2706,
      "ĠØŃØ§ÙĪÙĦ": 2707,
      "Ġ100": 2708,
      "Ġf": 2709,
      "ĠØ¹Ø§": 2710,
      "ĠØ§ÙĦÙħØ·": 2711,
      "ĠÙĪÙĦØ§Ø¯": 2712,
      "ØµØ¯": 2713,
      "ĠØŃÙĪØ§Ø¬": 2714,
      "ĠØ§ÙĦÙĨØ³": 2715,
      "ØŃÙĬÙĦ": 2716,
      "Ø§Ø·Ø¹": 2717,
      "ĠÙĤØ¯Ùħ": 2718,
      "ĠÙĥÙĬØ¯ÙĬØ±": 2719,
      "ĠØ§ÙĦØ¹ÙħØ±": 2720,
      "ĠÙĪØ¹ÙĦÙī": 2721,
      "ĠÙĪÙħØ´Ø§Øª": 2722,
      "ĠØ«ÙĦØ§Ø«": 2723,
      "ĠÙĪØ§ØŃ": 2724,
      "ÙģØ§Ø¡": 2725,
      "ÙģÙĦØ©": 2726,
      "Ø§ÙħØ§Øª": 2727,
      "Ø£ÙĥØ¯": 2728,
      "ĠÙĪÙĩÙĪØ§": 2729,
      "Ø§Ø¶Øª": 2730,
      "ĠØªÙĪØŃ": 2731,
      "ĠÙĦÙĪØ±": 2732,
      "Ø§ÙĨÙĪ": 2733,
      "čĊč": 2734,
      "ĠØ§ÙĦØ§Ø³Ùħ": 2735,
      "Ø®Ø¯ÙħÙĪ": 2736,
      "ĠØ·ÙĦØ¹Ø§Øª": 2737,
      "ĠØ§ÙĦÙĤØ¶Ø§ÙĬ": 2738,
      "ĠØ·ÙĪÙĬÙĦØ©": 2739,
      "ÙħÙĥÙĨØ´": 2740,
      "ÙĦÙĤØ§ÙĪ": 2741,
      "ØµØ¨ÙĬØ©": 2742,
      "ĠØ·Ø§ÙĦ": 2743,
      "ÙģÙĬÙĤ": 2744,
      "ĠØ³Ø¨ÙĤ": 2745,
      "ĠØ§ÙĦØ£Ø®": 2746,
      "ĠØ¬Ø¨Ø¯": 2747,
      "ØŃÙĩØ§": 2748,
      "ĠÙĨÙĬØ´": 2749,
      "Ø´Øª": 2750,
      "ĠØ¶Ø±ÙĪØ±ÙĬ": 2751,
      "ĠÙĪØ¬ÙĩØ§": 2752,
      "ÙĴ": 2753,
      "Ġ14": 2754,
      "ĠØ®Ø±Ø¬ÙĪ": 2755,
      "ĠØ¨Ø§ÙĦÙĥ": 2756,
      "Ø³ÙĬÙĤÙī": 2757,
      "Ø²ÙĬØ§Ø¯Ø©": 2758,
      "Ø§ÙĦØ§Ø³ØªÙĨØªØ§Ø¬": 2759,
      "ĠÙĤØ¯Ø§ÙħÙĪ": 2760,
      "Ø§Ø¨ÙĤØ©": 2761,
      "ĠÙĥØªØŃ": 2762,
      "ĠØ§ÙĦÙħØ¬ÙĦØ³": 2763,
      "ĠØ¬Ø§ÙĪ": 2764,
      "Ġ199": 2765,
      "ĠÙĪØ§ÙĤØ¹": 2766,
      "ĠÙĪØªØŃ": 2767,
      "Ø§ÙĦÙģØ±": 2768,
      "ĠÙħØ¬ÙħÙĪØ¹": 2769,
      "ĠØ¨Ø§Ø¨ØªØ³Ø§ÙħØ©": 2770,
      "Ø³ÙĬÙĪÙĨ": 2771,
      "ÙĨØ³Ø§": 2772,
      "ĠÙĪØ²Ø§Ø±Ø©": 2773,
      "ĠØ¨Ø§ÙĤ": 2774,
      "ÙĬÙĨÙĪ": 2775,
      "ĠØ§ÙĦÙģÙĨØ¯ÙĤ": 2776,
      "ĠÙĪÙħØ±": 2777,
      "ØªÙĨÙĩØ¯": 2778,
      "ĠØŃØ´": 2779,
      "ĠÙĦÙĦÙĥ": 2780,
      "Ø§ÙĩÙĪ": 2781,
      "ÙĨØ§ÙĤ": 2782,
      "ĠÙħØ¬ÙĦØ³": 2783,
      "ĠØ®Ø·ÙĪØ©": 2784,
      "ĠØ¨Ø±ÙĪ": 2785,
      "ØŃÙĬÙī": 2786,
      "ĠØ±ØºÙħ": 2787,
      "ĠÙģÙĨØ§ÙĨ": 2788,
      "ĠÙĬÙĪÙĨØ³": 2789,
      "ĠØ£Øµ": 2790,
      "ĠØ¨Ø§ÙĦØ¥": 2791,
      "Ø¯Ø±Ø³Ø©": 2792,
      "ĠØ¨ÙĨÙģØ³": 2793,
      "ĠØ¹ÙĦÙĬÙĨØ§": 2794,
      "ĠØ§Ø¬": 2795,
      "ĠÙĪØ§Ø³Øª": 2796,
      "ĠØ¹ÙĦØ§ÙĤØ©": 2797,
      "ag": 2798,
      "Ø§ÙĦØ¬": 2799,
      "ĠÙħØ§ÙĥØ§ÙĨ": 2800,
      "ÙĨÙĪØ¨": 2801,
      "ĠØ§ÙĦÙĤØ¶ÙĬØ©": 2802,
      "ÙĥØªÙĪØ±": 2803,
      "ĠØ±Ø§Ø¬": 2804,
      "ÙĦÙĪØ¨": 2805,
      "Ø¨Ø¹ÙĪ": 2806,
      "Ø§ÙĨØªØ®": 2807,
      "ĠØ§ÙĦØ§ØµØ·ÙĨØ§Ø¹ÙĬ": 2808,
      "ĠF": 2809,
      "Ø±Ø§ØŃØ©": 2810,
      "Ø¨Ø§Ø±Ùĥ": 2811,
      ":~": 2812,
      "Ø¹Ø§ÙĪØ¯": 2813,
      "Ø§Ø±ÙĥØ©": 2814,
      "ĠÙĦÙĬÙĦØ©": 2815,
      "ĠØªØ§Øª": 2816,
      "ĠÙĪØ§ÙĦØªÙĨ": 2817,
      "ÙĩØ¯Ø§Ùģ": 2818,
      "ĠØªÙĪÙĤ": 2819,
      "Ø²Ø¹": 2820,
      "ÙĪØŃØ¯Ø©": 2821,
      "Ø³ÙĦØ§ÙĨ": 2822,
      "Ø¹Ø·ÙĬ": 2823,
      "ĠØ¨Ø³ÙĬ": 2824,
      "ĠØ§ÙĦÙĥØ¨ÙĬØ±": 2825,
      "Ø·ÙĬÙĨ": 2826,
      "ĠØ±Ø¯": 2827,
      "ĠÙħØ±Ø§ÙĥØ´": 2828,
      "ĠØ§ÙĦØ¹ÙħÙĦÙĬØ©": 2829,
      "ĠÙĦØ¹ÙĨØ¯ÙĩØ§": 2830,
      "Ø³ÙħÙĬØ©": 2831,
      "ĠÙĩÙĩÙĩÙĩÙĩ": 2832,
      "ÙĬØ§Ùħ": 2833,
      "Ø¨Ø§Ø´": 2834,
      "ÙĥÙĬÙģØ§Ø´": 2835,
      "ĠÙģÙĥÙĦ": 2836,
      "ĠØ¯Ø±Øª": 2837,
      "Ø§Ø¯Ø§": 2838,
      "ØºÙĨÙĬØ©": 2839,
      "ĠØ§ÙĦØ·Ø±ÙĬÙĤØ©": 2840,
      "ĠØ®ØµÙĪØµØ§": 2841,
      "ĠÙĨÙĥÙĪÙĨ": 2842,
      "ĠØ²Ø¹ÙħØ§": 2843,
      "ĠØ§ÙĦÙħØ«": 2844,
      "Ø§Ø¹Ø±": 2845,
      "ĠØ§ÙĦØŃØ¨": 2846,
      "ÙĨØ³Ø§ÙĨ": 2847,
      "ĠØ¨Ø§Ùĩ": 2848,
      "ĠØµØ¯": 2849,
      "ÙĥØ§ÙĨØª": 2850,
      "ĠÙħØ²ÙĬØ§ÙĨØ©": 2851,
      "Ø´Ø¯": 2852,
      "Ø±ÙĬÙħØ§ÙĨ": 2853,
      "ØªÙĬÙĩØ§": 2854,
      "ĠØ¹Ø¨": 2855,
      "Ø°Ø±Ø§Ø¡": 2856,
      "ĠØ¨Ø§ÙĦØ¬": 2857,
      "Ø¨Ø´": 2858,
      "Ø§ÙģØ¹": 2859,
      "Ø¯ÙĪØ´": 2860,
      "ĠØ§ÙĦØŃØ³": 2861,
      "ÙħÙĨØ·ÙĤØ©": 2862,
      "Ġ13": 2863,
      "ĠØªØ²ÙĪØ¬": 2864,
      "ĠÙħÙĨÙĩ": 2865,
      "ÙħÙĨØ©": 2866,
      "ĠØ§ÙĦØ±Ø§Ø¬ÙĦ": 2867,
      "ÙĪØªÙĬ": 2868,
      "Ġ17": 2869,
      "ÙĨØµ": 2870,
      "ÙĬÙĬÙĨ": 2871,
      "ĠÙħØ¨Øº": 2872,
      "21": 2873,
      "ĠÙĦÙħØ¹": 2874,
      "Ø´ÙĥÙĪÙĨ": 2875,
      "ĠÙĪØ§ÙĦØ´": 2876,
      "Ø±ÙĪØ§ÙĦ": 2877,
      "ÙĪØªØ±": 2878,
      "ĠÙĪØ¶Ø¹": 2879,
      "ĠØ£Ø®": 2880,
      "ĠØ§ÙĦÙģÙĦÙĪØ³": 2881,
      "ĠØªØ¹Ø±Ø¶": 2882,
      "ĠØ¯ÙħÙĪØ¹ÙĩØ§": 2883,
      "ĠÙĤØ¨": 2884,
      "ĠÙĥÙĬÙĥÙĪÙĨ": 2885,
      "ÙĦÙĬØª": 2886,
      "ĠØ§ÙĦÙħÙģ": 2887,
      "ĠØ§ÙĦØ±Ø¨Ø§Ø·": 2888,
      "ĠÙħØ±Ø§Øª": 2889,
      "ĠÙħÙĥØ§ÙĬÙĨ": 2890,
      "ĠÙģØŃÙĬ": 2891,
      "ĠØ¹Ø±Ø¶": 2892,
      "ĠØ³Ø¹Ø¯": 2893,
      "ĠÙĥÙĬØ¨Ø§ÙĨ": 2894,
      "ØµØ¨Ø§ØŃ": 2895,
      "ĠØ¥ÙĬØ¬Ø§Ø¨ÙĬ": 2896,
      "ĠÙĦÙģØ±": 2897,
      "ĠØ§ÙĦØ´Ø¹": 2898,
      "Ø¹Ø³": 2899,
      "ĠØ¯ÙĤÙĬÙĤØ©": 2900,
      "ĠÙĨØ®ÙĦÙĬ": 2901,
      "ĠØ§ÙĦØŃÙĪØ§ÙĬØ¬": 2902,
      "ĠØªØ¬ÙħØ¹": 2903,
      "Ø§Ø°Ø§": 2904,
      "ĠØ§ÙĦØ¯Ø±Ø§Ø±ÙĬ": 2905,
      "Ġ05": 2906,
      "ØŃØŃ": 2907,
      "Ø±ÙĬØ§Øª": 2908,
      "ĠØ£Ø³Ø§Ø³": 2909,
      "ÛĮ": 2910,
      "ĠÙĦÙĦØ¯Ø§Ø±": 2911,
      "Ø§ÙĤØ¨Ø©": 2912,
      "ĠÙĩÙĩ": 2913,
      "ĠØ§ÙĦØµØŃØ±": 2914,
      "Ø¨ÙĪÙĥ": 2915,
      "ĠØŃØ³Ø§Øª": 2916,
      "Ø¦Ø§Ùħ": 2917,
      "ĠÙĪØ¯Ø§Ø±": 2918,
      "ĠØ§ÙĦÙĪØ¶Ø¹": 2919,
      "ĠÙĨØ¹Ø·ÙĬ": 2920,
      "ÙĩØ±Ø¨": 2921,
      "Ø§Ø¯ÙĦ": 2922,
      "ĠÙĨØ´Ø±": 2923,
      "Ø§Ø¬Ø¯": 2924,
      "ĠÙĪØ§Ø§": 2925,
      "Ø±ÙĬÙĥ": 2926,
      "ĠØ§ÙĦØ¬Ùĩ": 2927,
      "ĠØ§ÙĦØ·Ø¨ÙĬØ¨": 2928,
      "ĠØ«Ùħ": 2929,
      "ĠØ§ÙĦØ§ÙĤØªØµ": 2930,
      "ĠÙĨØ¹Ùħ": 2931,
      "ĠØ§ÙĦØ£Ùħ": 2932,
      "ĠÙħØ³ØªÙĪÙī": 2933,
      "Ø±ÙĬÙħØ§Ø³": 2934,
      "ĠÙĥÙĪØ±ÙĪÙĨØ§": 2935,
      "ØºØ±Ø¨ÙĬØ©": 2936,
      "ÙĦØŃ": 2937,
      "ĠÙħØ¯ÙĬØ±": 2938,
      "ĠØ§ÙĦØŃØ²Ø¨": 2939,
      "ĠØ°Ø§Øª": 2940,
      "ÙĨÙĤÙĩØ§": 2941,
      "os": 2942,
      "ĠØ§ÙĦØ¯ÙĬ": 2943,
      "ĠØ±ÙĪØŃ": 2944,
      "ĠÙħÙĦØ§Ùħ": 2945,
      "ĠØ£ÙĦØ¨ÙĪÙħ": 2946,
      "Ø®ØµÙĪØµ": 2947,
      "ĠÙĩØ§Ø²": 2948,
      "Ø·ÙĪÙĬØ±": 2949,
      "ĠÙħØµØ¯": 2950,
      "ĠÙĬÙĥÙĪÙĨÙĪ": 2951,
      "id": 2952,
      "ĠÙĩØ§Ø¯ÙĬÙĥ": 2953,
      "ĠØ§ÙĦØªØ¹ÙĦÙĬÙħ": 2954,
      "ĠØ³ÙĬØ±ÙĬ": 2955,
      "ĠØ´ÙĥØ±Ø§": 2956,
      "Ø¦ÙĬ": 2957,
      "ÙħØ±ÙĬÙĥÙĬØ©": 2958,
      "ĠØ®ØªÙĬ": 2959,
      "Ø«Ùħ": 2960,
      "ĠØ¹ÙĨØ¯ÙĨØ§": 2961,
      "ïºİ": 2962,
      "ĠØ§ÙĦØ§Ø¨": 2963,
      "ĠØ¬Ø§Ø¯": 2964,
      "Ø¯ÙħÙĪØ¹": 2965,
      "ĠØ§ÙĦØ±ÙĤÙħ": 2966,
      "ĠÙĬØªÙħ": 2967,
      "ĠØ¨ÙĨØ§Ø¯Ùħ": 2968,
      "ĠØ±ÙĬØ§Ø¶ÙĬ": 2969,
      "ĠØ¬ÙĦØ³Ø§Øª": 2970,
      "ĠÙĦØ±": 2971,
      "Ø´Ùĥ": 2972,
      "ĠØ¹ÙĩØ¯": 2973,
      "Ø°Ø¨": 2974,
      "ĠØ§ÙĦØ³ÙĬØ¯": 2975,
      "ĠØ±Ø³ÙħÙĬ": 2976,
      "Ø§Ø±ÙĤ": 2977,
      "Ø§ÙĥØ³ÙĬ": 2978,
      "ĠØ§ÙĦÙĥÙĪÙĨ": 2979,
      "ĠØ¨Ø§ÙĨØª": 2980,
      "ĠØ¯Ø§Ø±ÙĪ": 2981,
      "',": 2982,
      "ÙĬØ¹": 2983,
      "ĠÙģØ±ÙĬ": 2984,
      "ÙģØ§ÙĤ": 2985,
      "ĠÙģÙĤØ¯": 2986,
      "ĠØ¹Ø¯Ùħ": 2987,
      "ØºÙĨÙĬ": 2988,
      "Ø³ÙĬÙħØ©": 2989,
      "ĠØ¯Ùģ": 2990,
      "Ø¹Øµ": 2991,
      "ĠØ´ÙģØª": 2992,
      "ĠÙĥÙĬØ¯": 2993,
      "ĠÙĥÙĬÙĤ": 2994,
      "ĠÙĥÙĬØ¶ØŃÙĥ": 2995,
      "ÙĨØ²Ø±": 2996,
      "ĠÙĪØ§Ø³": 2997,
      "ĠØ¹Ø§ÙĪØ¯": 2998,
      "ØŃØ¯Ø§Ø«": 2999,
      "ĠÙĩØ§Ø¯ÙĪ": 3000,
      "Ġ,": 3001,
      "ĠØªØ®ÙĦÙĬ": 3002,
      "ĠØ§ÙĦÙħÙĥØªØ¨": 3003,
      "ĠØ§ÙĦØŃØ§Ø¬": 3004,
      "ĠØªØ¯Ø®ÙĦ": 3005,
      "ÙĪÙĨØ§Øª": 3006,
      "ĠØ§ÙĦØ¨ÙĨØ§Øª": 3007,
      "ĠÙĪØ³ÙĬÙĦØ©": 3008,
      "ĠØ´ÙģØ§ÙĬÙģÙĩØ§": 3009,
      "ĠØ§ÙĦÙĦÙĪ": 3010,
      "ĠÙĦÙĪØ§ØŃØ¯": 3011,
      "ĠØ¨Ø§ÙĦÙĦÙĬ": 3012,
      "ĠÙħØ¶": 3013,
      "ĠØ§ÙĦÙĦØŃ": 3014,
      "ØªØ©": 3015,
      "ÙĤØ§ÙĦ": 3016,
      "Ø§Ø¦Ø¯": 3017,
      "ĠØ¨ÙĨÙĥ": 3018,
      "ĠØ§ÙĦØµØ¨Ø§ØŃ": 3019,
      "ĠØ§ÙĦÙħÙĪÙĤØ¹": 3020,
      "ĠØ§ÙĦØ·Ø§ÙĤØ©": 3021,
      "ĠØ®Ø§ØµÙĨÙĬ": 3022,
      "ur": 3023,
      "ÙĬØ¯ÙĩØ§": 3024,
      "ĠØ¨ÙĤØ§ÙĪ": 3025,
      "ĠÙĪØ±Ø¯Ø©": 3026,
      "ĠÙĤØ¯Ø§ÙħÙĩØ§": 3027,
      "ĠÙĤØ±ÙĬØ©": 3028,
      "ĠÙ¾": 3029,
      "ĠØ¹Ø§ÙģØ§Ùĥ": 3030,
      "ĠØ³ÙĬØ¯ÙĬ": 3031,
      "ot": 3032,
      "Ø§ÙģØ±": 3033,
      "ĠØ§ÙĦØªØ´": 3034,
      "ĠØ§ÙĦØ°ÙĬÙĨ": 3035,
      "ĠÙģØ¨ÙĦØ§Øµ": 3036,
      "ĠÙĦØ¹Ø¨": 3037,
      "ÙĦÙĬØ²ÙĬØ©": 3038,
      "ĠÙĥÙĬØ¬Ø±ÙĬ": 3039,
      "ÙĨØªØ±": 3040,
      "ĠØ§ÙĦÙħØŃØª": 3041,
      "Ø¶ØŃ": 3042,
      "ĠØ§ÙĦØ¹ÙĦØ§": 3043,
      "ĠÙĪÙĤØ¯": 3044,
      "ĠØ³Ø§Ø±Ø©": 3045,
      "ĠØ·ÙĨØ¬Ø©": 3046,
      "ÙĪØµÙĦÙĪ": 3047,
      "Ġïº": 3048,
      "ĠØµÙĪØ±": 3049,
      "ĠÙĦÙħØº": 3050,
      "ĠØªØ¹Ø·": 3051,
      "Ø§ØµÙħØ©": 3052,
      "ĠØªØ¹ÙĦÙĬÙħÙĬØ©": 3053,
      "ĠÙĦØ´ÙĬ": 3054,
      "ĠÙĨÙĬØ´Ø§ÙĨ": 3055,
      "Ø§Ø¯ÙĬÙĨ": 3056,
      "ĠÙĬÙĪÙĦÙĬ": 3057,
      "ÙĪØ¬Ø¯": 3058,
      "ĠØ§ÙĦØ®ÙĬØ±": 3059,
      "ĠÙĪØºÙĬØ±": 3060,
      "ĠØªÙĪÙģ": 3061,
      "ĠØºÙĦ": 3062,
      "ĠW": 3063,
      "ĠÙĩØ¯Ø§": 3064,
      "Ø³Ø¨Ø¨": 3065,
      "ĠÙģØ§ÙĦØ´": 3066,
      "ÙĥØªÙĪ": 3067,
      "Ø·Ø§ÙĦ": 3068,
      "ĠØ§ÙĦØµÙĪØ±Ø©": 3069,
      "ĠØ²ÙĬØ§Ø¯Ø©": 3070,
      "Ø¬ÙĬØ©": 3071,
      "ĠÙĨØ¬ÙĬ": 3072,
      "Ø¨ÙĨ": 3073,
      "Ø¯ÙĬÙħØ©": 3074,
      "ĠÙħØ«ÙĦØ§": 3075,
      "ĠØ¨Ø§Ùĥ": 3076,
      "ĠÙģØ§ÙĬ": 3077,
      "ĠÙģØ§ÙĦØ¬": 3078,
      "ĠÙĦØ§Ø´": 3079,
      "ĠÙĨØ¸Ø§Ùħ": 3080,
      "ĠÙĪØ§ÙĦØ¯": 3081,
      "ĠÙĥÙĬØµ": 3082,
      "Ø§ÙĩØ±": 3083,
      "ÙĦÙĤÙī": 3084,
      "ĠØ§Ø¨ØªØ³Ø§ÙħØ©": 3085,
      "Ø§ÙĦÙģØ±Ø¶ÙĬØ©": 3086,
      "Ø±Ø§ØªÙĬ": 3087,
      "ØªÙĬÙĨÙĬ": 3088,
      "ĠØªØ²ÙĬØ¯": 3089,
      "ĠÙĨØ¶": 3090,
      "ĠØ§ÙĦØŃÙħØ¯": 3091,
      "ĠØ¥ÙĬÙĩ": 3092,
      "ĠÙħØ®ØªÙĦÙģ": 3093,
      "ÚŃ": 3094,
      "ĠÙĨØ®Ø±Ø¬": 3095,
      "ĠØ´Ø¨": 3096,
      "ÙĥØ±Ùĩ": 3097,
      "ØŁØŁØŁ": 3098,
      "ĠÙĪÙĥØ§ÙĨØª": 3099,
      "Ø§ÙĨØ³": 3100,
      "ĠØªØŃÙĦ": 3101,
      "ĠÙĪÙĦÙħ": 3102,
      "ĠÙĤÙĪÙĦÙĬ": 3103,
      "ĠÙĥÙĬÙĤÙĪÙĦ": 3104,
      "ĠÙĪØªÙĤ": 3105,
      "Ø¬Ø§ÙĪØ¨": 3106,
      "ĠÙĪØ§ÙĦØªÙĬ": 3107,
      "Ġ0522": 3108,
      "ÙĨØ§ØµØ±": 3109,
      "ĠÙĨØ®": 3110,
      "ĠØ¨Ø¹Ø¯Ø§": 3111,
      "ØŃÙĬØ·": 3112,
      "ĠØ§ÙĦØ¹Ø¯Ø§ÙĦØ©": 3113,
      "ĠÙħØ¹ÙĦÙĪÙħØ§Øª": 3114,
      "ĠØ¨Ø´ÙĬ": 3115,
      "ĠØ³Ø¤Ø§ÙĦ": 3116,
      "ÙĥÙĨÙĪÙĦÙĪØ¬ÙĬØ§": 3117,
      "ĠØ§ÙĦØ¹ÙĦ": 3118,
      "ĠØ§ÙĦÙħØµØ¯Ø±": 3119,
      "Ø§ÙĦÙģ": 3120,
      "ÙĪØ±Ø§Øª": 3121,
      "ĠØ§ÙĦØ·ÙĬ": 3122,
      "ØµÙĦØ§ØŃ": 3123,
      "Ø¬Ø§Ø¨ÙĬØ©": 3124,
      "ĠØŃØ¬": 3125,
      "ĠØ§ÙĦÙħÙĦÙĥÙĬ": 3126,
      "ĠÙĦÙĦØ³": 3127,
      "ĠØ§ÙĦØŃÙĦ": 3128,
      "Ø¹Ø§": 3129,
      "ĠÙĪØµÙĦÙĪ": 3130,
      "ĠÙħØ¤Ø³Ø³Ø©": 3131,
      "Ø§ÙģØ§Øª": 3132,
      "ĠØ§ÙĦØ¯Ø§Ø®ÙĦÙĬØ©": 3133,
      "ĠÙħØ§Ø¹ÙĨØ¯": 3134,
      "ĠÙĨÙĤÙĪÙĦ": 3135,
      "Ø¹Ø§Ø¯": 3136,
      "ĠØ¨ÙĨÙĬ": 3137,
      "ĠØ¨ÙħØ¯ÙĬÙĨØ©": 3138,
      "ĠÙĬØ·": 3139,
      "ĠØ§ÙĦØªÙģ": 3140,
      "ĠØ§ÙĦØµÙģ": 3141,
      "ĠØ§ÙĦØ®Ø§Ø±Ø¬": 3142,
      "ĠØ²ÙĬÙĨØ¨": 3143,
      "ĠÙĪØ®ÙĦ": 3144,
      "ĠØ¹Ø¬Ø¨": 3145,
      "ĠØªØªØŃ": 3146,
      "ĠØ´Øº": 3147,
      "ĠØ§ÙĦØ¨Ø§ÙĦ": 3148,
      "Ġ`": 3149,
      "ĠØ§Øº": 3150,
      "ÙĩØ±Ø©": 3151,
      "ĠÙĥØ¯ÙĬØ±": 3152,
      "ĠØªØ§Ø¹": 3153,
      "ĠÙĤÙĦØ¨ÙĬ": 3154,
      "ÙħØ³Ø©": 3155,
      "ĠØ¨Ø§ÙĦØ²": 3156,
      "ĠØªÙĤØ¯Ùħ": 3157,
      "Ø·ÙĬØŃ": 3158,
      "ĠØ§ÙĦØºØ±ÙģØ©": 3159,
      "ĠÙģØ¹ÙĬÙĨÙĬÙĩØ§": 3160,
      "ĠØ§ÙĪÙĦØ¯ÙĬ": 3161,
      "Ø§ØŃÙĬ": 3162,
      "Ø¨Ø±Ø¯": 3163,
      "Ø²ÙĬØ²Ø©": 3164,
      "ĠÙĦÙħØ¯Ø©": 3165,
      "ĠÙĨÙħØ´ÙĬÙĪ": 3166,
      "Ø¯Ùī": 3167,
      "Ø§Ø§Ø§Ùĩ": 3168,
      "ĠØ³ÙĥØª": 3169,
      "ĠØ®Ø¯ÙĬØ¬Ø©": 3170,
      "ĠÙĥÙĬÙĦØ¹Ø¨": 3171,
      "Ø³ÙħØ§Øª": 3172,
      "ĠØ¨Ø§Ø³ØªØ®Ø¯Ø§Ùħ": 3173,
      "ĠØ®ÙĦØ§ÙĩØ§": 3174,
      "ÙĦÙĬÙĦØ©": 3175,
      "AS": 3176,
      "Ġh": 3177,
      "ĠÙħØ§Ø¯": 3178,
      "ĠØªØ±Ø¬Ø¹": 3179,
      "ĠØ®Ø¯Ø§": 3180,
      "ÙĬØªØ©": 3181,
      "ĠØ§ÙĦØ³ÙĦØ·Ø§Øª": 3182,
      "Ø³Ø¯": 3183,
      "Ø®ÙĪÙĦ": 3184,
      "ĠØ±Ø§ÙĨÙĬ": 3185,
      "ĠØ§ÙĦØ£ÙĪÙĦÙī": 3186,
      "ĠÙħØ±Ø§": 3187,
      "ÙĪÙĨÙĪ": 3188,
      "ÙĩÙħØ©": 3189,
      "ĠØ¬Ø§ÙĪØ¨": 3190,
      "Ø¨ÙĬÙĦØ©": 3191,
      "ÙħÙĪØ¨ÙĬÙĦ": 3192,
      "ĠØ§ÙĦÙĤØ¯Ùħ": 3193,
      "ĠÙĬÙĥ": 3194,
      "ĠØ§ÙĦØ¬ÙĨ": 3195,
      "Ġn": 3196,
      "ĠØ³ÙĨÙĪØ§Øª": 3197,
      "ÙĪÙĦÙĥÙĨ": 3198,
      "ĠØ·Ø±": 3199,
      "AG": 3200,
      "ĠÙħÙĪØ³": 3201,
      "Ø¹ÙĪØ¯": 3202,
      "ÙģØ±ØŃ": 3203,
      "ĠÙħØ§Ø§": 3204,
      "Ø¹ÙĬØ©": 3205,
      "ĠÙħØ§Ø¨ÙĤ": 3206,
      "Ø®Ùģ": 3207,
      "ĠÙĤÙĪÙĬØ©": 3208,
      "ĠØ¬Ø¨": 3209,
      "ÙĩØ¨": 3210,
      "Ø±Ø¨ÙĪ": 3211,
      "ir": 3212,
      "ÙĪØ±Øª": 3213,
      "ĠÙĥØ¨Ø±": 3214,
      "ĠØ³ÙĦØ¨ÙĬ": 3215,
      "ĠÙĪØ§ÙĦÙĬ": 3216,
      "Ø¨ÙĤØ§Ø´": 3217,
      "ØµØ§Ø¨Ø©": 3218,
      "ĠÙĤØªÙĦ": 3219,
      "ĠØ§ÙĦØ¨Ø±ÙĪ": 3220,
      "ĠØ§ÙĦØ§Ø²": 3221,
      "ĠØ¨Ø«": 3222,
      "ĠÙģØ§ÙĤ": 3223,
      "ĠÙĪØ§ÙĦÙħÙĪ": 3224,
      "ĠØ¨Ø§ÙĦÙģ": 3225,
      "ĠÙĦØ¨Ø³": 3226,
      "ĠØ¯Ø§ÙĬØ±Ø©": 3227,
      "ĠÙĦÙĦØ¬": 3228,
      "==": 3229,
      "ØŃÙĬÙĨ": 3230,
      "ĠØ§ÙĥØ«Ø±": 3231,
      "Ø§ÙħØ±": 3232,
      "ĠÙĥÙĬØ³Øª": 3233,
      "ĠÙģØ§ÙĦØª": 3234,
      "ĠØ§ÙĦØ³Ø§Ø¯": 3235,
      "ÙĨØªØ¬ÙĪ": 3236,
      "ÙħÙĪØ°": 3237,
      "HT": 3238,
      "Ø¨ÙĨÙĬ": 3239,
      "ĠÙĥØ§Ø§": 3240,
      "ÙħØ±Ùĥ": 3241,
      "ĠØ®Ø§ØµÙĨØ§": 3242,
      "Ø´Ø§ÙĪÙĨ": 3243,
      "ØªÙĬÙĩ": 3244,
      "Ø¨ÙĬØ¶": 3245,
      "ĠØ§ÙĦØ¬ÙħØ¹Ø©": 3246,
      "ĠØ¹ÙĨÙĤÙĩØ§": 3247,
      "ĠØ§ÙĦÙĨÙģØ³": 3248,
      "Ø±Ø§ÙĤ": 3249,
      "ĠØ§ÙĦÙĪÙĤ": 3250,
      "Ø·ÙĦØ§ÙĤ": 3251,
      "ĠØ§ÙĦØ¯ÙĪÙĦÙĬ": 3252,
      "ĠÙħØ§Ø´": 3253,
      "ĠÙģØ¶": 3254,
      "ĠØ§ÙĦÙħÙĪØ§Ø·": 3255,
      "ĠÙĥØªÙĤ": 3256,
      "ÙħÙĬØ²": 3257,
      "Ø¯Ø±ÙĬ": 3258,
      "Ø¶Ø¨Ø·": 3259,
      "ĠÙĥØªØ¬Ø±ÙĬ": 3260,
      "Ø§Ø¦Ø¬": 3261,
      "Ġ25": 3262,
      "ĠØ§ÙĦØ°ÙĥØ§Ø¡": 3263,
      "Ø§Ø´Ø©": 3264,
      "ĠÙĤØ·Ø¹": 3265,
      "Ø¯Ø«": 3266,
      "ĠÙĪØ¨Ø¹Ø¯": 3267,
      "ĠØ§ÙĦØ«ÙĤ": 3268,
      "ĠØºØ§ÙĦØ¨Ø§": 3269,
      "ĠÙĥØ£": 3270,
      "ĠÙĤØ§ÙĨÙĪÙĨ": 3271,
      "Ø§ÙĥØ©": 3272,
      "ĠØ¹Ø§ÙĪ": 3273,
      "ÙĬÙĨÙĩØ§": 3274,
      "Ø±ÙĪÙģØ©": 3275,
      "ĠØªØ³ÙħØ¹": 3276,
      "ĠØ§ÙĦØ±Ø¬Ø§ÙĦ": 3277,
      "Ø¹Ø¨Ø©": 3278,
      "ut": 3279,
      "ĠÙģØ§Ø·ÙħØ©": 3280,
      "ĠØ¹Ø´Ø±": 3281,
      "ÙĨÙĪØ¹": 3282,
      "ÙĦØ¹Ø¨ÙĪ": 3283,
      "ĠØ§ÙĦØ¨ÙĦØ§Ø¯": 3284,
      "Ø²Ø±": 3285,
      "ĠØ¹ÙĦØ§Ø¡": 3286,
      "ĠÙĪØºØ§Ø¯ÙĬ": 3287,
      "Ø¶Ùī": 3288,
      "ĠØ§ÙĦØµØŃÙĬØ©": 3289,
      "ĠØ§ÙĦÙħØ±Ø§Ø¬Ø¹Ø©": 3290,
      "Ø³Ø§Ø³": 3291,
      "ĠÙĬÙģ": 3292,
      "ĠØ§ÙĦÙģØª": 3293,
      "ĠØ¨ÙĬÙĨØ§ØªÙĩÙħ": 3294,
      "Ø¨Ø¯Ø§ÙĪ": 3295,
      "ĠØªØµÙĨÙĬÙģ": 3296,
      "ÙħØ§ÙĬØ©": 3297,
      "ĠÙĨØ³ØªÙĨØªØ¬ÙĪ": 3298,
      "ÙħÙĥ": 3299,
      "ĠØ¨Ø§ÙĬ": 3300,
      "Ø§Ø¬ÙĩØ©": 3301,
      "ĠØ§ÙĦØ®Ø§Ùħ": 3302,
      "ers": 3303,
      "ĠØ¹ÙĤÙĦ": 3304,
      "ĠÙĥØªØ§Ø¨": 3305,
      "ĠØ§ÙĦÙĤØ·": 3306,
      "ĠØµØŃÙĬØŃØ©": 3307,
      "ĠÙģÙĦÙĪØ³": 3308,
      "ĠÙĬØ¯Ø®ÙĦ": 3309,
      "Ø§Ø³ÙĬÙĪÙĨ": 3310,
      "ĠÙħØ¹Ø±ÙĪÙģ": 3311,
      "Ġo": 3312,
      "Ø¹Ø¶Ø§Ø¡": 3313,
      "Ø±ÙĪØ¨": 3314,
      "ÙħØ±Ø§": 3315,
      "ĠØ§ÙĦØ±Ø¦ÙĬØ³": 3316,
      "ĠÙĦÙĤØ§": 3317,
      "Ø§ÙĦÙĩØ§": 3318,
      "ĠÙĨÙĬØª": 3319,
      "ĠÙĤÙĬØ³": 3320,
      "ĠØ§ÙĦØ¨Ø§Ø±ØŃ": 3321,
      "ĠØ¯Ø§Ø²Øª": 3322,
      "ĠØ§ÙĦÙħØ§ÙĦÙĬØ©": 3323,
      "ĠÙĪØ§ÙĦØ³": 3324,
      "ĠØ·ÙĦ": 3325,
      "ĠÙĪØŃØ³Ø¨": 3326,
      "ĠÙĨÙģØ³ÙĩØ§": 3327,
      "ĠØ¸ÙĩØ±": 3328,
      "ĠØ¤ÙĦØ§": 3329,
      "Ø¹Ø¯Ø§Ø¯": 3330,
      "ĠØµØ§ØŃØ¨": 3331,
      "30": 3332,
      "ÙħÙħÙħÙħ": 3333,
      "Ø¹Ø¯Ø¯": 3334,
      "ÙĬÙĨØ§ÙĬØ±": 3335,
      "ĠÙĦØ¨ÙĬØª": 3336,
      "ĠÙħØ§ØŃ": 3337,
      "ĠØ±Ø¤": 3338,
      "ĠØ§ÙĦÙĦÙĪØ±": 3339,
      "ĠÙĥÙĦÙĪ": 3340,
      "ĠØ§ÙĦØªÙģÙĥÙĬØ±": 3341,
      "ĠØ¶Ø±": 3342,
      "ĠÙĬÙĤÙĪÙĦ": 3343,
      "ĠØ´Ø§Ø¯Ø©": 3344,
      "ĠØ§ÙĦÙħÙĨØ·ÙĤØ©": 3345,
      "ĠØ¯Ø®ÙĦØª": 3346,
      "ĠÙĪØ®Ø§": 3347,
      "Ø¬Ø±Ø§Ø¡Ø§Øª": 3348,
      "ri": 3349,
      "Ø§ÙĪÙĦØ©": 3350,
      "ÙĪØ§ÙĦÙĬ": 3351,
      "ØŃÙĨ": 3352,
      "ĠÙĪÙĥØ§ÙĦØ©": 3353,
      "ĠØ§ÙĦÙĢ": 3354,
      "Ø¸ÙģÙĬÙĨ": 3355,
      "Ø¨ØªØ§Ø³Ùħ": 3356,
      "ÙĪØ§ÙĨØ§Øª": 3357,
      "Ø±Ùĩ": 3358,
      "Ø§Ø¹ÙĩØ§": 3359,
      "ĠØ¨Ø¹Ø¶ÙĬ": 3360,
      "ĠØ£ÙĨÙĩØ§": 3361,
      "ĠÙĦØ§ÙĨ": 3362,
      "ĠØŃÙĨ": 3363,
      "ĠØ¨ØªØ§Ø³Ùħ": 3364,
      "ØªÙĬÙĦ": 3365,
      "Ø§Ø¦ØŃØ©": 3366,
      "ĠÙĪØ§ÙĦØªÙĨÙħÙĬØ©": 3367,
      "ĠØ§ÙĦØ´ÙħØ³": 3368,
      "Ø°Ø©": 3369,
      "ĠÙģØ§ÙĦØ¯Ø§Ø±": 3370,
      "ĠØ§ÙĦØ³Ø§Ø¨ÙĤ": 3371,
      "ĠÙħØ§Ø±ÙĬØ§": 3372,
      "ĠÙĩÙĥØ§Ùĥ": 3373,
      "ĠØ¹Ø§Ø§": 3374,
      "Ø¡Ùĩ": 3375,
      "ĠÙħØ´ÙĬØª": 3376,
      "ĠØ§ÙĦØ¶ÙĬ": 3377,
      "ĠÙĪØ«": 3378,
      "Ø§Ø³Ø§Øª": 3379,
      "ĠØ·Ø¨Ø¹": 3380,
      "ĠÙĪÙĨØªÙĬ": 3381,
      "ĠÙģÙĪØ¬": 3382,
      "Ø®Øª": 3383,
      "ÙħÙĬØ§Øª": 3384,
      "ÙħØ´ÙĬÙĪ": 3385,
      "Ġ198": 3386,
      "ĠØ§ÙĦØ¨Ø±ÙĦÙħ": 3387,
      "ĠØ¨ÙĦØ¹": 3388,
      "ÙĦÙĬØ³": 3389,
      "ĠÙĤØ§Ùħ": 3390,
      "ÙĥÙĦÙģ": 3391,
      "ØªØ¨Ùĩ": 3392,
      "ÙĬÙĨÙĬØ©": 3393,
      "ĠÙĬÙĪ": 3394,
      "ĠØ§ÙĦØ¬ÙĪ": 3395,
      "ĠÙĥÙĦÙĩÙħ": 3396,
      ",,,": 3397,
      "ĠØ§ÙĦÙħØ§ÙĥÙĦØ©": 3398,
      "Ġ]": 3399,
      "ĠØ§ÙĦØ®ÙħÙĬØ³": 3400,
      "and": 3401,
      "ÙħØ±ÙĬÙĥÙĬ": 3402,
      "Ø²Ùħ": 3403,
      "Ø±ÙĪÙĬ": 3404,
      "ĠØ¨ÙĤÙī": 3405,
      "ĠØ§ÙĦØ¬Ø²Ø§ÙĬ": 3406,
      "ĠØ¹Ø§Ø¯Ø©": 3407,
      "ØµØ§": 3408,
      "Ø®Ø±Ø§": 3409,
      "ĠÙĤÙĨ": 3410,
      "Ø§ÙĦÙĤ": 3411,
      "ĠÙģØ§ÙĦÙĤ": 3412,
      "ĠÙĪÙĬÙħÙĥÙĨ": 3413,
      "Ø³ØªØ©": 3414,
      "Ø¹ÙĬØ¯Ø©": 3415,
      "ĠÙĪØ¨Ø¯Ø§Øª": 3416,
      "ĠÙĬØ¹Ø±Ùģ": 3417,
      "ĠØ§ÙĦÙħØ¯ÙĬØ±": 3418,
      "ĠØ¹ÙĨØ§ØµØ±": 3419,
      "ÙħÙĤØ§ÙĦØ§Øª": 3420,
      "ĠØªÙĦ": 3421,
      "ĠØ£Ø´": 3422,
      "Ø¨ÙĤØ§Øª": 3423,
      "ĠÙħÙĤØ§Ø¨ÙĦ": 3424,
      "ÙħÙĪØ°Ø¬": 3425,
      "ÙĩØ¨Ø·": 3426,
      "ĠÙħÙĪØ¸Ùģ": 3427,
      "ĠÙĬØ§ÙĦÙĦÙĩ": 3428,
      "ĠØ§ÙĦÙħÙĪØª": 3429,
      "Ø¶Ø§Ùģ": 3430,
      "ĠØ±ÙģØ¶": 3431,
      "Ø§ÙĬÙĤ": 3432,
      "Ø¶Ø±ÙĪØ±Ø©": 3433,
      "ĠÙĦÙĦÙģ": 3434,
      "ĠØ¨Ø§ÙĦØ´": 3435,
      "ĠØ®Ø±Ø¬Øª": 3436,
      "ĠÙĨØ¸Ø±": 3437,
      "ĠØ¬Ø§ÙħØ¹Ø©": 3438,
      "Ø§ÙĥÙħ": 3439,
      "ĠØ·Ø§ØŃ": 3440,
      "ØªÙĪÙī": 3441,
      "Ø±ÙĥØ¨": 3442,
      "Ø¨Ø§Ø±Ø§Ø©": 3443,
      "ĠØ§ÙĦÙħØ¬ØªÙħØ¹": 3444,
      "ĠÙĦÙĪÙĦ": 3445,
      "ĠØ®Ø§Ø±": 3446,
      "ĠØ§ÙĦØ§Ø´": 3447,
      "ĠÙĪÙĦÙĪ": 3448,
      "Ø§ÙĬØ³": 3449,
      "ÙĨÙĪØ§Ø¹": 3450,
      "Ø§Ø²ÙĦ": 3451,
      "ĠØªØ³ØªØ¹ÙħÙĦ": 3452,
      "ÙĨÙĤØ©": 3453,
      "ĠÙħÙħØ§": 3454,
      "ĠØ¹Ø¶": 3455,
      "ĠØ¯Ø§Ø®": 3456,
      "ĠØ§ÙĦÙħØ¤": 3457,
      "ÙĪØ±Ùĥ": 3458,
      "ĠØ§ÙĦØ¨Ø·": 3459,
      "12": 3460,
      "ĠJ": 3461,
      "Ø§Ø¹ÙĪ": 3462,
      "ĠØµÙĪØ±Ø©": 3463,
      "Ø¨Ø¹Ø¶": 3464,
      "ĠÙĦÙĤÙĬØª": 3465,
      "ĠØ¨Ø³Ø¨Ø§Ø¨": 3466,
      "ĠÙħØ§Ø®": 3467,
      "ĠÙĪØ§ÙĦØµ": 3468,
      "Ø³ÙĨÙī": 3469,
      "ra": 3470,
      "ĠØ£Ùĩ": 3471,
      "Ø±Ø¨Ø¹Ø©": 3472,
      "ĠØ´Ø§Ø¡": 3473,
      "ĠØ·Ø§ÙĬ": 3474,
      "ĠÙĤÙĦØªÙĬ": 3475,
      "ĠÙĬÙĨØ§ÙĬØ±": 3476,
      "Ø§Ø±Ø¨ÙĬ": 3477,
      "Ø§ÙĥØ´ÙĬ": 3478,
      "ĠÙĪØ§ÙĦÙħØ¹": 3479,
      "ĠØªØ£Ø«ÙĬØ±": 3480,
      "Ø¨Ø²": 3481,
      "Ø´ÙĪÙģÙĪ": 3482,
      "Ġ50": 3483,
      "Ø±Ø´": 3484,
      "ĠÙĪØªÙĪ": 3485,
      "Ø§ÙĦØ·": 3486,
      "ĠÙħØŃØªØ§Ø¬": 3487,
      "ĠØ§ÙĦØ§ÙĨØªØ®": 3488,
      "ĠÙĦÙĬÙĥÙħ": 3489,
      "Ø³ÙĬØ§": 3490,
      "ÙĤÙĦØ§ÙĦ": 3491,
      "ĠØ§ÙĦØµØŃØ±Ø§Ø¡": 3492,
      "Ġa": 3493,
      "ĠØ¯ÙģØ¹": 3494,
      "Ø±ÙĬØ¨ÙĬ": 3495,
      "ĠÙĤØ§ÙĦÙĬ": 3496,
      "ĠÙĥÙĬØªØŃ": 3497,
      "ĠØ£ÙĥØ¨Ø±": 3498,
      "Ø«ÙĨØ§Ø¡": 3499,
      "ĠØ¨Ø§ÙĦØ³": 3500,
      "##": 3501,
      "ĠØ¨Ø§ÙĬÙĨ": 3502,
      "ĠØºÙħØ¶": 3503,
      "Ø§ØªÙģ": 3504,
      "ĠØ§ÙĦØ£Ø®Ø±Ùī": 3505,
      "ĠØ®ÙģÙĬÙģØ©": 3506,
      "ĠÙĪÙĪ": 3507,
      "ĠÙĪØ·ÙĦØ¹": 3508,
      "Ø§Ø§Ø§ÙĦ": 3509,
      "ĠÙħØ¹Ø§ÙĨØ§": 3510,
      "ĠÙĪØ§ÙĦÙĦÙĬ": 3511,
      "ĠØ¬Ø±ÙĩØ§": 3512,
      "ÙĬÙĦØ§": 3513,
      "ØªÙħØ§Ùħ": 3514,
      "Ø¹Ø¶": 3515,
      "ĠÙĥØŃÙĦ": 3516,
      "Ø³ÙĬÙģ": 3517,
      "ÙĪØµÙģ": 3518,
      "ĠÙĥÙĬØ¹ÙĨÙĬ": 3519,
      "ĠÙĨØ´ÙĪÙģÙĪ": 3520,
      "Ø§ØªÙĨØ§": 3521,
      "ĠÙĬØŃÙĬÙī": 3522,
      "ĠÙĨØ§ÙĤ": 3523,
      "ĠØ§ÙĦØ¯ÙĨÙĬØ§": 3524,
      "ĠØ§Ø³ÙĬ": 3525,
      "ÙĤØ³": 3526,
      "ĠÙĨØ¹Ø±Ùģ": 3527,
      "ĠØ§ÙĦÙħÙĪØ³": 3528,
      "Ø³ÙħØ§Ø¡": 3529,
      "ĠØ§ÙĦÙħØ³ÙĪ": 3530,
      "Ø§Ø¨Ø±": 3531,
      "ĠÙĦÙĬÙĪÙħ": 3532,
      "ĠØ®ÙĦÙĤ": 3533,
      "ĠØµØŃØ§Ø¨": 3534,
      "Ø±Ø¬Ø¹ÙĪ": 3535,
      "ĠØ³ÙħÙĬØªÙĪ": 3536,
      "ĠØ§ÙĦÙĨÙĬØ§Ø¨Ø©": 3537,
      "Ø§ÙĨØ¯": 3538,
      "ĠÙĬØ²ÙĬØ¯": 3539,
      "ĠØ±Ø§ÙĩØ§": 3540,
      "ÙģÙĬØ°": 3541,
      "ĠØ´ÙĪÙģÙĬ": 3542,
      "ĠÙģØ¹ÙĦ": 3543,
      "ĠØ¹Ø¯Ø©": 3544,
      "Ø®Ø¨Ø§Ø±": 3545,
      "ØºÙĬÙĬØ±": 3546,
      "ĠØ³ÙĪÙĦ": 3547,
      "ĠØ®ÙĪÙĬØ§": 3548,
      "ĠÙĪÙģØ§Ø¡": 3549,
      "im": 3550,
      "Ġg": 3551,
      "Ġw": 3552,
      "ĠÙģØ§Ø±": 3553,
      "ĠÙĤØª": 3554,
      "ĠØµØ¯Ø±ÙĪ": 3555,
      "ĠØ¹ÙĦÙĬÙĥÙħ": 3556,
      "ĠØ®Ø¯Ø§ÙħÙĬÙĨ": 3557,
      "ĠØ§Ø¬ØªÙħ": 3558,
      "ÙĦÙĥØªØ±": 3559,
      "ĠØ¹Ø§ÙĤ": 3560,
      "ĠØ¯Ø±Ø¬Ø©": 3561,
      "ĠÙģÙĬØ¯ÙĬÙĪ": 3562,
      "ĠØ§ÙĦØ³ÙģØ±": 3563,
      "Ø¯Ø§ÙħØ©": 3564,
      "ĠØ¨Ø±ÙĨØ§ÙħØ¬": 3565,
      "ASHT": 3566,
      "ASHTAG": 3567,
      "ĠÙħØ±ÙĪ": 3568,
      "ĠÙĦÙħØ§": 3569,
      "Ø£ÙĬ": 3570,
      "ĠÙĤØ¶ÙĬØ©": 3571,
      "Ø§ØºÙĬ": 3572,
      "ĠØ§Ø®Øª": 3573,
      "ĠÙĪÙĩØ§Ø¯Ø´ÙĬ": 3574,
      "Ø¹Ùģ": 3575,
      "Ø§Ø¨Ø³": 3576,
      "Ġ40": 3577,
      "ĠØ§ÙĦÙħØµØ§Ø¯Ø±": 3578,
      "ÙħÙĪÙĨ": 3579,
      "Ø¬ÙĪØ¬": 3580,
      "ĠØ³ÙĬØ¯": 3581,
      "Ø§ÙģØ¸": 3582,
      "ĠÙģØ±Ø§Ø³": 3583,
      "ĠÙĥÙĬØ®": 3584,
      "ÙĬÙĬÙĥ": 3585,
      "ĠÙĥÙĨØ¨ØºÙĬ": 3586,
      "ĠÙĨÙģØ³Ùĩ": 3587,
      "Ø±Ø³ÙĦØ§ÙĨ": 3588,
      "ĠØ§ÙĦØ§Ø«": 3589,
      "ĠÙĪØµØ§ÙģÙĬ": 3590,
      "ĠÙĨØ¹Ø³": 3591,
      "ÙħØ«ÙĦØ©": 3592,
      "Ø´ÙĬØ¯": 3593,
      "Ø±ÙĪØ¶": 3594,
      "ĠÙĦØ§ÙħØ§Ø±": 3595,
      "Ø§ÙĤØ¨": 3596,
      "ØºØ±Ø§Ø¨": 3597,
      "ĠØ§ÙĦØ§ØªØŃØ§Ø¯": 3598,
      "//": 3599,
      "ĠØ¨ØŃÙĬ": 3600,
      "ĠØ¬ÙĬØª": 3601,
      "ĠØ§ÙĦØªØ¯": 3602,
      "ĠÙĩÙĩÙĩÙĩÙĩÙĩÙĩ": 3603,
      "ÙĦÙĬÙĤ": 3604,
      "Ø¶Ø±ÙĬ": 3605,
      "ØŃØ¯Ø«": 3606,
      "ĠØ§ÙĦØ®Øµ": 3607,
      "ÙĦØ§ØªØ©": 3608,
      "ĠØ¨ÙĤÙĬØª": 3609,
      "ÙĦØ§ÙħÙĬ": 3610,
      "ĠØ¹ÙħØ±ÙĪ": 3611,
      "ĠØ®Ø¯ÙħØ§Øª": 3612,
      "ĠÙĩÙĨØ§Ùĥ": 3613,
      "Ø¬Ø§ÙĪ": 3614,
      "ĠØ³ÙĨ": 3615,
      "ĠÙĪØ§ÙĦÙĥ": 3616,
      "Ø®ÙĦÙĤ": 3617,
      "ÙħÙĦÙĥ": 3618,
      "ĠØ§ÙĦØ³Ø§Ø¯Ø³": 3619,
      "ĠØ§Ø±Øª": 3620,
      "ÙħØ§Ø´ÙĬ": 3621,
      "Ø§ØŃÙĦ": 3622,
      "ÙĬÙĦØ§Øª": 3623,
      "Ø¶ØŃÙĥØ©": 3624,
      "ĠØ§ÙĦØ´Ø®ØµÙĬØ©": 3625,
      "ĠÙĪÙĬÙĨ": 3626,
      "ĠØ¬ÙħÙĬÙĦØ©": 3627,
      "ĠØ§ÙĦØ¹ÙĤ": 3628,
      "ĠØ§ÙĦÙģÙĬÙĦÙħ": 3629,
      "ĠØ§ÙĦØ«ÙĦØ§Ø«Ø§Ø¡": 3630,
      "ÙĨØ§Ø¹Ø©": 3631,
      "Ø²Ø§ÙĨ": 3632,
      "ĠÙģÙĬØ¯ÙĬÙĩØ§": 3633,
      "ÙĥØ±Ø§Ùħ": 3634,
      "ĠØ¨ÙĪØŃØ¯ÙĩØ§": 3635,
      "Ø§ÙĦØ«": 3636,
      "ÙĩØ±ÙĪ": 3637,
      "ĠÙĦØªØŃ": 3638,
      "Ø·ØŃ": 3639,
      "Ø§Ø§Ø§Ø§Ø§Ø§": 3640,
      "un": 3641,
      "ĠÙħØºØ±Ø¨ÙĬ": 3642,
      "ĠÙĥÙĪØ¯": 3643,
      "ÙĨÙĬØ§Øª": 3644,
      "''": 3645,
      "ĠÙħÙĦÙģ": 3646,
      "ĠÙħØ±ÙĥØ²": 3647,
      "Ø¬Ø§Ø±": 3648,
      "ĠÙĥØªØ®": 3649,
      "ĠØ§ÙĦØ¬Ø±": 3650,
      "ĠØ¨Ø¹ÙĬÙĨ": 3651,
      "ĠØªØ¬Ø±Ø¨Ø©": 3652,
      "ĠØªØ´Ø±ÙĬ": 3653,
      "ĠÙĤØ±Ø§Ø±": 3654,
      "ÙĩØ²Ø§Øª": 3655,
      "ĠÙĬØ±Ø¬Ø¹": 3656,
      "Ø¦Ø§Øª": 3657,
      "ĠÙĥØ§ØªØ´ÙĪÙģ": 3658,
      "Ø§ÙħÙĪØ³": 3659,
      "ĠØ§ÙĦÙĨØ¹": 3660,
      "ĠØ§ÙĦÙħÙĦÙĥÙĬØ©": 3661,
      "ĠÙģÙĥØ±Ø©": 3662,
      "Ø§Ø¯Ø«": 3663,
      "ĠØ®Ø¯Ø§Øª": 3664,
      "ÙĨÙĪØ¶": 3665,
      "ĠØ¨Ø²Ø§Ø§Ø§Ùģ": 3666,
      "ĠØ¨ÙĩØ¯ÙĪØ¡": 3667,
      "ĠÙģØ¨Ø±": 3668,
      "ĠØ§ÙĦØ£Ø±Ø¶": 3669,
      "--------": 3670,
      "ĠØ§ÙĦØ§Ø¹Øª": 3671,
      "ĠÙĪÙĩØ²": 3672,
      "ĠØ±ÙĬØŃ": 3673,
      "ĠØ¨Ø¯Ø§ÙĪ": 3674,
      "ĠØ§ÙĦÙĤØ±Ø§Ø±": 3675,
      "ĠØ§ÙĦÙĨÙĪØ¹": 3676,
      "ĠØ§ÙĦÙĪÙģ": 3677,
      "ĠØ§ÙĦØ§ÙĪ": 3678,
      "ĠØ§ÙĦÙħÙĥØ§ÙĨ": 3679,
      "ĠÙĥÙĬØ®ÙĦÙĬ": 3680,
      "Ø§ÙĩÙĬØ©": 3681,
      "ĠØ§ÙĦØ·Ø¨ÙĦØ©": 3682,
      "ĠØ¨Ø±Ø§Ø³ÙĩØ§": 3683,
      "Ġ197": 3684,
      "ĠØ³ÙĦÙħÙī": 3685,
      "ĠØ®ÙĦÙģ": 3686,
      "Ø°Ø±": 3687,
      "Ø¸Ø§Ø±": 3688,
      "ÙĥÙĬÙģ": 3689,
      "Ø¸ÙĬ": 3690,
      "ĠØ³ÙĦØ§Ùħ": 3691,
      "ĠØªÙĤÙĬÙĬÙħ": 3692,
      "ĠØ§ÙĦÙģÙĬØ¯ÙĬÙĪ": 3693,
      "ĠÙģØ±ØŃØ§ÙĨ": 3694,
      "Ø§Ø§ÙĪ": 3695,
      "ĠØ®ÙĪÙĦØ©": 3696,
      "Ø³ÙĬÙĪ": 3697,
      "ĠÙħÙĪØ±Ø§ÙĩØ§": 3698,
      "ĠØ§ÙĦØ®Ø§Ø±Ø¬ÙĬØ©": 3699,
      "15": 3700,
      "ÙģØ§Ø¸": 3701,
      "ĠØŃØ§": 3702,
      "ĠÙĥØªÙģÙĥØ±": 3703,
      "ĠØ§ÙĦÙĨØ¸Ø±": 3704,
      "ĠÙħØ´Ø±ÙĪØ¹": 3705,
      "ĠØ§ÙĦØ²Ø¨ÙĨØ§Ø¡": 3706,
      "ĠÙĨØ§Ø¹Ø³Ø©": 3707,
      "Ø³Ø³Ø§Øª": 3708,
      "ĠØ¨Ø§Øª": 3709,
      "ĠÙĦØ¨Ø±": 3710,
      "ĠÙĥØ±ÙĬÙħ": 3711,
      "ĠØ¯ÙĪØ´": 3712,
      "ĠÙĥØªÙĨ": 3713,
      "ĠØŃÙĪØ§ÙĬØ¬ÙĩØ§": 3714,
      "ĠÙĬØ¹Ø§ÙĪÙĨ": 3715,
      "ĠØŃØ±Ùĥ": 3716,
      "ĠÙĤÙĪØ©": 3717,
      "ĠØ·ÙĪÙĬÙĦ": 3718,
      "ÙĪØ¯Ø§Ø¯": 3719,
      "ĠÙħØ·ÙĦ": 3720,
      "Ø³Ø¨Ø§Ø¨": 3721,
      "ØµØ¨ØŃ": 3722,
      "ĠHASHTAG": 3723,
      "ĠÙĨØ¯ÙĬØ±ÙĪ": 3724,
      "ĠØ§ÙĦØ¹Ø§Ø¦ÙĦØ©": 3725,
      "ĠØ§ÙĦÙĤÙĦØ¨": 3726,
      "ĠÙĪÙħØ´Ø§": 3727,
      "ĠØªØ¨ÙĤÙī": 3728,
      "ĠÙħØ§Ø±Ø³": 3729,
      "ĠØ¨Ø±Ø¬": 3730,
      "Ø§ÙħÙĬÙĨ": 3731,
      "ĠØºØ§ÙĦÙĬ": 3732,
      "ĠØ§ÙĦØ¬ÙĦ": 3733,
      "Ø´Ø§Ø±Ø©": 3734,
      "ÙĪÙĤØ©": 3735,
      "ĠØ§ÙĦÙĨØ¸Ø§Ùħ": 3736,
      "Ø·ÙĬØ§Øª": 3737,
      "ĠÙĪØ®Ø±Ø¬Ø§Øª": 3738,
      "ĠØ¹ÙĬØ³": 3739,
      "ĠÙĬØ§Ø³ÙħÙĬÙĨ": 3740,
      "ÙĪÙģÙĬØ§": 3741,
      "ĠÙĪØŃØ·": 3742,
      "ĠØ¨Ø¬ÙĩØ¯": 3743,
      "ĠÙĨØ±Ø¬Ø¹": 3744,
      "ÙĩÙħÙĬØ©": 3745,
      "ĠØ±ÙĥØ¨": 3746,
      "ĠØ¹ÙħÙĬ": 3747,
      "Ø±Ø¬Ùħ": 3748,
      "Ø§Ø·ÙĪ": 3749,
      "ĠÙħØ³ÙĪ": 3750,
      "ĠØŃØ¬Ø¨Ø§ÙĨ": 3751,
      "ĠÙħÙħØª": 3752,
      "ØºØ§ÙĦ": 3753,
      "ĠØµØ¹ÙĬØ¨": 3754,
      "ĠØ§ÙĦØ³Ø¨Øª": 3755,
      "ĠÙĦÙģÙĪÙĤ": 3756,
      "ĠØ¨ÙĨÙĥÙĬØ±Ø§ÙĨ": 3757,
      "ĠØ¨ÙĪÙĦ": 3758,
      "Ø¬ÙĨØ©": 3759,
      "ĠØ§ÙĦØ£Øµ": 3760,
      "ĠØ³ÙħØŃ": 3761,
      "ĠÙģÙĩØ¯": 3762,
      "Ø¦ÙĦØ©": 3763,
      "ĠØ§ÙĦÙħØ´Ø§ÙĥÙĦ": 3764,
      "ÙĤÙĦØ¨ÙĪ": 3765,
      "Ø·ÙģÙī": 3766,
      "oo": 3767,
      "Ø³ÙĬØ©": 3768,
      "ĠØ¨Ø±ÙĬ": 3769,
      "ĠØ¨ÙĬØ§": 3770,
      "ÙĦÙĬÙħØ©": 3771,
      "ĠØ´Ø¹Ø±": 3772,
      "ĠÙĪØ§ÙĦØªØ¹": 3773,
      "ĠÙĦØ§ÙĬ": 3774,
      "Ø§ØªØ¨": 3775,
      "Ø®Ø®": 3776,
      "ÙĨÙĬÙĩØ§": 3777,
      "ĠÙħØµØ§ÙĦØŃ": 3778,
      "]:": 3779,
      "ÙħÙĨÙĬ": 3780,
      "ØªÙĬÙĤ": 3781,
      "ÙĤÙĬÙĤÙĬ": 3782,
      "ĠÙĤØ±Ø¨Ø§Øª": 3783,
      "ÙĤØ§ÙħØ©": 3784,
      "Ø´Ø®Ø§Øµ": 3785,
      "Ø¨ØªØ©": 3786,
      "ĠÙĦÙħØºØ±ÙĬØ¨": 3787,
      "ĠÙħÙĪÙĨ": 3788,
      "Ø¯ÙĬÙĤ": 3789,
      "ĠÙĪØ¨Ø¯Ø§": 3790,
      "ĠØ§ÙĦØ³ÙĬØ§Ø³ÙĬ": 3791,
      "ĠÙĦØ¯Ø§Ø®ÙĦ": 3792,
      "ÙĩÙĪØ¯": 3793,
      "ĠØ§ÙĦØªØ£": 3794,
      "Ø±Ø¶Ùī": 3795,
      "ĠÙģÙĩ": 3796,
      "ĠØ®Ø¯": 3797,
      "ÙĪÙĨÙĬÙĪ": 3798,
      "ÙĨØ§Ùģ": 3799,
      "ĠÙĪÙħÙĪ": 3800,
      "ĠØ§ÙĦÙħØ§Ø¡": 3801,
      "ĠØ±Ø§ØŃ": 3802,
      "ĠØ¨Ø§ÙĬÙĨØ©": 3803,
      "ĠÙħØ²ÙĬ": 3804,
      "ĠØ·Ø¨ÙĬØ¨": 3805,
      "ÙĤÙĬØ³": 3806,
      "ĠØ®ÙĦÙĬÙĨÙĬ": 3807,
      "ĠÙħØºÙĬ": 3808,
      "ĠÙĥÙĬØ¶Ø±Ø¨": 3809,
      "ĠØ¨ØŃØ±": 3810,
      "Ø±Ø¨Ø§Øª": 3811,
      "ÙĬÙĬÙĬÙĬÙĬ": 3812,
      "Ø¨Ø±Ø²": 3813,
      "ĠÙģØ§ÙĦÙħØ¬": 3814,
      "Ø±ÙĬØ±": 3815,
      "Ø³ÙĥØ±": 3816,
      "ĠØ³Ø¬": 3817,
      "ĠÙĪØ§ÙĦÙĨ": 3818,
      "ÙĪØ¶ØŃ": 3819,
      "ĠØ¹ÙĬØ³Ùī": 3820,
      "ÙħÙĬØ±": 3821,
      "ĠÙħÙĬØ³": 3822,
      "ØŃÙħÙĦ": 3823,
      "ĠØ¬ÙĪØ§Ø¨": 3824,
      "Ø§ÙĬØ´": 3825,
      "ĠÙĥØªØŃØ³": 3826,
      "ĠØ§ÙĦØªØ§Ø±ÙĬØ®": 3827,
      "ĠØ§ÙĦÙĦÙĬÙĦ": 3828,
      "ĠÙĪØ¬ÙĪØ¯": 3829,
      "ĠÙĤÙĦØ¨ÙĪ": 3830,
      "Ø§ÙĦØ´": 3831,
      "ĠØ¨Ø§ÙĩØ§": 3832,
      "ĠØ§ÙĬÙĪØ§": 3833,
      "ĠØ§Ø´ÙĨÙĪ": 3834,
      "ĠÙĪØ¦Ø§Ùħ": 3835,
      "ÙĪÙģØ©": 3836,
      "ĠØ§ÙĦÙĦÙĤ": 3837,
      "ĠÙħØ´Ø§ÙĪ": 3838,
      "ĠÙĦÙĤØ±": 3839,
      "ÙĤØ§ÙĦÙĬ": 3840,
      "ĠÙĦØ·": 3841,
      "ĠØªÙĨØª": 3842,
      "ĠØ¬ÙħØ§Ø¹Ø©": 3843,
      "ĠÙĨÙĩØ§ÙĬØ©": 3844,
      "ĠØŃÙĬØ§ØªÙĬ": 3845,
      "ĠØ§ÙĦØªÙĬÙĦÙĬÙģÙĪÙĨ": 3846,
      "Ø§ÙĥØ³": 3847,
      "ĠÙģØ§ÙĦØµ": 3848,
      "ĠØ¨Ø¯Ø§ÙĬØ©": 3849,
      "ÙĪÙĬØ±": 3850,
      "ÙĨÙĩÙħ": 3851,
      "ĠÙħØ§Ø³": 3852,
      "ĠÙĩÙĥØ§": 3853,
      "ĠÙħØ³Ø¤": 3854,
      "Ø¯Ø§ÙĬ": 3855,
      "ĠÙģÙĪØ±": 3856,
      "ĠØŃÙĪØ§ÙĬ": 3857,
      "ĠØ³Ø§Ø¹Ø§Øª": 3858,
      "ĠÙħØºØ§Ø¯ÙĬØ´": 3859,
      "ĠØ¹Ø±ÙģØªÙĬ": 3860,
      "ĠØ§ÙĦÙħÙĦÙģ": 3861,
      "Ø§Ø¬Ø¹": 3862,
      "Ø¨Ø¹ÙĩØ§": 3863,
      "ĠÙĦÙĤØ§ÙĩØ§": 3864,
      "ĠØªÙĪÙĤÙģ": 3865,
      "ĠØ±ØŃ": 3866,
      "Ø±ÙĬÙħØ©": 3867,
      "ĠØ³ÙħØ¹Ø§Øª": 3868,
      "ĠV": 3869,
      "ĠÙĦØ§Ø¹Ø¨": 3870,
      "ĠØ±Ø¦ÙĬØ³": 3871,
      "ĠÙĪØ§ÙĦÙģ": 3872,
      "ĠØ§ÙĦÙĪÙĦØ¯": 3873,
      "ĠØŃØ§ÙĦÙĬØ§": 3874,
      "11": 3875,
      "ĠØ¨ÙħØ¹": 3876,
      "ĠØµØ¯Ø±ÙĩØ§": 3877,
      "ĠO": 3878,
      "ĠØ§ÙĦÙħØªÙĪ": 3879,
      "ÙĪÙĨØ¯": 3880,
      "ĠÙĥØªØ§Ùģ": 3881,
      "ĠÙģØ§ÙĦØ¨": 3882,
      "Ø§Ø±ÙĬØ¹": 3883,
      "ĠØªØ¹Ø·ÙĬ": 3884,
      "ĠÙģØ±ØµØ©": 3885,
      "ÙĦÙĪÙħ": 3886,
      "ĠÙħÙĩØ§": 3887,
      "ine": 3888,
      "ÙĨØ¯ÙĪÙĤ": 3889,
      "ĠÙĥÙĦÙħ": 3890,
      "Ø¨ÙĬØ§": 3891,
      "ĠÙĪØªÙĨ": 3892,
      "ĠØ§ÙĦÙĪÙĦØ§ÙĬØ§Øª": 3893,
      "ÙħØ§Ø¹": 3894,
      "Ø§ÙħØ¹": 3895,
      "ĠÙĥÙĬØ¨ÙĬÙĨ": 3896,
      "ĠØ¶ÙĪ": 3897,
      "ĠÙĬØªØ¹": 3898,
      "ĠØ§ÙĦØ§ØªØµØ§ÙĦ": 3899,
      "ÙĬÙĪ": 3900,
      "ØºÙĪ": 3901,
      "Ø®ÙĦÙĬÙĨØ§": 3902,
      "``": 3903,
      "ĠÙĦÙĩÙħ": 3904,
      "Ġ--": 3905,
      "ĠÙħØ«ÙĦ": 3906,
      "ĠÙħÙĨØ§Ø³Ø¨": 3907,
      "ĠØ§ÙĦØ³ÙĦØ§Ùħ": 3908,
      "ĠØ§ÙĦØ¨ÙĬÙĪ": 3909,
      "ÙĤÙĬÙĨ": 3910,
      "ĠØ¨ÙĨØ§ÙĬØ©": 3911,
      "ĠØ´Ø§Ø±Ø¹": 3912,
      "ĠÙĤØ§Ø¯": 3913,
      "ĠØ·Ø§ØŃØª": 3914,
      "ĠØ§ÙĨØ§Ø§": 3915,
      "ĠØ±Ø¬Ø¹Øª": 3916,
      "Ġ!ØŁ": 3917,
      "ĠØ§Ø«": 3918,
      "ĠØ§ÙĦØµÙĪØª": 3919,
      "ĠØ§ÙĦØ·Ø¨": 3920,
      "ĠØªÙĤÙĦØ¨": 3921,
      "ĠØ±ÙĬØ§ÙĨ": 3922,
      "Ø¯Ø®ÙĦØ§Øª": 3923,
      "Ø²ÙħØ©": 3924,
      "ØŃØ§ÙĦØ©": 3925,
      "ĠØ¨Ø²Ø±Ø¨Ø©": 3926,
      "ÙĪÙĬÙĦÙĬ": 3927,
      "ĠØªÙĦÙĤÙī": 3928,
      "ĠÙĥØ±Ø©": 3929,
      "Ø§Ø¹Ø¨ÙĬÙĨ": 3930,
      "ĠØ§ÙĨÙĪ": 3931,
      "ĠÙħØ§ÙĦÙĬ": 3932,
      "Ø²Ø§Ø¯": 3933,
      "ĠÙĬÙĪØµÙĦ": 3934,
      "ĠØ§ØŃÙħ": 3935,
      "Ø¬ÙĨØ¨Ø±": 3936,
      "ĠØ¨Ø§ÙĦØ²Ø±Ø¨Ø©": 3937,
      "ĠÙĥÙĨØ§": 3938,
      "Ø·ÙĬØ©": 3939,
      "ĠÙĦÙĬØ³": 3940,
      "ÙĥÙĬÙħ": 3941,
      "ĠÙĨØ¯": 3942,
      "ĠÙħÙĤØ¯Ø±": 3943,
      "ation": 3944,
      "ÙĬÙĨØ§Ùĥ": 3945,
      "ĠÙĨØ¬Ùħ": 3946,
      "ĠØ´ÙĪÙĬ": 3947,
      "ĠÙĪÙĥÙĬÙģØ§Ø´": 3948,
      "ØªØ¨Ø±": 3949,
      "Ø¨Øµ": 3950,
      "Ø§Ø±ÙĩØ§": 3951,
      "ĠÙĨÙĪØ¶": 3952,
      "ĠØŃØ¨ÙĬØ¨": 3953,
      "Ø¯ÙĪØ§Øª": 3954,
      "Ø¹Ø¯ÙĦ": 3955,
      "ĠØ§ÙĦØ´Ø±ÙĥØ§Øª": 3956,
      "Ø±ÙĩØ§": 3957,
      "Ø´Ø¹": 3958,
      "ĠØªØ¯ÙĬØ±": 3959,
      "ĠÙĥÙĬØ¬ÙĬ": 3960,
      "ĠÙĦÙĦØ§Ø³Øª": 3961,
      "ĠÙĥØ¯": 3962,
      "ĠÙģØ¯Ø§Ø±": 3963,
      "Ø§ØµÙĦØ©": 3964,
      "ÙĦÙĪÙĩØ§": 3965,
      "Ø§Ø·ÙĬØ©": 3966,
      "ĠØ§ÙĦØµÙĪØ±": 3967,
      "Ø§ÙĦÙĩ": 3968,
      "ĠØ¹Ø±ÙĬ": 3969,
      "ĠÙĩØ§Ø§": 3970,
      "Ø£Ùĥ": 3971,
      "ÙĪÙĪÙĪÙģ": 3972,
      "ĠØ§ÙĦÙģÙĨØ§ÙĨ": 3973,
      "ĠÙĪØªÙħ": 3974,
      "Ø²ÙĬØ¯ÙĪ": 3975,
      "ĠØ¨Ø¯ÙĦ": 3976,
      "ĠØŃØ±ÙĥØ©": 3977,
      "ÙĥÙĬØ²": 3978,
      "ĠØ§ÙĦØ®Ø§Øµ": 3979,
      "ĠÙĥÙĬØ¹Ø·ÙĬ": 3980,
      "ĠØªØ·Ø¨ÙĬÙĤ": 3981,
      "Ø¹ÙĬÙĪÙĨ": 3982,
      "ĠØ§ÙĦÙħØŃÙĦÙĬØ©": 3983,
      "ĠÙĦØ¨ÙĬØªÙĩØ§": 3984,
      "40": 3985,
      "ay": 3986,
      "~~": 3987,
      "ĠØ¨Ø´Ø±": 3988,
      "Ø´Ø¨": 3989,
      "ĠØ¨Ø§ÙĦÙĨ": 3990,
      "ÙĤÙĬØªÙĬ": 3991,
      "ĠÙĪØ±Ø§Ùĩ": 3992,
      "ct": 3993,
      "ig": 3994,
      "ĠØ§ÙĦØ§Ùģ": 3995,
      "ØºÙĨ": 3996,
      "ĠÙĦÙĦØ¯": 3997,
      "Ø±Ø§ÙĩÙĬÙħ": 3998,
      "ÙĤÙģ": 3999,
      "ĠØ¯Ø¬ÙĨØ¨Ø±": 4000,
      "ÙĬÙģØ·": 4001,
      "ĠØ§ÙĦÙħØªÙĩÙħ": 4002,
      "ĠÙħØ³Ø§Ø¡": 4003,
      "Ø¹ÙĦÙħØª": 4004,
      "ØŃÙĤ": 4005,
      "ĠØªØ§ÙĨ": 4006,
      "ĠÙĬÙĪÙĪ": 4007,
      "Ø³ÙĬØ³": 4008,
      "Ø´ÙģØª": 4009,
      "ĠØªØ·": 4010,
      "ĠÙĪØ§ÙĦØ¥": 4011,
      "ul": 4012,
      "ĠØ§ÙĦØ§Ø±Ø¶": 4013,
      "ĠÙĦÙĪÙĨ": 4014,
      "ĠØªØ§Ø®Ø¯": 4015,
      "ĠÙħÙĪØ¶ÙĪØ¹": 4016,
      "ĠÙĦØ¯Ùī": 4017,
      "ĠØªÙĪØŃØ´": 4018,
      "Ø§ÙĦÙħÙĬ": 4019,
      "ĠØ¨ØŃØ§ÙĦØ§": 4020,
      "ĠÙħØ§ÙĥØ§ÙĬÙĨ": 4021,
      "ĠÙħÙĥØªØ¨": 4022,
      "ÙģØ¸": 4023,
      "Ø§Ø³ÙĦ": 4024,
      "Ø§ÙĥÙĩØ§": 4025,
      "Ø¨ÙĬØ¨ÙĬ": 4026,
      "ĠØ²ÙĬØ±": 4027,
      "ĠØ¥ÙĨ": 4028,
      "ĠØ§ÙĦÙħØ´ÙĥÙĦ": 4029,
      "Ù¬": 4030,
      "Ø±Ø§Ùħ": 4031,
      "ĠÙĬØ¯ÙĬØ±ÙĪ": 4032,
      "ĠÙħØ¹ÙĨØ¯": 4033,
      "ØŃØªØ§": 4034,
      "ÙħØ´Ø§Øª": 4035,
      "Ø±ÙĪÙĬØ©": 4036,
      "Ø±ÙģØ¶": 4037,
      "ĠØ§ÙĦÙĨÙĩ": 4038,
      "ĠØ¹Ø§Ø¯ÙĦ": 4039,
      "Ø§Ø§Ø§Ø±": 4040,
      "ÙģØ±Ø§Ø¯": 4041,
      "ĠØ±ÙĬÙħØ§Ø³": 4042,
      "ÙĪÙĩØ§Øª": 4043,
      "ÙĥÙĪØ±": 4044,
      "ĠÙĦØ¨Ø³Ø§Øª": 4045,
      "ÙħØ«Ø§ÙĦ": 4046,
      "ĠØ¹Ø§Ø¦ÙĦ": 4047,
      "ØŃØ¨Ø§": 4048,
      "Ø¬Ø¨Ø¯": 4049,
      "ĠØ´Ø§ÙģÙĩØ§": 4050,
      "Ø¯ÙĬØ§Ø¯": 4051,
      "ĠØ§ÙĦØ¯ÙĪÙĦ": 4052,
      "ĠÙĪØ¬ÙĦØ³": 4053,
      "Ø·ÙĬØ¨": 4054,
      "ĠØªÙģÙĥ": 4055,
      "ĠÙĨØ¬ÙħØ©": 4056,
      "ÙĨÙĪØ±": 4057,
      "Ø¯Ø§Ø¨Ø§": 4058,
      "ĠÙĤØ§Ø¯Ø±": 4059,
      "ĠÙĪØ§ÙĦÙĤ": 4060,
      "ĠØ§ÙĦØ·ÙĦØ¨": 4061,
      "Ø¹ÙħØ±": 4062,
      "Ø±ÙĬØ¯Ø©": 4063,
      "ĠØ¬Ø¨Ùĩ": 4064,
      "ĠØ·ÙĪ": 4065,
      "ĠØ§ÙĦÙģÙĪÙĤ": 4066,
      "ĠØ²Ø§Ø¯Øª": 4067,
      "ÙħÙĥØ§ÙĨ": 4068,
      "ĠØ¨ÙĪØ³": 4069,
      "ĠØ¨Ø§Ø³ÙĩØ§": 4070,
      "ĠÙĥØªÙĤÙĦØ¨": 4071,
      "ĠØ´Ø®ØµÙĬØ©": 4072,
      "ĠĊĊ": 4073,
      "ĠÙĪØ§ÙĬ": 4074,
      "ĠØ³ÙĨØ§ÙĨ": 4075,
      "ĠØ§ÙĦÙĪØ§ÙĦ": 4076,
      "Ø±Ùħ": 4077,
      "ĠÙĦÙģÙĬ": 4078,
      "ĠØªÙĦÙĬÙģÙĪÙĨ": 4079,
      "ĠØŃØ§Ø·": 4080,
      "ØªÙĬÙħ": 4081,
      "Ø§ÙĤÙĬØ©": 4082,
      "ĠØ¥ÙĬÙĦØ§": 4083,
      "ĠØ®Ø§Ø±Ø¬Ø©": 4084,
      "ĠØªÙĩØ¯": 4085,
      "ĠØ¬ÙĪÙĦ": 4086,
      "Ø§Ø®Ø¯ÙĪ": 4087,
      "ĠØ§ÙĦØ¨Ø§Ø±": 4088,
      "ÙĪÙĬØ³": 4089,
      "ĠØªØŃÙĤÙĬÙĤ": 4090,
      "ĠÙĦØŃØ²Ø¨": 4091,
      "ĠØªÙĪØ¬Ùĩ": 4092,
      "Ø²Ø§Ø¨": 4093,
      "Ø±Ø¨ØŃ": 4094,
      "ĠØ§ÙĦØ´Ø¨Ø§Ø¨": 4095,
      "ĠÙĥØ§ÙĬØ´ÙĪÙģ": 4096,
      "ĠØªØµØ±Ùģ": 4097,
      "ÙĥØªÙĪØ¨Ø±": 4098,
      "ĠÙħØ®Ø±Ø¬": 4099,
      "ÙģÙĦØ§Ùħ": 4100,
      "ĠÙĥÙĬÙħØ§": 4101,
      "ÙĨÙĪØ¹Ø©": 4102,
      "ÙĦÙĤØ§": 4103,
      "ĠØ§ÙĦØ¥ÙĬ": 4104,
      "Ø¯ÙĦ": 4105,
      "Ø´Ø±ÙĬ": 4106,
      "ÙĪÙĪØ¯": 4107,
      "ÙĬÙĬØ¯": 4108,
      "ÙģÙĬØ§ÙĨ": 4109,
      "ĠÙĪÙħØª": 4110,
      "ÙĥØ§ÙĬÙĨ": 4111,
      "ĠØ§ÙĦÙħÙħÙĦÙĥØ©": 4112,
      "Ø§Ø¨ÙĩØ§": 4113,
      "ÙħØ¹Ø©": 4114,
      "ĠØ§ÙĦÙĤØµØ©": 4115,
      "ĠØ¹ÙħØ±ÙĬ": 4116,
      "ĠØŃÙĤÙĪÙĤ": 4117,
      "ĠØ¬Ø²Ø¡": 4118,
      "ĠÙģÙģ": 4119,
      "ĠØ§ÙĦÙħØ±ÙĥØ²": 4120,
      "ØºÙĦØ¨": 4121,
      "Ø§Ø¬Ùĩ": 4122,
      "ÙĦÙĪØ§": 4123,
      "ĠØªÙĤØ¯ÙĬÙħ": 4124,
      "ĠÙħØ±Ø§Ø¯": 4125,
      "Ø¨ÙĬØ¹ÙĬØ©": 4126,
      "Ø³Ø¹": 4127,
      "Ø§Ø±Ø³": 4128,
      "Ø§Ø³Ø±": 4129,
      "ĠØ±Ø¨ØŃ": 4130,
      "ÙĪÙĪØª": 4131,
      "ĠØ§ÙĦØ³Ùħ": 4132,
      "ĠØ§ÙĦÙĦÙĬÙĦØ©": 4133,
      "ĠØ°ÙĥØ±": 4134,
      "24": 4135,
      "ÙĩÙĪÙĦØ©": 4136,
      "ĠØ¬Ø§ÙĬØ©": 4137,
      "Ø§ÙĦÙĬØ¯Ø©": 4138,
      "ÙģØ±ØŃØ©": 4139,
      "ĠØªØŃØ±Ùĥ": 4140,
      "ØŃØ¯Ø¯": 4141,
      "ĠÙĦÙĤØ§ØªÙĪ": 4142,
      "ĠÙħØ§Ø¬": 4143,
      "ĠÙĥØªÙĤÙĪÙĦ": 4144,
      "ĠØ§ÙĦØ¹Ø¯Ø¯": 4145,
      "ÙĬÙĬÙĬÙĨ": 4146,
      "Ø³ØªØ®Ø¯Ùħ": 4147,
      "ĠâĢ¢": 4148,
      "Ø§Ø¶Ø±": 4149,
      "ĠØ¹Ø·ÙĬÙĨØ§Ùĥ": 4150,
      "Ø±ØªØ§ØŃ": 4151,
      "Ø¯Ø±Ø©": 4152,
      "ĠØ¨Ø§Ø³Ùħ": 4153,
      "ĠØ±Ø§Ø¶ÙĬ": 4154,
      "ĠØ®Ø§Ø·": 4155,
      "ÙĥØ¯Øª": 4156,
      "ÙĩØ¶Ø±ÙĪ": 4157,
      "ĠØ§ÙĦØ³ÙĬØ§Ø³ÙĬØ©": 4158,
      "ÙģÙĥØ±ÙĪ": 4159,
      "ĠÚ¯Ø§ÙĦØ³": 4160,
      "ĠØ¨ÙĩÙħ": 4161,
      "ĠÙģØ¯ÙĬÙĥ": 4162,
      "ĠØ±ÙĤÙĬØ©": 4163,
      "ÙĪÙģÙĬ": 4164,
      "ĠØªÙĪØ¨Ø©": 4165,
      "ĠØ§ÙĦØ§Ø²Ø¯ÙĬØ§Ø¯": 4166,
      "ĠØ´ÙĪ": 4167,
      "ĠØ³Ø¯": 4168,
      "ÙĩÙħØ´": 4169,
      "ĠØ¨Ø§ÙĦØ®": 4170,
      "ĠÙĪØ´Ø§Ùģ": 4171,
      "ĠØºØ±Ø§Ùħ": 4172,
      "oc": 4173,
      "ĠØ§ÙĦØ§ÙĦØ©": 4174,
      "ĠØ§ÙĦÙħÙĥ": 4175,
      "ĠØ³Ø¨Ø¨": 4176,
      "ĠØ³ÙĦØ³ÙĦØ©": 4177,
      "ĠØºÙĪØª": 4178,
      "ĠÙĪØ§ÙĦØ®": 4179,
      "ĠØ·ÙĪÙħÙĪØ¨ÙĬÙĦ": 4180,
      "ĠØ§ÙĦÙĥØ¨ÙĬØ±Ø©": 4181,
      "ĠÙĨÙĤØ·Ø©": 4182,
      "Ġ2014": 4183,
      "ÙĬØ¶Ø§": 4184,
      "ĠÙĩØ§ÙĨÙĬ": 4185,
      "ĠØ´ÙĬØ¡": 4186,
      "Ø§ÙĦØ£": 4187,
      "ĠÙĪØ¨ÙĬÙĨ": 4188,
      "ĠØ¯Ø±Ø§Ø±ÙĬ": 4189,
      "ĠØ¹ÙĬØ·": 4190,
      "ĠØ§ÙĦØ¹ÙĬÙĨ": 4191,
      "13": 4192,
      "Ø²Ø§ÙĦ": 4193,
      "ĠØ§ÙĦÙħØ²": 4194,
      "ØªÙĬÙĥ": 4195,
      "ĠØ²ÙĪØ§Ø¬": 4196,
      "ĠÙģØ¹ÙĦØ§": 4197,
      "ÙĪØ§Ø±Ø²": 4198,
      "ĠØ¹Ø±ÙģØª": 4199,
      "ØµØ§Ø¨Ø§Øª": 4200,
      "ĠØ§ÙĦØªÙĦÙģ": 4201,
      "ØªÙĩØ§Ø§": 4202,
      "ĠÙħØ´Ø§ÙĥÙĦ": 4203,
      "ĠÙĪÙĨØ·ÙĤ": 4204,
      "ĠØ§ÙĦØ±ÙĬÙĥØ³": 4205,
      "ĠØ³ÙĪÙĤ": 4206,
      "ĠÙĥÙĬÙĩØ¶Ø±": 4207,
      "ĠØ¨Ø§ÙĦØ¶Ø±ÙĪØ±Ø©": 4208,
      "ĠØ§ÙĦØ³Ùģ": 4209,
      "ĠØ¨ÙĨØ³": 4210,
      "ĠØ¨ÙĦØ§Øº": 4211,
      "ow": 4212,
      "Ø¹ÙĪØ¨Ø©": 4213,
      "Ø´Ø§Ùħ": 4214,
      "ĠÙĨØŃÙĪ": 4215,
      "ĠØ®Ø¨Ø±": 4216,
      "ĠØ¬Ø¯Ø§": 4217,
      "ĠÙħØ¹ÙĨÙī": 4218,
      "ĠÙĦÙĦØµ": 4219,
      "ÙĪØ§ÙħÙĦ": 4220,
      "ÙĩÙĤ": 4221,
      "ÙĩÙĬØ±": 4222,
      "ÙĪØ±Ø¯": 4223,
      "ĠØ§ÙĦÙĦØº": 4224,
      "ĠÙĨØªÙĪÙħØ§": 4225,
      "ĠØ¨Ø±Ø§Ø³ÙĪ": 4226,
      "Ø¹Ø°Ø±Ø§Ø¡": 4227,
      "Ø§ØªÙħ": 4228,
      "ĠØ§ÙĥÙĬØ¯": 4229,
      "ĠÙĪØ§ÙĦØ¨": 4230,
      "ÙĪØªÙĩØ§": 4231,
      "ĠØ§ÙĦØ¨ÙĪÙĦÙĬØ³Ø§Ø±ÙĬÙĪ": 4232,
      "ĠØ±Ø¤ÙĬØ§": 4233,
      "Ø§ÙģØ±ÙĬÙĨ": 4234,
      "ØªÙĬØ¨": 4235,
      "ĠØ£ÙħØ§": 4236,
      "ĠÙĪÙĦØ§ÙĥÙĨ": 4237,
      "ÙģØ±ÙĤ": 4238,
      "ĠØ¹ÙħØ±ÙĩØ§": 4239,
      "ĠÙħÙĬØª": 4240,
      "ĠØ§ÙĦÙħØŃÙĥÙħØ©": 4241,
      "ÙĪÙĬØ§Øª": 4242,
      "ĠØ§ÙĦÙģØ±ÙĨØ³ÙĬ": 4243,
      "ĠØ§ÙĦÙħÙĨØªØ®Ø¨": 4244,
      "ÙĪÙĩÙħ": 4245,
      "ÙĤØ¨Ø§ÙĦ": 4246,
      "Ø´Ùī": 4247,
      "ĠØ¹Ø§ÙĦÙħ": 4248,
      "ĠØªÙĩØ²": 4249,
      "ĠÙĩØ§Ø²Ø©": 4250,
      "ĠØ§ÙĥØª": 4251,
      "ĠØ·Ø¨": 4252,
      "ĠÙĥØ§ÙĨÙĪØ§": 4253,
      "ĠØ§ÙĦØ·Ø¨ÙĬØ¹ÙĬ": 4254,
      "ĠØ´Ø§ÙģØªÙĪ": 4255,
      "Ø±Ø¨Ø¹Ø§Ø¡": 4256,
      "ĠØªÙĪÙĦÙĬ": 4257,
      "ĠØ¨ÙĦØ§Ø¯": 4258,
      "ĠÙĦÙĤØ§ÙĪ": 4259,
      "ĠÙħØªØ±ØªØ¨": 4260,
      "ĠÙħÙĨØ·ÙĤØ©": 4261,
      "ĠØ±Ùħ": 4262,
      "ĠÙĤØµØ©": 4263,
      "17": 4264,
      "60": 4265,
      "Ø§ÙĦÙĦÙĬ": 4266,
      "ÙĨØ§Ø´": 4267,
      "ĠØ§ÙĦÙĥÙĬ": 4268,
      "Ø¬ÙĪÙħ": 4269,
      "ĠØªÙĬØª": 4270,
      "ĠÙĨØ§": 4271,
      "Ø¯ÙĬØ§Øª": 4272,
      "Ø§Ø¡Ø©": 4273,
      "ĠÙĪØ¨ÙĤØ§Øª": 4274,
      "ĠØ§ÙĬÙĦØ§": 4275,
      "ĠÙĪØ§Ø®Ø©": 4276,
      "th": 4277,
      "ĠØ§Ø·": 4278,
      "ĠØ§ÙĦÚ¯": 4279,
      "Ø§ÙĨØ¨": 4280,
      "Ø¨ÙĬØ·Ø§Ø±": 4281,
      "ÙħØµ": 4282,
      "ÙĦÙĬÙĦÙī": 4283,
      "Ø²Ø§Ùħ": 4284,
      "Ø·ÙĪØ·": 4285,
      "ĠÙĨØ²ÙĦØ§Øª": 4286,
      "Ø§ÙĦÙĦ": 4287,
      "ØªØ§Ø¬": 4288,
      "Ø®Ø±Ø¬ÙĪ": 4289,
      "ĠØ³ÙħÙĬØªÙĩØ§": 4290,
      "ĠÙģØ§ÙĦÙħØºØ±Ø¨": 4291,
      "!!!": 4292,
      "iv": 4293,
      "ĠØ¨Ø²ÙĪØ¬": 4294,
      "ĠØ³ÙħÙĬØ©": 4295,
      "ĠØ§ÙĦØ§Ø±": 4296,
      "ĠØ¨ÙĬØ¯": 4297,
      "ĠÙĦØ³Ø§ÙĨ": 4298,
      "Ø´ØŃ": 4299,
      "Ø±ÙĤØ§Ùħ": 4300,
      "Ø³ÙĪØ©": 4301,
      "ĠØ¹Ø§ÙĦÙĬ": 4302,
      "ĠØ¨Ø§ÙĦØ£": 4303,
      "ĠØ§ÙĦØ·Ø±ÙĤ": 4304,
      "ĠØ¨Ø§ÙĤØ§": 4305,
      "ĠÙĨÙĩØ¶Ø±": 4306,
      "ĠØ´Ø¯ÙĩØ§": 4307,
      "ØºØ§": 4308,
      "Ġ22": 4309,
      "Ø²ÙĬÙģ": 4310,
      "ĠØ¨Ø¹ØµØ¨ÙĬØ©": 4311,
      "Ø¨ØºÙĬØª": 4312,
      "ĠØ¨Ø§ÙĦØ¶Ø¨Ø·": 4313,
      "ĠÙĪÙģÙĤ": 4314,
      "Ø¢Ø®Ø±": 4315,
      "ĠØ§ÙĦÙģØ±ÙĨØ³ÙĬØ©": 4316,
      "ĠÙħØ«Ø§ÙĦ": 4317,
      "ĠØ§ÙĦØ§Ø¬ØªÙħØ§Ø¹ÙĬØ©": 4318,
      "ĠØ¯ÙĪÙĦØ©": 4319,
      "ĠØ£ÙĤÙĦ": 4320,
      "ĠØ§ÙĦØ¨ÙĪ": 4321,
      "ĠØ§ÙĦÙĤØµØ±": 4322,
      "Ø³ÙħÙī": 4323,
      "ĠØŁ!": 4324,
      "ĠØ¨Ø®Ø·ÙĪØ©": 4325,
      "ĠÙĤÙĬÙħØ©": 4326,
      "ĠØ§ÙĦØ¹ÙĬÙĪÙĨ": 4327,
      "Ø¦ÙĬØ³ÙĬ": 4328,
      "Ø§ÙħÙĪØ³ÙĬØ©": 4329,
      "ĠÙģØ¨Ø±Ø§ÙĬØ±": 4330,
      "ÙģØ±ÙĬ": 4331,
      "Ø§ØŃØ¨": 4332,
      "ĠØ§ÙĦØ®Ø¯ÙħØ§Øª": 4333,
      "......": 4334,
      "ĠØ§ØŃØ³ÙĨ": 4335,
      "ĠØ«ÙĦØ§Ø«Ø©": 4336,
      "18": 4337,
      "ĠØ¹Ø¬": 4338,
      "ĠØ§ÙĦØªØ·Ø¨ÙĬÙĤ": 4339,
      "ÙĥÙĬØ§": 4340,
      "ĠØ´ÙģØ´Ø§ÙĪÙĨ": 4341,
      "ĠÙĦÙĦÙħÙĪ": 4342,
      "ÙĤÙĦØª": 4343,
      "ĠØªÙĬÙĦÙĬ": 4344,
      "ĠØªØ³Ø¬ÙĬÙĦ": 4345,
      "ÙĨØªØ±ÙĨØª": 4346,
      "ĠÙħØ±Ø¶": 4347,
      "ĠØ¨Ø§ÙĦØµ": 4348,
      "ĠØ§ÙĦÙĩÙĪ": 4349,
      "ĠÙħÙĦÙĥ": 4350,
      "Ø®ÙĬØ±Ø©": 4351,
      "ĠÙĨØ¨Ø§Øª": 4352,
      "ĠØ§ÙĦØŃØ±ÙĥØ©": 4353,
      "ĠÙĦØ¨Ø§Ø³": 4354,
      "Ø¨ØªØ³": 4355,
      "ĠØ§ÙĦØ¬ÙħÙĩÙĪØ±": 4356,
      "ĠÙĪØ±ÙĬ": 4357,
      "Ø³ÙĬØ±": 4358,
      "ĠØ§ÙĦÙĪØµÙĪÙĦ": 4359,
      "ĠØ§ÙĦØŃÙĬØ·": 4360,
      "ĠØ¹ÙģØ§Ùĥ": 4361,
      "ĠÝ£": 4362,
      "ØªÙħØ±": 4363,
      "ĠÙĥØ°ÙĦÙĥ": 4364,
      "ĠØµÙĪÙģÙĬØ§": 4365,
      "ĠØ§ÙĦÙģÙĪ": 4366,
      "Ø¹ÙĬØ¨Ø©": 4367,
      "ÙģØ±Ø§ÙĨ": 4368,
      "ĠÙģØ±Ø§Ø³ÙĩØ§": 4369,
      "ĠÙħØ³ØªØŃÙĬÙĦ": 4370,
      "ĠØ§ÙĦØ¨Ø±ÙĨØ§ÙħØ¬": 4371,
      "Ø§Ø¨ÙĬØ±": 4372,
      "Ø§ÙĩØ¯": 4373,
      "ĠÙĦÙħØ³": 4374,
      "ĠÙĥØ§Ùħ": 4375,
      "ĠØ´Ø±ÙĬ": 4376,
      "ĠÙĤØ¶": 4377,
      "ÙĦÙĤØ§Øª": 4378,
      "ĠÙħØŃÙĦ": 4379,
      "ĠÙĦØ¹Ø§Ùħ": 4380,
      "ÙĤÙĬÙĤÙĬØ©": 4381,
      "ĠÙĤØµÙĬØ±Ø©": 4382,
      "ÙĨØ§Ø§": 4383,
      "ØªØ§ÙĨ": 4384,
      "ĠÙĬÙĦØ§": 4385,
      "ĠÙĤØ§Øµ": 4386,
      "ĠÙĥÙĬØŃØ§ÙĪÙĦ": 4387,
      "Ø§Ø¬Ùħ": 4388,
      "ĠÙĦØ¯Ø±Ø¬Ø©": 4389,
      "ĠØ§ÙĦÙĨØ¹Ø§Ø³": 4390,
      "ÙĲ": 4391,
      "ĠØ§ÙĦØ§ÙĬ": 4392,
      "Ø¹Ø¬Ø¨": 4393,
      "ĠØ³ÙģØ±": 4394,
      "ĠØ¶ÙħÙĨ": 4395,
      "ĠØ§Ø¨Ø±Ø§ÙĩÙĬÙħ": 4396,
      "ĠØ¹Ø§ÙĬØ´": 4397,
      "ĠØ§ÙĦØ®Ø§ÙħØ³": 4398,
      "Ø§Ø§Ø§Ùħ": 4399,
      "ĠØ·Ø§ÙĦØ¹": 4400,
      "ĠØ´ÙĬÙħØ§Ø¡": 4401,
      "ĠØ§ÙĦÙĪØ§ØŃØ¯": 4402,
      "ĠÙħØ´Ùī": 4403,
      "ÙĨØ¯ÙĬØ©": 4404,
      "ØµØ±ÙĬØ©": 4405,
      "ĠÙĪØ±Ø¬Ø¹Ø§Øª": 4406,
      "st": 4407,
      "ÙĨØ§ÙĬ": 4408,
      "ĠÙĦØŃØ¯": 4409,
      "ĠÙĥÙĬÙĤØ¯Ùħ": 4410,
      "ĠÙĨÙĤØµ": 4411,
      "ĠØ¨ÙĪØŃØ¯ÙĪ": 4412,
      "Ø§ÙĦØŃÙĦ": 4413,
      "ØªØ¨Ø¹": 4414,
      "Ø§Ø±ÙĨØ©": 4415,
      "ĠØºØ±ÙģØ©": 4416,
      "ĠØ§ÙĦØ¬ÙĨÙĪ": 4417,
      "Ø®ØµØµØ©": 4418,
      "ĠØ³ÙĬØ§Ø±Ø©": 4419,
      "ĠØªÙģØ§ØµÙĬÙĦ": 4420,
      "Ø²ÙĬØ±": 4421,
      "ĠÙĦÙĦØ·": 4422,
      "Ø±ÙģØ¹": 4423,
      "ÙģÙĬØ§Øª": 4424,
      "Ġof": 4425,
      "Ø¹ÙĨ": 4426,
      "ĠØ®ØµØ±": 4427,
      "ĠÙĥØªØ³ÙħØ¹": 4428,
      "ĠØ§ÙĦØµØºÙĬØ±Ø©": 4429,
      "Ø¤Ø§Ø¯": 4430,
      "ess": 4431,
      "ĠÙĪÙĬØ±": 4432,
      "Ø´ØŃØ§ÙĦ": 4433,
      "ĠØ®ÙĪ": 4434,
      "Ø§ÙĬØµ": 4435,
      "ĠØ§ÙĦØ¹ÙĦÙħ": 4436,
      "ÙĦÙĪÙī": 4437,
      "ÙģØ³ÙĬØ±": 4438,
      "Ø®ÙĬØµ": 4439,
      "ĠØ§ÙĦØ±Ø¦ÙĬØ³ÙĬØ©": 4440,
      "ĠØºØ§Ø¯Ø©": 4441,
      "ĠÙĨÙĤÙĪÙĦÙĪ": 4442,
      "Ġ2020": 4443,
      "ÙĪÙĤØªØ§Ø´": 4444,
      "em": 4445,
      "ĠØ§ÙĦØ¶Ø±": 4446,
      "ÙĤØ§ØªÙĪ": 4447,
      "ĠU": 4448,
      "ĠÙĪØ§ÙĤÙģÙĬÙĨ": 4449,
      "ĠÙĦÙĦÙħØºØ±Ø¨": 4450,
      "ĠÙĥØ±Ø´ÙĩØ§": 4451,
      "Ø¨ØŃØ«": 4452,
      "ĠØ§ÙĦØ³Øª": 4453,
      "ĠØ¨Ø§Ø§": 4454,
      "ĠØ¨ÙħÙĨ": 4455,
      "ĠØ¹Ø²ÙĬØ²": 4456,
      "Ø§Ø¦Øµ": 4457,
      "ĠØ¶Ø§Ø±": 4458,
      "ĠØ§ÙĦÙģØªØ±Ø©": 4459,
      "ĠÙĬÙĪÙĪØ³Ùģ": 4460,
      "16": 4461,
      "ĠØ§ÙĦÙĪØ¯Ø§Ø¯": 4462,
      "ĠØ§ÙĦØŃØ§ÙĦØ§Øª": 4463,
      "ĠØ¨ÙĬØ¯ÙĬÙĩ": 4464,
      "ĠØ«ÙĤ": 4465,
      "ØµØ§ÙĦÙĪÙĨ": 4466,
      "ĠÙĨÙĪØ±Ø³ÙĬÙĨ": 4467,
      "ĠØ§ÙĦØ§Ø¯": 4468,
      "ĠØ§ÙĦØ§ØŃØª": 4469,
      "ÙĩØ§Ø¨": 4470,
      "ÙĬÙĬÙĬØ±": 4471,
      "ÙĬÙĨÙĬØ´": 4472,
      "ĠÙĨØ²Ø§Ø±": 4473,
      "ĠÙģØ¯Ø§Ùĥ": 4474,
      "Ø¹Ø¨Ø¯": 4475,
      "Ø®Ø°": 4476,
      "ĠÙĬØº": 4477,
      "ØºØ§Ø¯ÙĬ": 4478,
      "ĠÙĥÙĬØ·": 4479,
      "Ø«ÙħØ§Ø±": 4480,
      "Ø¸ÙĨ": 4481,
      "ĠÙĥØ§ÙĬØª": 4482,
      "ĠØ±ÙĬÙĤÙĩØ§": 4483,
      "ĠÙĩØ¨Ø·Ø§Øª": 4484,
      "ĠØ§ÙĦÙĥØ±Ø³ÙĬ": 4485,
      "ĠØ§Ø¶": 4486,
      "Ø§Ø§ÙĨ": 4487,
      "ÙĪÙĦÙĥ": 4488,
      "ĠÙħØ¹Ø±ÙĪÙģØ©": 4489,
      "ĠØ¨ÙĨØ§Øª": 4490,
      "Ø¹ÙĦÙĤØ©": 4491,
      "ab": 4492,
      "ĠÙĤÙħØ±": 4493,
      "ĠØ¬ÙĦØ§ÙĦ": 4494,
      "ĠØ§ÙĦØ¨Ø´Ø±": 4495,
      "ĠØ¥ÙĤÙĦÙĬÙħ": 4496,
      "ĠÙĨØªÙĬØ¬Ø©": 4497,
      "ĠØ¨Ø¹Ø¶ÙĬØ§ØªÙĩÙħ": 4498,
      "ĠØ§ÙħØª": 4499,
      "ĠØ¬ÙĬØªÙĬ": 4500,
      "ĠÙĥØªØµ": 4501,
      "ĠØ§ÙĦÙĦÙĪÙĦ": 4502,
      "ĠÙĦÙħØ¯": 4503,
      "ĠØªØŃØ·": 4504,
      "ĠØ®ÙģÙĬÙģ": 4505,
      "ÙĤÙĪÙĤ": 4506,
      "Ø³ÙĥØª": 4507,
      "ĠØ¨ÙħØ±": 4508,
      "ĠÙģÙĦÙĪ": 4509,
      "Ø§ÙĬØ¨": 4510,
      "ĠÙĥØªÙĥÙĪÙĨ": 4511,
      "Ø±ÙĪØ·": 4512,
      "ĠÙģØ§ÙĦØ§Ø±Ø¶": 4513,
      "ÙĪØ¬Ø©": 4514,
      "ĠØ§ÙĦÙĦØ¹Ø¨Ø©": 4515,
      "ÙĤØ§ØªÙĩØ§": 4516,
      "ĠØ¨ØºØ§ÙĪ": 4517,
      "ĠÙĪÙĥÙĬØª": 4518,
      "ï»»": 4519,
      "ĠØ¥ÙĬØ¬Ø§Ø¨ÙĬØ©": 4520,
      "ÙĦÙĬÙĬÙĨ": 4521,
      "ĠÙĩÙħ": 4522,
      "Ø§Ø¨Ùĩ": 4523,
      "ĠØ±Ø§Ø¦": 4524,
      "ĠØ³Ø¹ÙĬØ¯": 4525,
      "ĠØ¬Ø§Ø¡": 4526,
      "ĠÙĪØ§ÙĦØ«": 4527,
      "ĠØ§ÙĦØ·Ø¨ÙĬ": 4528,
      "Ø®ÙĪ": 4529,
      "ĠØ®Ø§ØµÙĩÙħ": 4530,
      "ĠÙħÙĪØ§ÙĤØ¹": 4531,
      "ĠÙĦØ¨Ø§Ø±ØŃ": 4532,
      "ĠØ³Ùģ": 4533,
      "ĠÙħØ¹ØµØ¨": 4534,
      "ĠÙĪÙĦØ¯ÙĩØ§": 4535,
      "ĠØ¶ÙĬ": 4536,
      "ÙĦÙĤÙĬ": 4537,
      "ĠÙĪØ§ØŃØ¯Ø©": 4538,
      "ĠØ§ÙĦÙħÙĪØ³Ùħ": 4539,
      "ĠÙħØ®ÙĦ": 4540,
      "ĠØ§ÙĦØŃÙĥÙħ": 4541,
      "ĠØ§ÙĦØ³Ø¨Ø¨": 4542,
      "Ø¹ÙĦÙĨ": 4543,
      "ĠØ§ÙĦÙħÙĪØ³ÙĬÙĤÙī": 4544,
      "Ø§ÙħÙĨØ©": 4545,
      "ĠØºØ§Ø¯ÙĬØ©": 4546,
      "Ø§ÙĬÙĬÙĨ": 4547,
      "Ø«Ø§Ø±": 4548,
      "ĠÙĥØªÙģ": 4549,
      "ĠØ¹ÙĨÙĬÙĩØ§": 4550,
      "ĠÙģØ§ÙĦØ¨ÙĦ": 4551,
      "ØªÙĪØ§ØµÙĦ": 4552,
      "ĠØ§ÙĦÙģØ±ÙĤ": 4553,
      "Ġ23": 4554,
      "ap": 4555,
      "ÙĦÙĬØ´": 4556,
      "ĠØŃØ±ÙĥØ§Øª": 4557,
      "ĠØ®ÙĦÙĬÙĨØ§": 4558,
      "ĠÙĩØ¯Ø§Ùĥ": 4559,
      "ĠØ§ÙĦÙħÙĪØ§Ø·ÙĨÙĬÙĨ": 4560,
      "ĠØ·Ø¨Ø¹Ø§": 4561,
      "ĠK": 4562,
      "Ø§ÙĦÙĪÙĨ": 4563,
      "ĠÙħÙĥØ§ÙĨØ´": 4564,
      "ĠØ¹Ø§Ø¦ÙĦØ©": 4565,
      "ĠØ³ÙĪØ§Ø¡": 4566,
      "ÙĦØ§Ùģ": 4567,
      "ĠØ¨Ø®ØµÙĪØµ": 4568,
      "ĠÙĥÙĪÙħ": 4569,
      "ĠØ¹Ø§Ø´": 4570,
      "ĠØªØ¨Ø¯ÙĦ": 4571,
      "Ø¹ÙĬÙĬÙĨ": 4572,
      "Ø®Ø±Ø¬Ø§Øª": 4573,
      "ĠØ´ÙģØªÙĬ": 4574,
      "ĠØ§ÙħÙĬÙĨ": 4575,
      "um": 4576,
      "ÙĤÙĪØ¨": 4577,
      "Ø³Ùī": 4578,
      "ĠØŃØµÙĦ": 4579,
      "ĠØ³ÙĦØ¨ÙĬØ©": 4580,
      "ĠÙĨÙĪØ¶ÙĬ": 4581,
      "ĠØ³Ø§ÙĨ": 4582,
      "ĠØ§ÙĦØ³ÙĪ": 4583,
      "ĠØ§ÙĦØ®Ø·ÙĪØ§Øª": 4584,
      "ĠØ¨Ø§ÙĦØ¬ÙĩØ¯": 4585,
      "av": 4586,
      "ÙħÙĦÙĬ": 4587,
      "Ø²Ø§Ùģ": 4588,
      "ĠÙĪØ§ÙĦØ¬": 4589,
      "ĠØ«Ø§ÙĨÙĬ": 4590,
      "Ø´ÙĦ": 4591,
      "ÙĬÙĨØº": 4592,
      "ĠÙĦÙĬÙĦ": 4593,
      "ĠØ§ÙĦØ³Ø¨": 4594,
      "ÙĬÙĨÙĬÙĥ": 4595,
      "ĠÙĪÙĩÙĪÙħØ§": 4596,
      "ĠØ§ÙĦÙĦØ¬ÙĨØ©": 4597,
      "ĠØ¨ÙĬØ¯ÙĬÙĩØ§": 4598,
      "ÙĨØ´Ø§Ø¡": 4599,
      "ĠÙĬØ¨ÙĤÙī": 4600,
      "ĠØªØ¨ÙĥÙĬ": 4601,
      "ĠØ§ÙĦØŃÙĬÙĪØ§ÙĨØ§Øª": 4602,
      "ĠØ®Ø¯Ø§ÙħØ©": 4603,
      "14": 4604,
      "Ø·Ø·": 4605,
      "ĠØ³Ø§ÙĦ": 4606,
      "ue": 4607,
      "ÙĨÙĪÙĨ": 4608,
      "ĠØ¹Ø§ÙĦÙĬØ©": 4609,
      "ĠØŃÙĨÙĬÙĨ": 4610,
      "ĠÙĤÙĪÙĬ": 4611,
      "ĠØ§ÙĦØ¹Ø¯ÙĬØ¯": 4612,
      "ĠØ§ÙĦÙĪØŃÙĬØ¯": 4613,
      "ĠØ¨ÙĦÙĦÙĬ": 4614,
      "Ġ2021": 4615,
      "Ø¨ÙĪÙĨ": 4616,
      "Ø¨Ø§Ø¡": 4617,
      "ĠÙģÙĪØ¬Ùĩ": 4618,
      "ĠÙģØ§ÙĦØ¯": 4619,
      "ĠÙģØ±Ø§ÙĨ": 4620,
      "Ø¹ÙĦØ§Ùħ": 4621,
      "ĠØŁØŁØŁ": 4622,
      "ĠÙĪØ¯ÙĬ": 4623,
      "ĠÙĥØ¶ØŃÙĥ": 4624,
      "ĠØ±Ùģ": 4625,
      "ĠØ³Ø±ÙĪØ§ÙĦ": 4626,
      "ĠØ¹ÙĨÙĪØ§ÙĨ": 4627,
      "ØŃØªÙĩØ§": 4628,
      "ĠØ§ÙĦØ³ÙĬØ§Ø±Ø©": 4629,
      "ĠÙĪØµÙĦØª": 4630,
      "od": 4631,
      "Ø§Ø§Ø´": 4632,
      "ÙĥØ§Ø¯ÙĬØ±": 4633,
      "Ø§Ø±ÙĬØ³": 4634,
      "ĠÙģØ±ÙĤ": 4635,
      "ØŃØ³Ø§Ø³": 4636,
      "ter": 4637,
      "ĠÙħÙĬÙĨ": 4638,
      "Ø§ÙħØŃ": 4639,
      "ÙĬØªÙĩ": 4640,
      "ĠÙħØ§ÙģÙĬ": 4641,
      "Ø±ÙĥØ§ÙĨ": 4642,
      "ĠØ§ÙĦØ¨ÙĬØ¶": 4643,
      "Ġ2019": 4644,
      "ĠØ§ÙĦØ¹ÙħÙĪÙħÙĬØ©": 4645,
      "ĠØ§Ø¯Ùħ": 4646,
      "ĠØ§ÙĦÙĤÙĩÙĪØ©": 4647,
      "ĠØªØ¯Ø¨ÙĬØ±": 4648,
      "200": 4649,
      "ÙĥÙĪÙĦ": 4650,
      "Ø¹ÙĨØ¯": 4651,
      "ÙģÙĬØ¯": 4652,
      "ĠØ¯Ø§Ø¨": 4653,
      "ÙħÙĪØ¯": 4654,
      "Ø§Ø·Ø¹Ø©": 4655,
      "ĠØ§ÙĦØ£Ø³Ø§Ø³ÙĬØ©": 4656,
      "ĠØ§ÙĦÙĪØ²ÙĬØ±": 4657,
      "ÙħÙĪØ¹Ø§Øª": 4658,
      "ĠÙĦØ¹Ø¨Ø©": 4659,
      "ØªØµØ©": 4660,
      "ĠÙĪØ®Ø§Øµ": 4661,
      "ĠÙģØ±ØŃØ§ÙĨØ©": 4662,
      "ĠØªÙĨÙĩØ¯Ø§Øª": 4663,
      "ach": 4664,
      "ĠÙĪÙĪÙĤÙģ": 4665,
      "ÙĥÙĦØ©": 4666,
      "Ø±ÙĬØ¶": 4667,
      "ĠØµØºØ§Ø±": 4668,
      "ÙĥÙĦÙģØ©": 4669,
      "ÙĤØ§ØªØ´": 4670,
      "ĠÙĪØ¨ÙĤ": 4671,
      "Ø®Ø¯ÙħØ§Øª": 4672,
      "ĠÙģØªØ±Ø©": 4673,
      "ĠØ§ÙĦØ§Ø¹ØªØ¨Ø§Ø±": 4674,
      "ĠØŃØ¨Ø³": 4675,
      "Ø¶ÙĨ": 4676,
      "Ø§ÙĪØ¨ÙĪ": 4677,
      "ØªØ±ØŃ": 4678,
      "ĠØ§ÙĦÙĦØŃØ¸Ø©": 4679,
      "ht": 4680,
      "||": 4681,
      "Ġk": 4682,
      "ĠÙħØºØ±Ø¨ÙĬØ©": 4683,
      "Ø®Ø§Ùģ": 4684,
      "ĠØ§ÙĦÙħØ°Ùĥ": 4685,
      "ĠØ§ÙĪØ§": 4686,
      "ĠØ¬ÙĬÙĨØ§": 4687,
      "ĠÙĥÙĬØ¨ØºÙĬ": 4688,
      "ĠØ£Ø¯": 4689,
      "ĠØ§ÙĦØ£ÙħØ±": 4690,
      "ĠÙĪØªØ´": 4691,
      "ĠÙħØ¬Ø¯": 4692,
      "ĠØ§ÙĦÙħÙĨØ§Ø·ÙĤ": 4693,
      "ĠØ®Ø§ÙĬÙģØ©": 4694,
      "ÙĤØ¯Ø©": 4695,
      "ĠÙĪÙĤÙĦØ¨": 4696,
      "Ø§Ø§Ø§Ø§Øª": 4697,
      "ØªØ±Ø§Ùħ": 4698,
      "ĠÙħØµØ·ÙģÙī": 4699,
      "ĠÙĦØ¬ÙĨØ©": 4700,
      "ĠØªØ§ÙĦØ§Ø³ÙĬÙĨ": 4701,
      "Ø¹ÙĩØ§": 4702,
      "ĠÙĥØªØ¹Ø±Ùģ": 4703,
      "ĠØ§ÙĦÙĥÙĪØ¯": 4704,
      "ÙĤÙĬÙħ": 4705,
      "ĠÙĦÙħØŃ": 4706,
      "ĠØ§ØŃØª": 4707,
      "++++++++": 4708,
      "ĠÙģØ¥": 4709,
      "Ø¬ÙħÙĪØ¹Ø©": 4710,
      "Ġ:âĢĿ": 4711,
      "ĠÙĦÙĬÙĩØ§Ø§": 4712,
      "ĠØªØªØµÙĦ": 4713,
      "ĠÙĥÙĬØªØ³ÙĨØ§": 4714,
      "ĠØªÙĥÙħÙĦ": 4715,
      "Ø§ÙĦØµ": 4716,
      "ÙģØ§Ø±": 4717,
      "ĠØ¯Ø¹Ùħ": 4718,
      "Ø§ØŃØ¨ÙĬ": 4719,
      "ĠÙĥØªØ¨Ø§ÙĨ": 4720,
      "ĠÙĥØªØŃØ§ÙĪÙĦ": 4721,
      "Ø¸ÙĬÙģ": 4722,
      "ĠØ§ÙĦÙĨÙģ": 4723,
      "ĠØ§ÙĦØ´Ø¹Ø¨": 4724,
      "ĠÙĬØªØŃ": 4725,
      "ĠÙħÙĥÙĨØ§Ø³": 4726,
      "Ġv": 4727,
      "ĠÙĬØ§Ø®Ø¯": 4728,
      "ĠÙĬÙĪÙĨÙĬÙĪ": 4729,
      "Ø±ÙĬØ§": 4730,
      "Ø¯Ø±ÙĩÙħ": 4731,
      "Ø§Ø²Ø§Øª": 4732,
      "Ġ60": 4733,
      "Ø¹Ø´ÙĤ": 4734,
      "ĠØ§ÙĦØ§Ø«ÙĨÙĬÙĨ": 4735,
      "ØªÙĨØ§": 4736,
      "ĠÙĦÙĬÙĨ": 4737,
      "ØµÙĬØ±": 4738,
      "ÙĦÙĬØ¯": 4739,
      "ĠÙĬØŃØ³": 4740,
      "Ø¯ÙĪØ§": 4741,
      "Ø§Ø®ØªÙĬ": 4742,
      "ĠØ¹Ø·ÙĬÙĨÙĬ": 4743,
      "ĠØ§ÙĦØ³ÙĨØ©": 4744,
      "ĠÙĨØªØ§Ø¹": 4745,
      "ĠØ³ÙħØ§ØŃ": 4746,
      "ÙĥÙĪÙĪÙĨ": 4747,
      "Ø§ÙĦØ¹ÙĨÙĪØ§ÙĨ": 4748,
      "ĠÙĦØ§Ø®Ø±": 4749,
      "ĠØ§ÙĦØ¯Ø±Ø¬Ø©": 4750,
      "ĠØ¨ÙĬØ§ÙĨØ§Øª": 4751,
      "ĠÙĪØ¹Ø¯": 4752,
      "ĠÙĬÙĥÙħÙĦ": 4753,
      "ĠØ±Ø§ÙĩÙħ": 4754,
      "ĠÙĦÙĦÙĨ": 4755,
      "ĠØ´Ø¹Ø±ÙĪ": 4756,
      "Ùı": 4757,
      "Ø¯Ø®": 4758,
      "ĠØ´ØŃ": 4759,
      "ĠÙĦÙĩÙĨØ§": 4760,
      "ĠØ¨ÙĪØŃØ¯ÙĬ": 4761,
      "ĠÙħØ·ÙĦØ¹": 4762,
      "Ø±ÙĪØ³": 4763,
      "ÙĨÙĬÙĩ": 4764,
      "ĠØ²Ø±": 4765,
      "ĠØ§ÙĦØµØ¯": 4766,
      "ĠØ§ÙĦÙĥÙĦÙĬØ§ÙĨ": 4767,
      "ĠØªØŃÙĦÙĬÙĦ": 4768,
      "ÙĥÙĦÙħ": 4769,
      "Ø³Ø§Ø¨": 4770,
      "ĠØªÙĨØ³": 4771,
      "ĠØ¨Ø§ÙĦÙĤ": 4772,
      "ÙĥÙĪÙĨØ§Øª": 4773,
      "Ġ27": 4774,
      "ĠØ¨ÙĦØ§ØµØªÙĩØ§": 4775,
      "ĠÙĪÙĬØ¯": 4776,
      "ØµØ§ÙģÙĬ": 4777,
      "ĠØ´ÙħØ§ÙĦ": 4778,
      "ĠÙĤØ§ÙĬ": 4779,
      "ĠØ§ÙĦØ§ÙĪÙĦ": 4780,
      "ĠØ¨ÙĬØ¶": 4781,
      "Ø¬ÙĬØ§Øª": 4782,
      "ÙĦØ³ÙĦ": 4783,
      "ub": 4784,
      "ÙĬÙĤØ©": 4785,
      "ÙħØ¨Ø±": 4786,
      "Ø§ÙģØ§": 4787,
      "Ø£ÙħØ¬": 4788,
      "Ø«ÙĦ": 4789,
      "ĠØ§ÙĦØªØŃØª": 4790,
      "ĠØ§ÙĦØ¬Ø§Ø±ÙĬ": 4791,
      "ĠØ§ÙĦØµØºÙĬØ±": 4792,
      "ĠØ¨ÙĦØ§ÙħØ§": 4793,
      "ÙĩØ±ÙĩØ§": 4794,
      "ĠÙĦÙĥØ±Ø©": 4795,
      "ĠÙĥØ±Ùħ": 4796,
      "ĠØªÙĩØ¶Ø±": 4797,
      "ĠØ³ÙĬÙĨ": 4798,
      "ĠØ±Ø¬ÙĦÙĬÙĩ": 4799,
      "ĠØ§ÙĦØ¨ÙĦØ§ØµØ©": 4800,
      "ĠÙħØ§ÙĤØ¯Ø±": 4801,
      "ĠØ§ÙĦÙħÙĬÙĦ": 4802,
      "Ø§ÙĥÙĦÙĪ": 4803,
      "ĠØ§Ø±ÙĬ": 4804,
      "Ø¨ÙĥØ©": 4805,
      "Ø¹Ø§Ø¡": 4806,
      "ĠØ¹ÙĬØ¯": 4807,
      "ĠØ³Ø§ÙĦØ§": 4808,
      "ĠØ®Ø§ÙĦØªÙĬ": 4809,
      "ĠØ§ÙĦÙģÙĦ": 4810,
      "ĠØªÙģÙĩÙħ": 4811,
      "ĠÙĥÙĬØ´ÙĪÙģÙĪ": 4812,
      "tp": 4813,
      "ĠÙĤÙĪÙĦ": 4814,
      "ĠØ¬Ø³": 4815,
      "ĠÙĪØ§ÙĦØªØŃ": 4816,
      "ĠØ§ÙĨÙģ": 4817,
      "ĠÙģÙĬÙĩØ§Ø§": 4818,
      "ĠØ£ÙĨÙĥ": 4819,
      "Ġ196": 4820,
      "ÙĨØ¯ÙĬØ´": 4821,
      "ĠÙĪØ§Ø¶ØŃ": 4822,
      "23": 4823,
      "ÙĩØ§Ø¯ÙĬ": 4824,
      "ĠÙĦÙħÙĬ": 4825,
      "ĠØªØ¨Ø¯": 4826,
      "Ø·Ùī": 4827,
      "ĠØŃÙĦÙĪ": 4828,
      "ĠØ´ÙĪÙĬØ§": 4829,
      "ĠØ¬ÙĪÙĨ": 4830,
      "ĠØ¬Ø¨Ø¯Ø§Øª": 4831,
      "Ø§ÙĥØª": 4832,
      "ÙĬØªÙħ": 4833,
      "ĠØ§ÙĦØ¬ÙĨØ³ÙĬØ©": 4834,
      "ØŃÙĬØ¯Ø©": 4835,
      "ĠÙĥÙĬÙģÙħØ§": 4836,
      "ĠÙĪØ§Ø¬": 4837,
      "ĠÙĥÙħØ§ÙĦ": 4838,
      "ĠØ§ÙħÙħÙħ": 4839,
      "ÙħØ¹ÙĪ": 4840,
      "ØªØ¨Ø·Ø©": 4841,
      "ĠØ¨ØŃØ«": 4842,
      "ÙĨØ´Ø·Ø©": 4843,
      "ĠðŁĺ": 4844,
      "ĠØ§ÙĦØ¯ÙĬÙħ": 4845,
      "Ø¨Ø¶": 4846,
      "ĠÙĦØ§ÙĦØ©": 4847,
      "Ø²Ø§Ø±": 4848,
      "ĠØ§ÙĦØŃØ§ÙĦÙĬ": 4849,
      "ĠÙħØµØ±": 4850,
      "ĠÙĨØ§Ø¹Ø³": 4851,
      "ÙĨØ¹Ùħ": 4852,
      "ÙĩØ¯Ø±": 4853,
      "ØµØ§Ø¨": 4854,
      "ĠØŃÙħÙĦ": 4855,
      "Ø±Ø¨Ø·": 4856,
      "ÙĬØªØ±": 4857,
      "ÙħØ§ÙĤ": 4858,
      "ĠÙĪÙĩØ¨Ø·": 4859,
      "ĠØ§ÙĦÙħØ³Ø¤": 4860,
      "ĠÙħÙĪØ±Ø§Ùĩ": 4861,
      "80": 4862,
      "Ø¨Ø·ÙĪ": 4863,
      "ĠÙħØ¨Ø±": 4864,
      "ĠÙĦÙĦØ¨": 4865,
      "ÙĦÙĪØ§ÙĨ": 4866,
      "ĠÙĪØ¹ÙĨØ¯": 4867,
      "ĠØ§ÙĦØ±ÙĬØ§Ø¶ÙĬ": 4868,
      "ĠØ§ÙĦÙģØ±ÙĤØ©": 4869,
      "ĠØºÙĦØ·": 4870,
      "Ø§ÙĦØ¬Ø©": 4871,
      "ĠÙĦÙĬØ§ÙĦÙĬ": 4872,
      "ĠØ§ÙĦØ´ÙĩØ±": 4873,
      "ĠØªØ¹Ø§ÙĪÙĨ": 4874,
      "ĠÙĪØ´ÙĨÙĪ": 4875,
      "ĠÙħÙĦÙĬØ§Ø±": 4876,
      "ĠØ¨ÙĪØ§ØŃØ¯": 4877,
      "Ø§Ø§Ø¨": 4878,
      "ÙĪÙĬØ±Ø©": 4879,
      "ĠÙĪØ´ÙĬ": 4880,
      "ĠÙħØ¶ÙĬ": 4881,
      "ĠØŃØ§Ø³Ø©": 4882,
      "ĠÙģÙĬÙĬÙĩ": 4883,
      "ĠØ§ÙĦÙĨÙĩØ§": 4884,
      "ĠØ§ÙĦØ´Ø±ÙĤ": 4885,
      "ĠØ§ÙĦÙĥÙĦØ§Ùħ": 4886,
      "if": 4887,
      "Ġâ": 4888,
      "Ø§ÙĦØº": 4889,
      "ĠÙĪØ¹ÙĦØ§Ø´": 4890,
      "Ø§Ø¯ÙĤ": 4891,
      "ĠØ®Ø§ÙģØª": 4892,
      "ĠÙģØ§ÙĦØ®": 4893,
      "Ø³ØªØ§ÙĨ": 4894,
      "Ø¬Ø±Ø¯": 4895,
      "ĠØªØ¨Ø¯Ø§": 4896,
      "ĠØ¨Ø§ÙĦØ¥Ø¶Ø§ÙģØ©": 4897,
      "ĠØŃØ§Ø³": 4898,
      "ĠØ®Ø´": 4899,
      "ĠØ§ÙĦØ¬ÙħÙĦ": 4900,
      "ĠØ§ÙĦØ£ÙĤÙĦ": 4901,
      "ĠØªÙĤÙĪÙĦÙĬ": 4902,
      "Ø¬ÙĬÙĩ": 4903,
      "ĠØªØŃØ¯ÙĬØ¯": 4904,
      "Ø´Ø±ÙĬÙĨ": 4905,
      "ÙĪØ§ÙĨÙĬÙĨ": 4906,
      "ĠØ§ÙĦØ¯ÙĪÙĦÙĬØ©": 4907,
      "Ø§Ø²ÙĬØº": 4908,
      "ĠØ¨Ø¨": 4909,
      "ĠØµÙģØ±": 4910,
      "ĠÙģØ§ÙĦÙĦ": 4911,
      "ĠÙģØ§ÙĦÙĪÙĤØª": 4912,
      "ĠØ§ÙĦØ¬Ø§ÙħØ¹Ø©": 4913,
      "ĠÙĪÙħÙĦ": 4914,
      "ØºØ§ÙĨÙĬ": 4915,
      "ĠØ³Ø§Ø¨ÙĤ": 4916,
      "ĠØ£ÙĪØ³": 4917,
      "ĠØ§ÙĦÙĥØ±Ø©": 4918,
      "ĠØ§ÙĦÙĪØ§ÙĤØ¹": 4919,
      "ĠØ§ÙĦØ±Ø§Ø³": 4920,
      "ĠÙĪØ®ÙĦØ§": 4921,
      "ĠØ§ÙĦÙħÙĤØ¨ÙĦ": 4922,
      "ĠÙĬØ³Ø§Ø¹Ø¯": 4923,
      "Ø«ÙħØ§ÙĨÙĬ": 4924,
      "ÙĨÙĩØ§Ø±": 4925,
      "ĠÙĦØ¨ÙĪ": 4926,
      "ĠØ³Ø±ÙĬ": 4927,
      "ĠØ¬ÙĪØ¯": 4928,
      "ĠÙĥÙĨØ´ÙĪÙģ": 4929,
      "ĠØªÙĬØ´": 4930,
      "ia": 4931,
      "ĠÙĨØ¨ÙĬÙĦ": 4932,
      "ĠØ®ÙĦØ§Ùĩ": 4933,
      "ĠØ¬Ø¨ÙĦ": 4934,
      "ĠØµÙĦØ§ØŃ": 4935,
      "ĠØ¹ÙĨÙĩ": 4936,
      "ĠØ¨Ø§ÙĦÙĦÙĩ": 4937,
      "ĠØªØ¹ÙĦÙħ": 4938,
      "ĠÙĦÙĬÙĩÙĪÙħ": 4939,
      "ĠØ§ÙĦØªØŃÙĤÙĬÙĤ": 4940,
      "ĠØ§ÙĦØ¹Ø§ÙĦÙħÙĬØ©": 4941,
      "ĠØ®ÙĦØ§ØªÙĪ": 4942,
      "ĠØ§ÙĦÙĩØ¯Ùģ": 4943,
      "Ø¹Ø¬": 4944,
      "ĠØ¨ÙħÙĪ": 4945,
      "ĠØªØ§Ø¬": 4946,
      "ÙĬØ±ÙĬØ©": 4947,
      "ĠÙĦÙĦØ¥": 4948,
      "ĠØºÙĬØ«Ø©": 4949,
      "ÙĥØ±Ø©": 4950,
      "ĠØ¯ÙĤØ©": 4951,
      "ĠØ£Ø³ÙĬÙĦ": 4952,
      "Ø±ÙĪØ§": 4953,
      "ĠÙħØ±ØŃØ¨Ø§": 4954,
      "ĠÙģØ±ÙĨØ³Ø§": 4955,
      "ØºÙĬÙĬØ±Ø§Øª": 4956,
      "ĠØ¨ÙĦØ§ØµØªÙĪ": 4957,
      "ce": 4958,
      "Ø³Ø§Ø¡": 4959,
      "ĠØ¨ÙĦØ§Øª": 4960,
      "ØŃÙĦØ§Øª": 4961,
      "ĠÙĥØ¨Ø§Ø±": 4962,
      "ĠÙģØ§ÙĨ": 4963,
      "ĠØ¹Ø¶ÙĪ": 4964,
      "ĠÙĤÙĦÙĬÙĦ": 4965,
      "ØªÙĬØ§Ø¬Ø§Øª": 4966,
      "ĠÙħØ¬Ø§ÙĦ": 4967,
      "est": 4968,
      "ĠØŃÙĪØ§Ø¬Ø¨ÙĪ": 4969,
      "25": 4970,
      "ĠÙĪÙĩØ§": 4971,
      "ĠÙĦØ§Ø®": 4972,
      "ĠØ±Ø¶": 4973,
      "ÙĥÙĨØª": 4974,
      "ĠØ§ÙĦØ¹Ø´": 4975,
      "Ø´Ø±Ø·Ø©": 4976,
      "ÙĪØ®": 4977,
      "ĠØ¨ÙĬØ±": 4978,
      "ĠÙĬØ¶Ø±Ø¨": 4979,
      "Ø¯ÙĪÙī": 4980,
      "Ø§ÙĪØ´": 4981,
      "ÙĨØªØ§Ø¦Ø¬": 4982,
      "ĠØ§ÙĦØ§Ø³ØªÙĤÙĦØ§ÙĦ": 4983,
      "ĠØ§ÙĦØ§ÙħØ±": 4984,
      "ĠØ§Ø°Ø§": 4985,
      "ĠØªÙħÙĨ": 4986,
      "ĠØªÙĦØ§ØŃ": 4987,
      "ĠÙĨØ§ØµØ±": 4988,
      "ĠÙĥØªÙĦØ¹Ø¨": 4989,
      "ÙĨÙĬÙĬÙĨ": 4990,
      "ÙĪØ²Ø§Ø±Ø©": 4991,
      "ĠØ«Ø§ÙĨÙĬØ©": 4992,
      "ÙħØªØ¹": 4993,
      "ĠÙģÙĬØ±ÙĪØ³": 4994,
      "ĠÙĩØ´Ø§Ùħ": 4995,
      "ĠØ³Ùĩ": 4996,
      "ĠÙĤÙĦÙĬÙĦØ©": 4997,
      "ĠØ·ÙĦØ¹Øª": 4998,
      "ĠØ§ÙĦÙħØ®ØªØµØ©": 4999,
      "ÙĦØ§ÙħÙĬØ°": 5000,
      "ak": 5001,
      "ĠØ¹Ø²": 5002,
      "ĠØ§Ùģ": 5003,
      "ĠÙĤÙĪ": 5004,
      "Ø±ÙĪØŃ": 5005,
      "ÙĦØ¹Ø§Ø¨": 5006,
      "ĠØªÙĪÙĤÙĬÙģ": 5007,
      "ĠØªÙħÙĥÙĨ": 5008,
      "ĠØ£ØŃ": 5009,
      "ĠÙĪØ§ÙĦØ§Ø³Øª": 5010,
      "Ø¯ÙĪØ§Ø±": 5011,
      "Ø§Ø±ÙĬØ§Øª": 5012,
      "Ø¯Ø§Ø±Øª": 5013,
      "Ġ2018": 5014,
      "op": 5015,
      "ÙĦØº": 5016,
      "Ø§ÙĦØ®": 5017,
      "ÙħÙĪØ±": 5018,
      "Ø³ÙĦÙħ": 5019,
      "ĠØ®ÙħØ³Ø©": 5020,
      "ĠÙĤØ±ÙĬØ¨Ø©": 5021,
      "ĠÙħØ¹Ø§Ø±Ùģ": 5022,
      "ĠØ§ÙĦØ³ÙĪÙĤ": 5023,
      "ĠØ¹ÙĨØ¯ÙħØ§": 5024,
      "Ġ26": 5025,
      "Ø§ÙĨÙĬÙĬÙĨ": 5026,
      "ĠØ§ÙĦÙħØ®ØªÙĦÙģØ©": 5027,
      "ĠÙħÙĪÙĦØ§ÙĬ": 5028,
      "Ġj": 5029,
      "ĠØ§ÙĦÙĨØ´": 5030,
      "ĠØ§ÙĦÙĤØ¯ÙĬÙħØ©": 5031,
      "Ø¹ÙĬÙħ": 5032,
      "ĠØ§ÙĦÙħÙĪØ¸ÙģÙĬÙĨ": 5033,
      "ĠØªÙģØ¶": 5034,
      "ĠØ§ÙĦØ³ÙĬØ§ÙĤ": 5035,
      "ĠØ§ÙĦØ¶ØŃÙĬØ©": 5036,
      "ĠÙĥÙĪÙĦÙĪ": 5037,
      "ÙĩØ¬": 5038,
      "ĠØ§ÙĦÙħØ§ÙĬ": 5039,
      "ĠØ´Ø§ÙģÙĪ": 5040,
      "ï»´": 5041,
      "ĠÙĤØ±Ø±": 5042,
      "ĠÙħÙĦÙĦÙĬ": 5043,
      "ĠØ¬ÙħÙĦØ©": 5044,
      "ĠÙĪØ§ÙĦØ°ÙĬ": 5045,
      "ĠØµØ§Ø§": 5046,
      "ĠØ§ÙĦØ³ÙĬØ±": 5047,
      "Ø§Ø·Ø§": 5048,
      "Ø§Ø²ÙħØ©": 5049,
      "Ø¢Ùĩ": 5050,
      "ĠÙĪÙĨØªØ§": 5051,
      "ĠØ®ÙħØ³": 5052,
      "Ø£Ø±Ø³ÙĦØ§ÙĨ": 5053,
      "Ø¸Ø§Øª": 5054,
      "ĠØ§ÙĦÙĤÙĨ": 5055,
      "ĠÙĩÙĩÙĩÙĩÙĩÙĩ": 5056,
      "ĠØªØ±ØªØ§ØŃ": 5057,
      "Ġ''": 5058,
      "ĠØ¹Ø§Ø·": 5059,
      "ĠØ§ÙĦØ¹Ø±Ø¨ÙĬØ©": 5060,
      "ĠØ§ÙĦØŃÙħØ§Ùħ": 5061,
      "ÙĦÙĪÙĬ": 5062,
      "ĠÙħØªØŃ": 5063,
      "ĠØ§ØŃØ¨ÙĬØ¨Ø©": 5064,
      "Ġ......": 5065,
      "ĠØŃÙĬØ§ØªÙĪ": 5066,
      "ĠÙĪØ´Ø§ÙģØª": 5067,
      "ĠĠĠĠĠĠĠĠ": 5068,
      "ĠØ¬Ø§ÙĨØ¨": 5069,
      "ĠÙģØ´Ùģ": 5070,
      "ĠØ¹ÙĥØ³": 5071,
      "Ø§Ø±Ø¶Ø©": 5072,
      "ĠØºØ³Ø§ÙĨ": 5073,
      "ĠØ§ÙĦØ¹Ø±Ø¨ÙĬ": 5074,
      "ÙĥÙħØ§ÙĦ": 5075,
      "ĠÙĦÙĤØ§Ø¡": 5076,
      "ĠØ§ÙĦÙħØ³ØªØ®Ø¯ÙħÙĬÙĨ": 5077,
      "Ø§ÙĦÙĬØ§": 5078,
      "ÙĦÙĬÙħØ§ÙĨ": 5079,
      "ĠØ§ÙĦÙħØº": 5080,
      "ĠÙĤØ³Ùħ": 5081,
      "ĠØ§ÙĦØ´Ø¹Ø±": 5082,
      "ĠÙĪÙĤÙģØª": 5083,
      "Ø²ÙĬØ¹": 5084,
      "ĠÙĪÙħØ§Ø´ÙĬ": 5085,
      "ÙħØ´Ø§": 5086,
      "ÙģÙģÙģ": 5087,
      "ÙĦØ¨Ø©": 5088,
      "Ø§Ø¤": 5089,
      "ÙĩÙĪØ±Ø©": 5090,
      "ĠÙĪØ¬ÙĩÙĩ": 5091,
      "ØŃØ¯Ùī": 5092,
      "ĠØ§ÙĦÙħØ´Ø±ÙĪØ¹": 5093,
      "Ġ195": 5094,
      "ĠØ²ÙĬØ¯ÙĬ": 5095,
      "ÙīØ¡": 5096,
      "ĠØŃÙĥÙħ": 5097,
      "ĠØ´ÙĩØ¯": 5098,
      "Ø¸Ø±Ø©": 5099,
      "ĠØ§ÙĦÙĥÙĦØ¨": 5100,
      "ĠÙħØ²ÙĬØ±": 5101,
      "ÙĥØ§ÙĬØ©": 5102,
      "ÙĪØ±ÙĪØ¨Ø§": 5103,
      "Ø¨ÙĦÙĪÙħ": 5104,
      "ĠÙĪÙĦØ§ÙĪ": 5105,
      "ĠÙĥÙĨØ¹Ø±ÙģÙĪ": 5106,
      "ĠØ§ÙĦØ¹ÙĦØ§ÙĤØ§Øª": 5107,
      "ĠØ®ØµØ±ÙĩØ§": 5108,
      "ÙħØ¨ÙĬ": 5109,
      "ĠØ§ÙĦÙĥÙĨ": 5110,
      "ĠÙĪÙĦØ¨": 5111,
      "ĠØªÙģØ±": 5112,
      "ĠØ§ÙĦÙħÙħØ±": 5113,
      "Ø§Ø¨Ø·Ø©": 5114,
      "ĠÙĥØªØ¨ØºÙĬ": 5115,
      "ĠØ§ÙĦØŃØ±Ø¨": 5116,
      "ĠØ¬ÙĬÙĩØª": 5117,
      "Ø³Ø§Ø±Ø©": 5118,
      "ĠØ¹Ø·ÙĬ": 5119,
      "ĠØ§ÙĪÙĬÙĦÙĬ": 5120,
      "ĠØ´Ø§Ø¨": 5121,
      "ØºÙĦØ¨ÙĬØ©": 5122,
      "Ø£ÙĨØ§": 5123,
      "ĠØµØ¨Ø±": 5124,
      "Ø¯ÙĪÙĥ": 5125,
      "Ø¯Ø±Øª": 5126,
      "ĠØ§ÙĦØ±Ø¦ÙĬØ³ÙĬ": 5127,
      "ĠØ§Ø®ØªØ§Ø±": 5128,
      "ĠÙĪØµÙģ": 5129,
      "ĠØ³ÙħØŃÙĬ": 5130,
      "ĠØªØ·ÙĪØ±": 5131,
      "ĠÙĬØ¹ÙĬØ´": 5132,
      "ĠÙħÙĨØ¹": 5133,
      "ĠÙĥÙĬÙĤÙĦØ¨": 5134,
      "Ø³ØªØ§Ø°": 5135,
      "Ø¯Ø§ÙĬØ©": 5136,
      "ÙĪÙĬÙĤ": 5137,
      "ĠØ§ÙħÙĬÙĨØ©": 5138,
      "ĠØ³ÙħØ¹Øª": 5139,
      "ÙħØ±ÙĥØ²": 5140,
      "Ã©": 5141,
      "ĠÙħÙĬØ±Ø§": 5142,
      "ĠÙģÙĬØ±": 5143,
      "ĠÙĬØ¨Ø§ÙĨ": 5144,
      "ØºØ¨": 5145,
      "Ø¯ÙĬÙĤØ©": 5146,
      "ÙĪÙĪÙĥ": 5147,
      "ØŃÙĥÙĪÙħØ©": 5148,
      "Ġ31": 5149,
      "ØªÙĪØ¬Ùĩ": 5150,
      "Ø¨Ø±ÙĬÙĦ": 5151,
      "ĠØ¹Ø§Ø¬": 5152,
      "ĠØ³ØªÙĬ": 5153,
      "Ø£Ø«Ø±": 5154,
      "ĠÙħØºØ±ÙĬØ¨ÙĬ": 5155,
      "ĠÙĨØ¹Ø§ÙĪÙĨ": 5156,
      "ĠØ¨Ø®ÙĬØ±": 5157,
      "ĠØ¯ÙĤØ§ÙĬÙĤ": 5158,
      "ĠÙĨÙħ": 5159,
      "ĠØ¬ÙĨÙĪØ¨": 5160,
      "Ø¹Ø¯Ø¯Ø©": 5161,
      "ĠØ§ÙĦÙĥÙĦÙħØ©": 5162,
      "ĠÙĪØ¨ÙĤØ§": 5163,
      "Ø¨ÙĤØ§ÙĬ": 5164,
      "ĠØ§ÙĦØ²ÙĪØ§Ø¬": 5165,
      "ĠÙĪØ²Ø§Ø¯": 5166,
      "ĠØªØ¨Ø³Ùħ": 5167,
      "ĠØ§Ø°": 5168,
      "ĠØ¨ÙĪØ±": 5169,
      "ĠÙĥØ¨ÙĬ": 5170,
      "Ø§Ø§Ø§ÙĬ": 5171,
      "ĠØ³ÙĨØªÙĬ": 5172,
      "ĠÙĪØ¬Ø§Ø¡": 5173,
      "ÙĥÙĬÙĨØ©": 5174,
      "ÙģÙĨ": 5175,
      "ĠØ¯ÙĬÙĨ": 5176,
      "Ø±ÙĪÙĤ": 5177,
      "ĠØ§ÙĦØŃÙħØ±": 5178,
      "ĠÙĬÙĨØª": 5179,
      "ĠØ®Ø§ÙĬØ¨Ø©": 5180,
      "ĠØ§ÙĦÙĨÙĪØ§Ø¨": 5181,
      "ĠÙĨØ·ÙĤØ§Øª": 5182,
      "ew": 5183,
      "ÙĥØ´Ùģ": 5184,
      "ĠÙĦØ§Ø³": 5185,
      "Ø§Ø±ÙĬØ±": 5186,
      "ĠÙĬØ§Ø±Ø¨ÙĬ": 5187,
      "ĠÙĥØªØ³ØªØ¹ÙħÙĦ": 5188,
      "ĠØ§ÙĦØ¹Ø«ÙħØ§ÙĨÙĬ": 5189,
      "ĠØ¹ÙħØ±Ùĥ": 5190,
      "ĠØ§ÙĦØŃØ±Ø§Ø±Ø©": 5191,
      "com": 5192,
      "ĠÙĪÙģØ±": 5193,
      "ØŃÙĬØª": 5194,
      "ĠÙģØ¨ÙĬ": 5195,
      "ÙĨØ§ÙĩØ§": 5196,
      "ĠØ§ÙĦÙģØ·ÙĪØ±": 5197,
      "ĠÙĪØªØ±": 5198,
      "Ø§Ø²Ùħ": 5199,
      "ĠØŃÙĬØ§ØªÙĩØ§": 5200,
      "ĠØŃØ³ÙĬØª": 5201,
      "ĠØ¹ÙĬÙĨÙĩØ§": 5202,
      "Ø²ÙĨÙĤØ©": 5203,
      "ĠÙĪØ°": 5204,
      "ÙģØ§Ùģ": 5205,
      "ĠØªÙĦØ§ÙĤ": 5206,
      "ØºØ§Øª": 5207,
      "ĠØ¬ÙĩØ¯": 5208,
      "ĠÙĥÙĬØŃØ³": 5209,
      "ĠÙĥØªÙĩØ¶Ø±": 5210,
      "ÙĬØ§Ø§ÙĨ": 5211,
      "Ø§Ø¦ØŃ": 5212,
      "ĠØ§ØŃØªÙħ": 5213,
      "ĠØ£ÙĬØ¶Ø§": 5214,
      "Ø·Ø¨ÙĬÙĤØ§Øª": 5215,
      "Ġx": 5216,
      "ÙģÙĩØ§Ø¯": 5217,
      "ĠØ¨ØªÙĪ": 5218,
      "ĠÙĬØ²": 5219,
      "ĠÙĨØ§Ø²": 5220,
      "ĠØ´ÙħØ³": 5221,
      "ĠØ®Ø§": 5222,
      "ĠØ§ÙĦØŃÙĤÙĬÙĤØ©": 5223,
      "ÙĬÙĬÙĩØ§": 5224,
      "Ø±Ø§ÙĬØ©": 5225,
      "ĠÙĬØ¹ÙĤÙĪØ¨": 5226,
      "ØŃØ¨Ø©": 5227,
      "ĠÙĩÙĨØ§Ø¡": 5228,
      "ĠÙĨÙĪØŃ": 5229,
      "ØºØ±ÙģØ©": 5230,
      "ĠÙħØ¹Ùĩ": 5231,
      "ÙĪÙĪØ¹": 5232,
      "ĠØ·Ø§ÙĥØ³ÙĬ": 5233,
      "ĠØ§ÙĦÙĤÙĪØ©": 5234,
      "Ø³Ø¨Ø§ÙĨÙĬØ§": 5235,
      "ĠØ§Ø¨ÙĨ": 5236,
      "ĠØ¬ÙĪÙĦØ§ÙĨ": 5237,
      "ÙģØ§Ø¯": 5238,
      "ĠÙĥØ§Ø¯": 5239,
      "ĠØ§ÙĬØ¯ÙĩØ§": 5240,
      "Ø§ÙĬØ¯Ø©": 5241,
      "Ø±Ø¬Ø§Øª": 5242,
      "ĠØ§ÙĦÙĤØ¯Ø±Ø©": 5243,
      "ĠØ§ÙĦÙĦØ¹Ø¨": 5244,
      "ĠØ§ÙĦØºØ°": 5245,
      "ÙĬØ±ÙĬÙĥØ§ÙĨ": 5246,
      "ĠÙĦØ£ÙĬ": 5247,
      "ĠÙħØ±ÙĪÙī": 5248,
      "ĠÙĥØ´Ùģ": 5249,
      "Ø§Ø¯Ø«Ø©": 5250,
      "Ø§ÙĬÙĬØ±": 5251,
      "ÙĪÙĪÙĤ": 5252,
      "ÙĬÙĬÙĬÙĩ": 5253,
      "ĠØ§ÙĦØ¬ÙĩØ©": 5254,
      "Ø®Ø§Ø°": 5255,
      "ĠØ§ÙĬØ§Ùħ": 5256,
      "ĠØ®Ø³Ø±": 5257,
      "ÙĬÙĬÙĦ": 5258,
      "ĠØ§ÙĦØ´ÙĥÙĦ": 5259,
      "Ø´Ø±Ø§Øª": 5260,
      "ĠØ±Ø§Ø¬ÙĦÙĩØ§": 5261,
      "Ø¯Ø§Ø¯": 5262,
      "ÙĥØ§Ø±": 5263,
      "ĠØ±Ø¨Ø¹": 5264,
      "ĠÙĪØ§ÙĦØ·": 5265,
      "ĠØ§ÙĦÙĥØ§Ø±": 5266,
      "ÙĩØ§Ø¯Ø´ÙĬ": 5267,
      "ĠÙĪÙģØ§Ø©": 5268,
      "ĠØ¹Ø§ÙħØ±": 5269,
      "ĠÙĩØ§ÙĥØ§Ùĥ": 5270,
      "ĠÙĨØ²ÙĦØª": 5271,
      "Ø³ÙĩØ§": 5272,
      "ĠÙĥØŃ": 5273,
      "ĠÙĥØ§Ø²Ø§": 5274,
      "ÙĬÙĬØ´": 5275,
      "ÙĥØªØ§Ø¨": 5276,
      "ĠØ±Ø¬ÙĦÙĬ": 5277,
      "ØªØ³Ø§Ùħ": 5278,
      "ĠØ´ÙĨÙĪÙĪ": 5279,
      "ĠØ§ÙĦØ±Ø³ÙħÙĬ": 5280,
      "ÙħØŃÙħØ¯": 5281,
      "ĠÙħØ¨Øª": 5282,
      "ĠØªØ±ÙĬ": 5283,
      "ĠØŃØ§ÙĦØ§Øª": 5284,
      "ÙĪØ±Ø§ÙĤ": 5285,
      "ÙĪÙĪÙĪÙĨ": 5286,
      "ĠØ¨Ø§ÙĦØ¨": 5287,
      "ĠØ§ÙĦØ£ÙģÙĥØ§Ø±": 5288,
      "Ġ21": 5289,
      "ĠÙĥÙĬØªÙģØ±Ø¬": 5290,
      "ĠÙĬÙĨÙĤØµ": 5291,
      "Ø§Ø§ÙĤ": 5292,
      "ĠØ±Ø§ÙĨÙĬØ§": 5293,
      "ØªÙĬÙĬ": 5294,
      "Ø±Ø¨Øª": 5295,
      "ÙħÙĬØ¬Ø©": 5296,
      "Ø§ØºØ©": 5297,
      "ĠÙĤØ§ÙĦÙĪ": 5298,
      "ĠØŃØ§Ø¬Ø¨ÙĪ": 5299,
      "ĠØ§ÙĦÙĨØ³Ø§Ø¡": 5300,
      "ĠÙĥÙĦÙħØ§Øª": 5301,
      "ĠÙĩØ§Ø¬Ø±": 5302,
      "ĠØ§ÙĦÙħØ¹Øª": 5303,
      "ĠÙħÙĨØ§Ø³Ø¨Ø©": 5304,
      "Ø§ÙģÙĤØ©": 5305,
      "ĠØ§ÙĦØ¹Ø§ÙĦÙĬ": 5306,
      "ĠØ§ÙĦØªØ§": 5307,
      "Ø§ÙĩÙĬÙħ": 5308,
      "Ġ28": 5309,
      "ĠØ¹ÙĬØ´Ø©": 5310,
      "Ø¬ÙĩØ²Ø©": 5311,
      "ĠÙħÙĬØ¯": 5312,
      "Ø´ÙĩØ±": 5313,
      "ĠØªØ®Ø¯Ùħ": 5314,
      "ĠÙĬØªÙĪ": 5315,
      "ĠØŃØ§ÙħÙĦØ©": 5316,
      "ØºØ§ÙĨ": 5317,
      "ĠÙģÙĬØ¯ÙĪ": 5318,
      "Ø³ØªØ´ÙģÙī": 5319,
      "ĠØ§ÙĦØ·Ø¨ÙĬØ©": 5320,
      "ĠĠĠĠĠ": 5321,
      "ĠÚ¯Ø§Ø¹": 5322,
      "ÙħØ±ÙĬÙĥØ§": 5323,
      "ĠØ§ÙĦØ§Ø®ØªÙĬ": 5324,
      "ĠØ¯Ø§ÙĬØ±ÙĬÙĨ": 5325,
      "ĠØ§ÙĦÙħÙĬÙĦØ§Ø¯": 5326,
      "ÙĤÙĦÙĬ": 5327,
      "Ø·ÙĬÙĦ": 5328,
      "ĠÙĩØ§ÙĨ": 5329,
      "ĠÙĤÙģ": 5330,
      "Ø¯Ø±Ø§Ø±ÙĬ": 5331,
      "ĠØ§ÙĦØ¯Ø¹Ùħ": 5332,
      "ĠØ§ÙĦØ±ÙĤ": 5333,
      "ĠØµÙģØŃØ©": 5334,
      "ĠÙħØ¹Ø±ÙģØªØ´": 5335,
      "ĠÙĪØ§Ø¹": 5336,
      "ĠØŃÙĨØ§ÙĨ": 5337,
      "ĠØ§ÙĦØŃØ³ÙĨ": 5338,
      "ĠØ§ÙĦÙĥÙĪÙħ": 5339,
      "Ø±Ø¶ÙĬ": 5340,
      "ĠØ¨ÙĨØªÙĩØ§": 5341,
      "ÙħØ¶Ø§ÙĨ": 5342,
      "ÙĦÙĪÙħØ§Øª": 5343,
      "ĠÙĦÙĢ": 5344,
      "ĠÙģØ¤Ø§Ø¯": 5345,
      "ØµÙĦÙĪ": 5346,
      "ĠÙĨØ³ÙĬ": 5347,
      "ĠØ±ÙģØ¹": 5348,
      "ĠÙĪØ§ÙĦØº": 5349,
      "ĠØ§ÙĦØ£ÙĨ": 5350,
      "ØµÙĦØŃØ©": 5351,
      "ĠØµÙĪØªÙĩØ§": 5352,
      "Ø·ÙģØ§ÙĦ": 5353,
      "ĠÙħØ¬ÙħÙĪØ¹ÙĬÙĨ": 5354,
      "Ø§ÙĦÙĨØ§Ø³": 5355,
      "ĠØªØ¹ÙĬØ´": 5356,
      "ĠØŃØ¬Ùħ": 5357,
      "ĠÙĤØ¨ÙĦØ©": 5358,
      "ĠÙĥÙĬØ¯ÙĪØ²": 5359,
      "ĠØµØ±": 5360,
      "ĠØ§ÙĦØ¬ÙĨØ³": 5361,
      "ĠÙĪÙĦØ¯ÙĪ": 5362,
      "ĠØ§ÙĦÙħØ´ØªØ¨Ùĩ": 5363,
      "ĠÙĪØ¯Ø§Ø¨Ø§": 5364,
      "Ø¯Ø¯Ø©": 5365,
      "Ø³Ø¨ÙĪØ¹": 5366,
      "ĠØ¹Ø²ÙĬØ²Ø©": 5367,
      "ĠÙĩÙħØ³": 5368,
      "ĠÙģÙĬØ¯ÙĬ": 5369,
      "ĠØ³Ø¯Ø§Øª": 5370,
      "Ø§ÙĤÙģ": 5371,
      "Ø¬Ø±ÙĩØ§": 5372,
      "Ø±Ø±Ø±": 5373,
      "ĠØ¨Ø§Ø³ØªØºØ±Ø§Ø¨": 5374,
      "ĠÙĬÙĪÙĦÙĬÙĪØ²": 5375,
      "ÙĦØ§ÙĨ": 5376,
      "ĠØ§ÙĦÙĬØ¯": 5377,
      "ĠØ¯Ø§Ø¦": 5378,
      "ĠÙĦÙĦØ³ÙĬ": 5379,
      "ĠÙĪÙĦØ§ÙĬØ©": 5380,
      "ĠÙĪÙĬÙĦÙĬ": 5381,
      "ĠÙĩØ²ÙĩØ§": 5382,
      "ÙĤØ±Ø§Ø±": 5383,
      "ĠÙĥÙĬÙĦØ¹Ø¨ÙĪ": 5384,
      "Ø¨ÙĬÙĦØ§Øª": 5385,
      "ĠÙĪØªØ³": 5386,
      "ØŃØªÙĥ": 5387,
      "ĠØ¨ØŃØ§ÙĦÙĥ": 5388,
      "ĠØ±ÙĬØŃØ©": 5389,
      "ĠØ¨Ø®Ø·ÙĪØ§Øª": 5390,
      "ĠØ¨Ø¯Ø±": 5391,
      "ÙĪØ±ÙĩØ§": 5392,
      "ÙĦØ§ÙĪ": 5393,
      "ĠØ¨Ø§ÙĦØ¯": 5394,
      "ÙĦÙħÙĬÙĨ": 5395,
      "ĠÙĪÙĨØ²": 5396,
      "Ø´Ø§ÙĪ": 5397,
      "ĠÙģÙĨØ¯ÙĤ": 5398,
      "Ø®Ø±Ø©": 5399,
      "ĠØ´Ø¯ÙĪ": 5400,
      "ĠØ®Ø±": 5401,
      "ĠØ¨Ø§ÙĦØ±": 5402,
      "ĠØ§ÙĦØŃÙħÙĦ": 5403,
      "Ø§Ø²ÙĨ": 5404,
      "ĠØ¨ØŃØ§ÙĦÙĬ": 5405,
      "ØªØµØ§Ø¯": 5406,
      "ĠÙĤØ¯Ø§ÙħÙĬ": 5407,
      "ĠØ¬ÙħØ¹Ø§Øª": 5408,
      "ĠØ§ÙĦÙħÙĨØªØ¬": 5409,
      "te": 5410,
      "Ø§Ø§Ø¯": 5411,
      "Ø·Ø§Ø¹": 5412,
      "ĠØ¨ÙĬØ§ÙĨ": 5413,
      "Ø³Ø¨Ø§ÙĨÙĬØ©": 5414,
      "Ø·ÙĪØ§ÙĨ": 5415,
      "ĠÙĦØŃØ¸Ø©": 5416,
      "ĠØ§Ø´Ø±Ø§ÙĤ": 5417,
      "ĠØ§Ø³ÙħØ§Ø¡": 5418,
      "ÙĥÙĬØª": 5419,
      "ĠÙĥÙĬØ·ÙĦØ¹": 5420,
      "ĠÙħØ¹ÙĬÙĨØ©": 5421,
      "ĠÙĪØ§ÙĦÙħØ³": 5422,
      "ÙĥÙĪÙĨÙĪ": 5423,
      "ĠÙĬØªØ¹ÙĦÙĤ": 5424,
      "ÙĥÙħÙĦÙĪ": 5425,
      "ĠØ¨Ø§ÙĦÙħØºØ±Ø¨": 5426,
      "ĠØ§ÙĦØªÙĤÙĦÙĬ": 5427,
      "ĠÙĤØµÙĬØ±": 5428,
      "ĠØ§Ø¬ØªÙħØ§Ø¹": 5429,
      "ww": 5430,
      "ĠÙĨØ§ÙĬ": 5431,
      "ĠØ³ÙħÙĬ": 5432,
      "Ø§ÙĥØ±": 5433,
      "Ø§Ø¦Ø±": 5434,
      "ĠØºØ§Ø¯ÙĬØ´": 5435,
      "ĠØªØµØ§ÙĪØ±": 5436,
      "Ø¬ÙħØ¹ÙĪ": 5437,
      "ĠØ±Ø³Ø§ÙĦØ©": 5438,
      "ĠÙħØ§ÙĥØ§ÙĨØ´": 5439,
      "ÙĦØ¬": 5440,
      "ÙĬØ¨Ø©": 5441,
      "Ø³ÙĪÙĨ": 5442,
      "ĠÙģÙĦÙħ": 5443,
      "ĠØªÙĦÙĥ": 5444,
      "ĠØºØ³": 5445,
      "ĠØ§ÙĦÙĤØµ": 5446,
      "ĠØ§ÙĦÙħØ³ØªÙĪÙī": 5447,
      "ÙģØ±ÙĬÙĤÙĬØ©": 5448,
      "Ø¯Ø¨": 5449,
      "ĠÙħÙĪÙĤÙģ": 5450,
      "ØµØ§Øª": 5451,
      "ĠÙĬÙĥØª": 5452,
      "Ø±ÙĪÙĥ": 5453,
      "ĠØ§ÙĦØ³Ø¬": 5454,
      "ĠÙĪÙħØ³": 5455,
      "ĠÙħØ´Øª": 5456,
      "ÙĪÙĦÙĬØ¯": 5457,
      "ĠØ§ÙĬØ¯ÙĪ": 5458,
      "ØªÙĤØ¯": 5459,
      "ĠÙĨØµÙģ": 5460,
      "ĠØ§ÙĦØ¶ØŃÙĥØ©": 5461,
      "ĠÙħØ¯Ø§Ùħ": 5462,
      "Ø´Ùħ": 5463,
      "ĠÙģØ§Ø²": 5464,
      "ĠØ§ÙĦÙģÙĨ": 5465,
      "ĠØ§ÙĦÙĦØ§Ø¹Ø¨": 5466,
      "ĠÙĪØŃØ¯": 5467,
      "Ø¹ÙĦØ§ÙĨ": 5468,
      "ØªØµØ§Ø¨": 5469,
      "ĠÙħÙĬÙħÙĥÙĨØ´": 5470,
      "ØªØ¨Ø§Ùĩ": 5471,
      "ĠØŃØ§ÙĦØªÙĩØ§": 5472,
      "ĠØ¬ÙĬÙĩØ©": 5473,
      "ĠØªØ®ÙĦÙĤ": 5474,
      "ĠÙģØ¨ÙĦØ§ØµØªÙĩØ§": 5475,
      "ĠðŁ": 5476,
      "ØŃØ·Ø§Øª": 5477,
      "ĠØ¯ÙĨÙĬØ§": 5478,
      "ĠÙĥÙĬÙĦÙĪ": 5479,
      "ĠØ¹ÙĨÙĤ": 5480,
      "ĠØªØŃØ³ÙĬÙĨ": 5481,
      "ĠØªÙĨØ¸ÙĬÙħ": 5482,
      "ĠÙĨØ¬ÙĬØ¨": 5483,
      "ĠØŃØ¨ÙĬØ¨Ø©": 5484,
      "ĠÙĦÙĦÙĨØ§Ø³": 5485,
      "ĠØ§ÙĦØ¹ÙĦÙħÙĬ": 5486,
      "ĠØªÙĤØ±ÙĬØ±": 5487,
      "ĠØ§ÙĦÙħØ´Øª": 5488,
      "Ø³ÙĦØ§ÙħØ©": 5489,
      "Ú¤ÙĬ": 5490,
      "ĠØ§ÙĦØ¹ÙĦØ§ÙĤØ©": 5491,
      "ĠØ§ÙĦØ§ÙĨØªØ®Ø§Ø¨Ø§Øª": 5492,
      "ÙĤØ§Ø¯": 5493,
      "ĠÙĦØ§Ø³Øª": 5494,
      "ĠÙĬØ¨": 5495,
      "ĠÙĥÙĬÙĪÙģØ±": 5496,
      "ĠÙĦÙĦÙħØ¹": 5497,
      "ĠØ§ÙĦØ³ÙĥØ§ÙĨ": 5498,
      "ĠÙĪØ¹Ø·": 5499,
      "ĠØªØµØ±ÙĬØŃ": 5500,
      "Ø¹ØªØ¨Ø±": 5501,
      "ĠØ§Ø³ÙĬØ¯ÙĬ": 5502,
      "ĠÙģØ±Ø¬": 5503,
      "ĠØ¯Ø§Ø±ÙĬ": 5504,
      "Ø±Ø¬Ø§ÙĨ": 5505,
      "ĠØ²Ø±ÙĤ": 5506,
      "ĠØ¨ØºØ¶Ø¨": 5507,
      "Ø¹ÙĪØ©": 5508,
      "ĠÙĦØ§Ø¨Ø§Ø³": 5509,
      "all": 5510,
      "ĠØ§ÙĦØ³Ø±Ø¹Ø©": 5511,
      "ĠÙħØµØ¯ÙĪÙħØ©": 5512,
      "Ø§ØŃØ§Øª": 5513,
      "Ø°Ø§Ø¨": 5514,
      "ĠØ§ÙĦØ¨Ø±ÙĬØ·": 5515,
      "ĠÙĬØ±ØŃÙħ": 5516,
      "ĠØ§ÙĦÙĪØ²Ø§Ø±Ø©": 5517,
      "ĠÙģØ§ÙĤØª": 5518,
      "Ġin": 5519,
      "ĠÙģÙĪØ³Ø·": 5520,
      "ĠÙĦÙĦÙħØ³": 5521,
      "ĠØ§ÙĦØŃÙĤÙĬÙĤÙĬ": 5522,
      "ĠÙĪØªØ®": 5523,
      "ĠØ§ÙĦÙĦØºØ©": 5524,
      "Ø§ÙģÙĬØ´": 5525,
      "ÙĪØ¨ÙĬØ©": 5526,
      "ĠØ¨Ø¹Ø¶ÙĩÙħ": 5527,
      "ÙĤØ§ÙĦÙĬÙħ": 5528,
      "ĠØ§ÙĦÙĪØ¬": 5529,
      "ĠÙħØ±Ø¨Ø¹": 5530,
      "Ø¹ÙĨÙĬ": 5531,
      "ĠØªØ·ÙĪÙĬØ±": 5532,
      "ĠÙĦÙĦØ®": 5533,
      "Ø±Ø¨ÙĤ": 5534,
      "Ø«Ø±Ø©": 5535,
      "ÙħØ±Ø§Ø±": 5536,
      "ĠÙħØªÙĤ": 5537,
      "ĠØ§ÙĦÙĪØŃ": 5538,
      "Ø§Ø§Ø§Ø§Ø´": 5539,
      "ĠØ§ÙĦØªØ¬Ø§Ø±ÙĬØ©": 5540,
      "Ġle": 5541,
      "ĠØ³ÙĨØ§Ø¡": 5542,
      "ĠØ£ÙĨÙĪØ§Ø¹": 5543,
      "ĠØ·Ùģ": 5544,
      "ĠÙģØ§ÙĦÙģ": 5545,
      "ĠØ§ÙĦØ¯Ø³Øª": 5546,
      "ĠØ§ÙĦØ¯ÙĪØ±Ø©": 5547,
      "ĠØ¨ÙĦØº": 5548,
      "ĠÙĪÙĨØ§Ø¶Øª": 5549,
      "ĠÙĦØ¨ÙĨØ§Øª": 5550,
      "ĠØ¨Ø±Ø§Ø³ÙĬ": 5551,
      "Ú¯ÙĪÙĦ": 5552,
      "***": 5553,
      "ĠØ£ÙĬØ§Ùħ": 5554,
      "ĠØ§ÙĦØ®ÙĬØ§Ø±Ø§Øª": 5555,
      "ĠØ³ÙĨØªÙĬÙħ": 5556,
      "ĠÙĥÙĦÙĬ": 5557,
      "ĠØ®Ø±Ùī": 5558,
      "ÙĨØ§ÙĪ": 5559,
      "ĠØ§ÙĦÙħÙĨØ§Ø³Ø¨Ø©": 5560,
      "ĠÙĪØ¯Ø®ÙĦØ§Øª": 5561,
      "ĠÙĥØ«ÙĬØ±Ø©": 5562,
      "ĠÙĪØ°ÙĥØ±": 5563,
      "ĠØ¨ÙĪØ¬": 5564,
      "ĠÙĦØ§Ùģ": 5565,
      "ĠØªÙĪØ¬": 5566,
      "ĠØ§ÙĬØ¯": 5567,
      "ĠØ®Ø·Ø±": 5568,
      "ĠØ§ÙĦÙĥÙĦÙħØ§Øª": 5569,
      "ĠÙĪÙĥØ§Øª": 5570,
      "ĠÙħØ§ØªØ´": 5571,
      "Ø§Ø¶ÙĬØ¹": 5572,
      "ĠÙĨØ³ØªØ¹ÙħÙĦÙĪ": 5573,
      "ĠØ£ÙħÙĬØ±": 5574,
      "ĠÙĦÙĪÙĤØª": 5575,
      "Ø´ÙĥÙĦ": 5576,
      "Ø¯ÙĪØ¯Ø©": 5577,
      "ĠÙģØ§ÙĦÙĩ": 5578,
      "ĠØªØ£ÙĥØ¯": 5579,
      "ĠØªÙĪØµ": 5580,
      "ĠØŃÙĪØ§ÙĦÙĬ": 5581,
      "ĠØ§ÙĦÙħØ¯Ø±Ø³Ø©": 5582,
      "Ø§ÙģÙĬØ§": 5583,
      "ĠÙĩØ§Ø¯Ø§Ùĥ": 5584,
      "Ø§ÙĪØ¯ÙĬ": 5585,
      "ĠØ§ÙĦØ®Ø¨Ø±": 5586,
      "ĠØ¶Ø¹ÙĬ": 5587,
      "ĠØ§ÙĦÙĥÙĪ": 5588,
      "ĠÙħØ®ÙĦÙĬ": 5589,
      "ĠØªØ´Ø¯": 5590,
      "ÙĬÙĬØ±": 5591,
      "ĠÙĩØ§Ø±": 5592,
      "Ø§Ø¦Ø¨": 5593,
      "Ġ29": 5594,
      "ĠÙĥÙĬÙĨØª": 5595,
      "ĠÙĨÙĪØ§Ø±": 5596,
      "ĠØ¨Ø§ÙĦØ¯Ø§Ø±": 5597,
      "ĠØ¨Ø²Ø§Ø§Ø§Ø§": 5598,
      "ĠÙģØ±ÙĤØ©": 5599,
      "ĠØ§Ø³ØªØ±Ø§ØªÙĬ": 5600,
      "ĠØ§ÙĦØ«Ø§ÙĦØ«": 5601,
      "ĠÙģØ§ÙĦØ¹Ø§ÙĦÙħ": 5602,
      "ĠØ§ÙĦÙħØ«Ø§ÙĦ": 5603,
      "ĠØ§ÙħÙħ": 5604,
      "ĠÙģÙĬØ¯ÙĬÙĩ": 5605,
      "ĠÙĤØ§Ø·Ø¹": 5606,
      "ĠØ§ÙĦÙĨÙĤÙĦ": 5607,
      "ĠØ§ÙĦØ£ÙħØ±ÙĬÙĥÙĬØ©": 5608,
      "ĠØ§ÙĦØ´ÙĪ": 5609,
      "ĠØ§ÙĦÙĦÙĪÙĨ": 5610,
      "ĠÙħØ§ÙĬÙħÙĥÙĨØ´": 5611,
      "Ø±Ø¯Øª": 5612,
      "ÙħØ§Ø·": 5613,
      "Ø¹Ø§Ùħ": 5614,
      "ĠØ¨ÙĥØ±ÙĬ": 5615,
      "Ø·Ø±ÙĪ": 5616,
      "ĠØ¨Ø§ÙĦÙĬ": 5617,
      "ÙĬÙĨÙĬØ§": 5618,
      "ĠØ¨ÙĬÙĨÙĩÙħ": 5619,
      "ĠØ¹ÙĦÙĬÙĩØ§Ø§": 5620,
      "ĠØ±Ø¬Ø¹ÙĪ": 5621,
      "Ø¯Ø§ØªÙĩØ§": 5622,
      "ĠÙģØ±Ø§Ø³Ùĥ": 5623,
      "ĠÙħÙĪØ«": 5624,
      "ĠÙħØ¬Ø±Ø¯": 5625,
      "ĠØ§ÙĦÙħÙĪØ§Ø¯": 5626,
      "ÙģØ¹Ø§ÙĦ": 5627,
      "ĠØ¬ÙĪØ§Ø¯": 5628,
      "ĠØ®Ø·ÙĬØ±Ø©": 5629,
      "ÙĨÙĥÙĩØ§": 5630,
      "________": 5631,
      "Ø¹ØµØ§Ùħ": 5632,
      "ĠØ§ÙĦÙĨÙĩØ§Ø¦ÙĬ": 5633,
      "ØªØ¨Ø©": 5634,
      "ĠØ´ÙĩØ§Ø¯": 5635,
      "ĠÙĥÙĬÙħØ´ÙĬ": 5636,
      "Ø§ØŃØ«": 5637,
      "ĠÙħØ³ØŃ": 5638,
      "ĠÙħÙĪØ¬ÙĪØ¯": 5639,
      "Ø·Ø§Ø¡": 5640,
      "ĠØ§ÙĪÙĥ": 5641,
      "ĠØ³ÙĥØ±": 5642,
      "ĠØ·Ø±ÙĤ": 5643,
      "ĠØ§ÙĦØ³ÙĬØ¯Ø©": 5644,
      "ĠÙĨØ¹Ø§Ø³": 5645,
      "ĠÙĦØ§Ø¨Ø³ÙĬÙĨ": 5646,
      "ĠØ§ÙĦØ³ÙĦØ·Ø©": 5647,
      "ĠÙĥÙħÙĦØ§Øª": 5648,
      "+)": 5649,
      "Ø´ÙĤ": 5650,
      "ĠØ§Ùĥ": 5651,
      "ĠØ³ØŃØ±": 5652,
      "ĠØ§ÙĦØ´Ùħ": 5653,
      "ĠØªØ¬Ø§ÙĪØ¨": 5654,
      "li": 5655,
      "ĺħ": 5656,
      "Ø¹Ùī": 5657,
      "ĠÙĩØ§ÙĬ": 5658,
      "ĠÙĬÙĪÙĤÙģ": 5659,
      "ĠØ§ÙĦÙħÙĪØ¬": 5660,
      "ĠØ§ÙĨÙĥ": 5661,
      "ĠÙĪÙĩØ°Ø§": 5662,
      "ĠØ§ÙĦØ±ÙĬØ§Ø¶Ø©": 5663,
      "ĠØ§ÙĦÙĤØ±ÙĨ": 5664,
      "ĠØ¬ÙħØ§ÙĦ": 5665,
      "ÙĪÙĪØ´": 5666,
      "ĠØªØŃØ³": 5667,
      "Â»ØĮ": 5668,
      "ĠÙħØ§Ø¹Ø±ÙģØªØ´": 5669,
      "Ø®ÙĬÙĦ": 5670,
      "ĠÙĬØ·ÙĦØ¹": 5671,
      "ĠÙĨØ±ÙĬÙħØ§ÙĨ": 5672,
      "ĠØµÙĬ": 5673,
      "ĠÙħØ®ÙĦÙĪ": 5674,
      "Ġ===": 5675,
      "ĠØ§ÙĦÙħØ®Ø¯Ø±Ø§Øª": 5676,
      "ĠØ§ÙĦØ±Ø¬ÙĦ": 5677,
      "ĠØ³Ø§ÙĥØªØ©": 5678,
      "ĠØ§ÙĦØ¬ÙħØ¹ÙĬØ©": 5679,
      "ĠØ¯ÙĦ": 5680,
      "ĠÙĨÙĥ": 5681,
      "ĠÙĥÙĬÙĥ": 5682,
      "Ø§ÙĥÙħØ©": 5683,
      "ĠÙĥØªØ¬ÙĬ": 5684,
      "ĠØ§ÙĦØ´Ùĥ": 5685,
      "ĠØ¨ÙĬØ®ÙĬØ±": 5686,
      "ĠÙĦØ¹Ùħ": 5687,
      "ĠÙħÙĩØ¯ÙĬ": 5688,
      "ĠØ§ÙĦØ±Ø¬Ø§Ø¡": 5689,
      "ĠØ¶ØŃÙĥØ§Øª": 5690,
      "ÙĨØ§Ø¶Øª": 5691,
      "ÙĩØ§Ø¬Ø±": 5692,
      "Ø³ÙĥØ±ÙĬ": 5693,
      "ĠÙģØªÙĬ": 5694,
      "ĠÙģÙĦØ¨": 5695,
      "ĠØ¯ÙĪØ§": 5696,
      "ĠØ¯ÙĬØ§ÙĦÙĥÙħ": 5697,
      "Ø£Ø¯ÙĬ": 5698,
      "ĠØªØŃØ³ÙĨ": 5699,
      "ĠÙĪÙĨØ§Ø¶": 5700,
      "ĠÙĨØ´ÙĪÙģÙĥ": 5701,
      "ĠÙĤØµØ¯": 5702,
      "ĠØ¶Ø±Ø¨Ø§Øª": 5703,
      "our": 5704,
      "Ø¡ÙĩØ¡Ùĩ": 5705,
      "ĠØ¨ÙĦØ§ØªÙĬ": 5706,
      "ĠX": 5707,
      "ÙĨØ¯Ø§": 5708,
      "ĠÙħÙĨØµÙģ": 5709,
      "ĠØ¬Ø§ÙĬØ§": 5710,
      "Ø§ÙĬÙģ": 5711,
      "ÙĨØ§ÙĪÙĬÙĨ": 5712,
      "ÙĦÙħØ³": 5713,
      "ĠØ§ÙĦØ®ÙĪÙģ": 5714,
      "ĠÙĦØ¨ÙĨØª": 5715,
      "ĠØ¨Ø³ÙħØ©": 5716,
      "Ø³ÙĥØ±ÙĬØ©": 5717,
      "ĠØ§ÙĦØ¯ÙĬÙħÙĤØ±": 5718,
      "eb": 5719,
      "ĠÙĥØŃÙĦØ©": 5720,
      "ĠÙĬÙģÙĩÙħ": 5721,
      "ĠØŃØ·ÙĪ": 5722,
      "ĠÙħÙĨØµÙĪØ±": 5723,
      "ĠØ®ÙĪÙĩ": 5724,
      "Ø¨ÙĬÙĩ": 5725,
      "ÙĪØ±ÙĪØ¨ÙĬ": 5726,
      "ĠÙĩØ¯Ùī": 5727,
      "ĠÙĨØ´Ø±ÙĬ": 5728,
      "og": 5729,
      "ĠÙħØ§ÙĦÙĬØ©": 5730,
      "ĠØ¨ÙĪÙĥ": 5731,
      "ĠØªØ¨Ø±": 5732,
      "ØµØ¯ÙĤ": 5733,
      "Ø®Ø§Øª": 5734,
      "ĠØŃØ§Ø·Ø©": 5735,
      "ÙĬØ±ÙĩØ§": 5736,
      "ĠØ³ÙģÙĬØ§ÙĨ": 5737,
      "ĠØ¨ÙĨØµ": 5738,
      "ĠØªÙħØª": 5739,
      "Ġthe": 5740,
      "ÙħØ±ÙĪ": 5741,
      "ĠÙħØ¹ÙĩØ§": 5742,
      "ĠØ¨Ø§ÙĦØ·": 5743,
      "Ø§ØµÙħ": 5744,
      "ÙĪÙĤÙģØª": 5745,
      "ĠØ§ÙĦØ³ÙĬÙĨ": 5746,
      "ĠØ§ÙĦØ¯Ø±ÙĬ": 5747,
      "ÙĪÙĬÙĪØ±Ùĥ": 5748,
      "ĠØ§Ø³ØªØ¹ÙħÙĦ": 5749,
      "ĠØ§ÙĦÙħØ¬ÙħÙĪØ¹Ø©": 5750,
      "ĠØ§ÙĦØ²ÙĬ": 5751,
      "ØªØ²": 5752,
      "ĠØ®Ø±Ø§": 5753,
      "ĠØµÙĨ": 5754,
      "ĠØ§ÙĦØ¹Ø±Ø³": 5755,
      "Ø§ÙĪØ¯ÙĪ": 5756,
      "ĠØ§ÙĦØ·ÙĪÙĦ": 5757,
      "ĠØ«ÙħÙĨ": 5758,
      "ĠØ¨Ø¬Ø¯ÙĬØ©": 5759,
      "ĠØ§ÙĦÙħØ¬Ø§ÙĦ": 5760,
      "ĠØ®Ø§ÙĬØ¨": 5761,
      "ĠÙĪØ§Ø¯": 5762,
      "ĠØ¨ÙĦÙĪ": 5763,
      "ĠÙħÙĨØªÙĪØ¬": 5764,
      "Ø§Ø§Ø§Ø³": 5765,
      "ĠÙĥÙĬØ²ÙĬØ¯": 5766,
      "ĠÙģØ§ÙĦØ±": 5767,
      "ĠØ¹ÙħÙĦÙĬØ§Øª": 5768,
      "ĠØ§ØªØ¬Ø§Ùĩ": 5769,
      "ĠÙĨÙģÙĩÙħ": 5770,
      "ĠØµÙĪØªÙĪ": 5771,
      "ĠØµØ¹ÙĬØ¨Ø©": 5772,
      "ĠØ§ÙĦØªÙĥÙĨÙĪÙĦÙĪØ¬ÙĬØ§": 5773,
      "ĠÙĨØ³ÙħØ¹": 5774,
      "ĠØ¹Ø§Ø¯ÙĬØ©": 5775,
      "ĠØ§ÙĦØ³Ø±ÙĬØ±": 5776,
      "ĠÙĬØ®ÙĦÙĬÙĥ": 5777,
      "ĠØŃÙĪØ§ÙĬØ¬ÙĪ": 5778,
      "ÙģØ±ÙĬÙĤÙĬ": 5779,
      "Ø®ÙĦØ§": 5780,
      "ĠØŃØµ": 5781,
      "ĠØŃØ²": 5782,
      "ĠØ±Ø§ÙĬ": 5783,
      "ĠÙĦÙĦØ¨ÙĬØª": 5784,
      "ĠØ§ÙĦØŃØ¯ÙĪØ¯": 5785,
      "ÙĦÙĪØ¬": 5786,
      "ĠÙĪØ¹ÙĬÙĨÙĬÙĩØ§": 5787,
      "ĠØ§Ø³ÙĦØ§Ùħ": 5788,
      "ØªÙĨØ¨Ø±": 5789,
      "ard": 5790,
      "Ġ2017": 5791,
      "ĠØ§ÙĦØ±Ùĥ": 5792,
      "ĠÙĦØ§Ùĥ": 5793,
      "ĠÙĨØŃØ³": 5794,
      "Ø§Ø§Ø§Ø¨": 5795,
      "Ø§ÙħØ¨": 5796,
      "Ġ..\"": 5797,
      "ĠØ±ØŃÙĦØ©": 5798,
      "Ø±ÙĬØ·Ø©": 5799,
      "ĠÙĤØ±ÙĪÙĬØ©": 5800,
      "ĠØ§ÙĦØ³Ø§Ø¨ÙĤØ©": 5801,
      "Ø¯Ø§ÙĪÙĦ": 5802,
      "ĠØ§ÙĦÙĥØ§Ø³": 5803,
      "ĠÙģØ·Ø±ÙĬÙĤ": 5804,
      "ĠØ§ÙĦØ£Ø®ÙĬØ±Ø©": 5805,
      "ÙĩØ±ÙĬ": 5806,
      "Ø§ÙĨÙĬÙĨ": 5807,
      "ĠÙĦÙĬØ³ØªØ©": 5808,
      "ĠÙĤØ§Ø¯Ø±Ø©": 5809,
      "ĠØ¬Ø³Ùħ": 5810,
      "ĠÙĪØ§ÙĦØ±": 5811,
      "Ø§ÙĪØ³": 5812,
      "ĠØ§ÙĦÙĨØ¬": 5813,
      "ĠØºØªÙĥÙĪÙĨ": 5814,
      "ÙĬÙħÙĥÙĨ": 5815,
      "Ø§ÙĦØ±ÙĬ": 5816,
      "ĠÙĪØ§Øª": 5817,
      "ĠØªÙĦØ§ØªØ©": 5818,
      "ĠØ§ÙĥØ±Ø§Ùħ": 5819,
      "ĠØ±ÙĬÙĨ": 5820,
      "ÙģÙĬÙģ": 5821,
      "ĠÙħÙĪØ§Ø·": 5822,
      "ĠØ¨ØµØ¯ÙħØ©": 5823,
      "ĠØŃØ¬Ø¨Ø§ÙĨÙĪ": 5824,
      "Ø§ÙĦØ«Ø©": 5825,
      "ØŃØ²Ø§Ø¨": 5826,
      "ĠØªÙĨÙĪØ¶": 5827,
      "Ø§ÙĨÙĩØ§": 5828,
      "ÙĪÙĨÙĥ": 5829,
      "ĠÙĥØªÙħØ´ÙĬ": 5830,
      "ÙĪÙĪÙĪØª": 5831,
      "ĠØ§ÙĦØŃÙħ": 5832,
      "ĠØ§ÙĦØ¬ÙħÙĬØ¹": 5833,
      "ĠØªØŃÙħÙĦ": 5834,
      "ĠØ¨ÙĨØ¨Ø±Ø©": 5835,
      "ÙĪØ²ÙĬØ±": 5836,
      "Ø¶ÙĬÙģ": 5837,
      "ĠØªØµØ¯Ùħ": 5838,
      "ĠÙħØ§ÙĥÙĬ": 5839,
      "ĠØ§ÙħØ§Ùħ": 5840,
      "ĠØŃØ·ÙĩØ§": 5841,
      "ĠÙĪØ±Ø§ÙĩØ§": 5842,
      "????": 5843,
      "ĠØ¹Ø¨Ø§Ø±Ø©": 5844,
      "Ø§Ø²ÙĬØºÙĬØ©": 5845,
      "Ġr": 5846,
      "ØªØ§ÙĨÙĬ": 5847,
      "ĠÙĪØ§ÙĨØª": 5848,
      "ĠØ¹Ø·Ø§Øª": 5849,
      "ĠØ§ÙĪØ³": 5850,
      "Ø¨Ø±Øª": 5851,
      "ĠÙģØ±Ø§Ø³ÙĪ": 5852,
      "ĠØ¨Ø±Ø§Ø¡": 5853,
      "ĠØªÙħØ§Ùĥ": 5854,
      "ÙĥØ±ÙĬØ§Ø¡": 5855,
      "ĠÙħØ§ØºØ§Ø¯ÙĬØ´": 5856,
      "ĠÙħØ±ÙĬØ¶": 5857,
      "ÙĦÙĥØªØ±ÙĪÙĨÙĬØ©": 5858,
      "ĠØ§ÙĦÙĦØºÙĪÙĬ": 5859,
      "ÙĦØ§Ø¡": 5860,
      "ÙħØ¬Ø©": 5861,
      "Ø¹ÙģØ±": 5862,
      "ĠÙĨØ§ØŃÙĬØ©": 5863,
      "ĠØ±Ø¦": 5864,
      "Ø§ÙģÙĪ": 5865,
      "ÙĪÙħÙĬÙĨ": 5866,
      "ĠØ§ÙĦÙĨØ§Ø±": 5867,
      "ÙħØ±ÙĬÙĨ": 5868,
      "ĠØ¨ÙĬØ¯ÙĪ": 5869,
      "ĠØºØ§Ø¯ÙĬÙĬÙĨ": 5870,
      "ĠØ§Ø®ÙĪÙĬØ§": 5871,
      "age": 5872,
      "Ø¬Ø§Ø¯": 5873,
      "ĠÙĩØ¶Ø±Ø©": 5874,
      "ĠØ±ØªØ§ØŃ": 5875,
      "Ø±ÙĬØŃØ§Øª": 5876,
      "ĠØ§ÙĦØªØ®": 5877,
      "Ø§Ø®Ø°": 5878,
      "ĠØ±ÙĬÙģÙĬÙĪ": 5879,
      "ĠÙģØ¹ÙĬÙĨÙĬÙĩ": 5880,
      "ĠÙĦØºØ©": 5881,
      "ĠØŃÙĪØ§Ø¬Ø¨ÙĩØ§": 5882,
      "ÙĬØ·": 5883,
      "ÙĥØ³ÙĬ": 5884,
      "Ø§ÙĬÙģÙĩØ§": 5885,
      "ØªÙĬØ¬Ø©": 5886,
      "ĠØ£Ø±": 5887,
      "ĠØ¹ÙĨÙĩØ§": 5888,
      "Ø±ÙģÙĬÙĨ": 5889,
      "ĠØŃØªØ§ÙĦ": 5890,
      "ĠØ§ÙĦØ±Ø§ØŃØ©": 5891,
      "ĠØ¨ÙĦØ§Ø´": 5892,
      "Ġ2015": 5893,
      "ĠÙģØ´ÙĥÙĦ": 5894,
      "ist": 5895,
      "ØŃØµØ§Ø¡": 5896,
      "ĠØ§ÙĦØ§ÙĤØªØµØ§Ø¯ÙĬØ©": 5897,
      "ĠÙĨØ§ÙĤØµ": 5898,
      "Ø¬Ø§ÙĪØ²": 5899,
      "ĠØ§ÙĦÙĦÙĤØ§Ø¡": 5900,
      "ÙĨØ²ÙĦ": 5901,
      "ÙĩÙĦÙĥ": 5902,
      "ĠÙħÙĪØª": 5903,
      "ĠØ¨Ø¹ÙĬØ¯Ø©": 5904,
      "ĠÙĦØ§ÙĥÙĨ": 5905,
      "ĠÙĨØªØŃ": 5906,
      "ÙĦÙħØ§ÙĨÙĬ": 5907,
      "ÙĦØ¨ÙĪ": 5908,
      "Ø®ÙĦÙĬÙĨÙĬ": 5909,
      "ØµÙĦØŃ": 5910,
      "ĠÙĬØªØ¨Ø¹": 5911,
      "ĠÙħÙĤØ§Ø±ÙĨØ©": 5912,
      "ĠÙĨØ³Ø§": 5913,
      "ĠÙĪØ²ÙĬØ¯": 5914,
      "ĠØ§ÙĦÙħØ³ØªØ´ÙģÙī": 5915,
      "Ġ#": 5916,
      "ĠÙĪÙĬØ§": 5917,
      "ĠÙĨØ¯Ø®ÙĦ": 5918,
      "ĠØ®Ø§Ø·Ø±": 5919,
      "ĠÙĦÙĦØªØ¹": 5920,
      "ÙĪÙĪÙĩ": 5921,
      "ĠÙĩØ§Ø¯ÙĪÙĥ": 5922,
      "ÙħØ±Ø¶": 5923,
      "ÙĪÙĦÙĬÙĥ": 5924,
      "ĠÙĪØ¹Ø§Ø¯": 5925,
      "ĠØ§ÙĦØ²ÙħØ§ÙĨ": 5926,
      "ĠÙģØ§ÙĦÙħØ¬ÙħÙĪØ¹": 5927,
      "ĠØ§ØŃØªÙħØ§ÙĦ": 5928,
      "Ø¯ØŃ": 5929,
      "ÙĤÙĪØ¯": 5930,
      "ĠØ¹Ø§ÙħØ©": 5931,
      "ĠÙĬÙĩØ²": 5932,
      "ĠÙĬÙĩØ¶Ø±": 5933,
      "ĠÙĨÙĪØµ": 5934,
      "ĠØŃÙĪ": 5935,
      "ØºØ¨Ø©": 5936,
      "Ø±ÙĬØ¨ÙĬØ©": 5937,
      "ÙĦØ§ÙĤØ©": 5938,
      "ĠÙģØ§ÙĦØ¨Ø§Ø¨": 5939,
      "ĠØ§ÙĨØ³": 5940,
      "ĠØ§ÙĦØ¬Ø§ÙĬ": 5941,
      "ØªÙĪØ´": 5942,
      "ĠØ§ÙĦÙģÙĦØ§ØŃ": 5943,
      "ĠÙħØŃÙĥ": 5944,
      "Ø¯Ø±ÙĪØ¬": 5945,
      "ĠØ§ÙĦÙħØ³Ø§ÙģØ±ÙĬÙĨ": 5946,
      "ĠØ¹Ø±ÙģØ§Øª": 5947,
      "ĠØ¨ØºÙĬØªÙĥ": 5948,
      "ĠØ¬ÙĦØ³Øª": 5949,
      "ĠÙĪØ§Ø¶ØŃØ©": 5950,
      "ĠÙĨØ¶Ø§ÙĦ": 5951,
      "70": 5952,
      "Ø¨ÙĪÙĦ": 5953,
      "ĠÙĬÙĦØ¹Ø¨": 5954,
      "ĠÙĨÙĤÙĬ": 5955,
      "Ø¶Ø§ÙģØª": 5956,
      "Ø§Ø§ÙĩØ§": 5957,
      "ĠÙĥÙĬØ³ÙħØ¹": 5958,
      "ĠØ£ØŃÙħØ¯": 5959,
      "ĠØ§ÙĦØ¹Ø§Ø¯Ø©": 5960,
      "ĠÙĪÙĩØ²Ø§Øª": 5961,
      "ĠØ§ÙĦÙħÙĪØ§Ø±Ø¯": 5962,
      "Ø§ÙĩÙħØ©": 5963,
      "ĠØ§ÙĦÙģØ±ØµØ©": 5964,
      "ĠÙĨØ²ÙĦÙĪ": 5965,
      "ĠØ¯Ø§Ø®ÙĦØ©": 5966,
      "ĠØ§ÙĦØ±Ø§": 5967,
      "ĠÙĪØ¹ÙĬ": 5968,
      "ĠÙĨØ¨ØªØ©": 5969,
      "ĠÙĦÙĦØ¨ÙĬ": 5970,
      "ĠØ§ÙĦØªÙĤØ±": 5971,
      "ĠØ¨Ø§ÙĦØº": 5972,
      "Ø§ØµØ±Ø©": 5973,
      "ÙĨÙĬØ·Ø±Ø©": 5974,
      "ĠØ¹ÙĦÙĬÙĬÙĩ": 5975,
      "ĠØ§ÙĦÙģÙĤ": 5976,
      "ĠÙĪØ¨Ø§ÙĦ": 5977,
      "ĠÙĪÙĥØ°ÙĦÙĥ": 5978,
      "ØªØ´Ø§Ø±": 5979,
      "ĠØªÙĥÙĪÙĨÙĬ": 5980,
      "ÙĪØ±ÙĬØ§": 5981,
      "ÙģØ§Ø¹ÙĦ": 5982,
      "Ġre": 5983,
      "Ø§ÙĦØ±Ø§Ø¬ÙĦ": 5984,
      "ÙĨØ±ÙĬÙħØ§ÙĨ": 5985,
      "ĠÙĤØ¨ÙĬÙĦØ©": 5986,
      "ĠÙĪÙĥØ§ÙĬÙĨ": 5987,
      "Ø§Ø³ÙĬÙĬÙĨ": 5988,
      "Ø·Ø±Ø§Ùģ": 5989,
      "ĠØªØ¨ØºÙĬ": 5990,
      "ĠØ§Ø®ØªÙĬØ§Ø±": 5991,
      "ĠØŃÙĥÙĪÙħØ©": 5992,
      "ÙħØŃ": 5993,
      "ĠÙĪØ§Ùĩ": 5994,
      "ĠÙĪØ¨Ø±": 5995,
      "ĠØ¨Ø¨Ø·": 5996,
      "ĠÙĥÙĬØ¯ÙĬØ±ÙĪ": 5997,
      "ĠØ§ÙĦØŃØ¬Ø±": 5998,
      "ĠØ§ÙĦÙĪØŃÙĬØ¯Ø©": 5999,
      "ĠØªØ¹Ø§ÙĪØ¯": 6000,
      "ĠÙĪÙĥØ§ÙĬ": 6001,
      "Ġ194": 6002,
      "ĠØ§ÙĪÙĥÙĬ": 6003,
      "ĠÙĩØ¯Ø´ÙĬ": 6004,
      "ĠØ¶ØŃÙī": 6005,
      "Ø¹Ø§ÙĬØ©": 6006,
      "ÙĤØ§ÙĦØª": 6007,
      "ĠØ®Øª": 6008,
      "ÙĪÙĪØ¬": 6009,
      "ĠØ§ÙĦØ¹Ø§ØµÙħØ©": 6010,
      "ĠØ§ÙĦÙĨØªÙĬØ¬Ø©": 6011,
      "ĠØ±Ø§Ø³ÙĩÙħ": 6012,
      "ĠØ§ÙĦÙĪØ§ÙĦÙĬØ¯Ø©": 6013,
      "ĠÙĪÙħØ³Øª": 6014,
      "ĠØ§ÙĦØ¶ÙĪØ¡": 6015,
      "ĠØ§ÙĦØ§Ø¨Øª": 6016,
      "ĠÙģÙĬÙĨØ§": 6017,
      "ĠØªØ¶": 6018,
      "ĠØ§ÙĥØ¨Ø±": 6019,
      "ĠØ®ØªÙĩØ§": 6020,
      "ĠØ§ÙĦØ·ÙĪÙħÙĪØ¨ÙĬÙĦ": 6021,
      "ĠÙħØªÙĨÙĪØ¹Ø©": 6022,
      "ĠÙĪØ¬ÙĩÙĬ": 6023,
      "ÙħØ´Ùī": 6024,
      "ĠØ¹Ø§Ø±ÙģÙĬÙĨ": 6025,
      "ĠÙĥØªØ§ÙģÙĩØ§": 6026,
      "Ø³ÙĪÙĦ": 6027,
      "ĠÙĩØ§Ø§Ø§": 6028,
      "ĠÙĨØ§Ø±ÙĬ": 6029,
      "ĠØ§ÙħØ±": 6030,
      "ĠØ¨Ø§ÙĦØ±Ø¨Ø§Ø·": 6031,
      "Ġ:(": 6032,
      "Ø¯Ø±ÙĩØ§": 6033,
      "ÙĪÙĦÙĬØ§": 6034,
      "ÙĨØ¯Ø³": 6035,
      "ĠØ§ÙĦÙħØ³Ø§Ø¹Ø¯Ø©": 6036,
      "ĠÙħØ§Ø¨ÙĬÙĨ": 6037,
      "Ø¬ÙħØ§ÙĦÙĬ": 6038,
      "ack": 6039,
      "ĠØ§ÙĦØ´Ø¹Ø¨ÙĬØ©": 6040,
      "Ġy": 6041,
      "ĠÙĦÙĬØ³Øª": 6042,
      "ĠØ§ÙĦØ¹ÙĨØ§ÙĪÙĬÙĨ": 6043,
      "Ø¨ÙĪØ¨": 6044,
      "ĠØ§Ø¹ØªÙĤØ§ÙĦ": 6045,
      "ĠØ¨Ø§Ø³ØªØ¹ÙħØ§ÙĦ": 6046,
      "ĠØªØ¹Ø·ÙĬÙĨÙĬ": 6047,
      "Ø¹ÙĪØ¯ÙĬØ©": 6048,
      "ĠØ±ØŃÙħØ©": 6049,
      "ĠØ¨ÙħØ¹ÙĨÙī": 6050,
      "ĠØ¨ÙĨØ³Ø¨Ø©": 6051,
      "ĠÃ": 6052,
      "ĠØ¨ÙħÙĦ": 6053,
      "ĠØ¯Ø®ÙĦÙĬ": 6054,
      "ĠØ§ÙĦÙħØ§ÙĦ": 6055,
      "ĠØ§ÙĦÙĨÙĤØ·": 6056,
      "ĠØ²ÙĨÙĤØ©": 6057,
      "ĠÙĪÙĥØ°Ø§": 6058,
      "ĠÙĪØ£ÙĨØ§": 6059,
      "ĠØ¹ÙĪØ¶": 6060,
      "Ø·ÙĬØ±": 6061,
      "ĠØ§ÙĦÙħØ§ØªØ´": 6062,
      "ĠØ´ÙĩÙĪØ±": 6063,
      "ĠÙĦÙĬÙĬÙĩ": 6064,
      "ĠØ³ÙĥØ§ÙĨ": 6065,
      "ĠØ®ÙĪÙĥ": 6066,
      "ĠØºØ´Øª": 6067,
      "ÙĥÙĪÙĬÙĨ": 6068,
      "ĠÙĦÙĩØ°Ø§": 6069,
      "ĠÙĨØ¸Ø±Ø©": 6070,
      "ĠÙģØ§Ø±ÙĪÙĤ": 6071,
      "ex": 6072,
      "ĠÙĨØº": 6073,
      "ĠØ´Ø±Ø¨": 6074,
      "ØºÙĦØ§ÙĦ": 6075,
      "Ø±ÙĬÙĬÙĨ": 6076,
      "ĠØ¬Ø§Ùĥ": 6077,
      "ĠØ¬Ø§Ùĩ": 6078,
      "ÙĪÙĪÙĪÙĪÙĪ": 6079,
      "ĠØ§ÙĦØµÙħØª": 6080,
      "ĠØ§ÙĦÙĤØ§ÙĨÙĪÙĨÙĬØ©": 6081,
      "ĠØ¬Ø¯Ø§Ø¯": 6082,
      "Ø¨Ø§Ø³": 6083,
      "ĠØ§ÙĦÙĤØ¶Ø§Ø¡": 6084,
      "ĠØ§ÙĦØ¬ÙĨÙĪØ¨ÙĬØ©": 6085,
      "ĠÙĪØ§Ùĥ": 6086,
      "ĠÙĩÙĦ": 6087,
      "ØºÙĬÙĦ": 6088,
      "ĠØ±ÙħØ¶Ø§ÙĨ": 6089,
      "ĠÙĪØ§ÙĦÙħØ´": 6090,
      "ĠØ§ÙĦÙģØ¹": 6091,
      "ÙĦÙħÙĪ": 6092,
      "ÙħØ±Ø¯": 6093,
      "Ø®Ø±ÙĬØ©": 6094,
      "ĠÙĪÙĦØ¯Ùĥ": 6095,
      "ÙĬÙĤØ§Ùģ": 6096,
      "ĠØ¹Ø´Ø±Ø©": 6097,
      "ĠØ´ÙģØ§ÙĬÙģÙĪ": 6098,
      "ĠÙĩØ§Ùĩ": 6099,
      "ĠØ§ÙĦÙħÙĪÙĤÙģ": 6100,
      "ĠØ§Ø§Ùĩ": 6101,
      "ĠØ§ÙĦØ¹Ø±Ø¶": 6102,
      "ĠØ§ÙĦØªØ§Ø¨Ø¹Ø©": 6103,
      "Ø±Ø¬Ø§ÙĦ": 6104,
      "ØºØ±Ø§Ùħ": 6105,
      "ĠÙħÙĦØ§ÙħØŃ": 6106,
      "ĠØ¯Ø¨": 6107,
      "ØµØ¨Ø©": 6108,
      "ĠØ£ÙĪÙĦØ§": 6109,
      "ĠØ§ÙĦØ·Ø¨ÙĬØ¨Ø©": 6110,
      "ĠØ§ÙĦÙĥØ§Ùħ": 6111,
      "ĠÙĪÙĦÙĬØª": 6112,
      "ĠÙħÙģØªÙĪ": 6113,
      "ĠØ§ÙĦØ¨Ø±ÙĦÙħØ§ÙĨ": 6114,
      "Ø§ÙĦØ¨ÙĬ": 6115,
      "ÙħÙĩ": 6116,
      "Ø³ÙģÙĬ": 6117,
      "ĠØ´ØªÙĨØ¨Ø±": 6118,
      "ÙĪÙĨÙĩØ§": 6119,
      "ĠØ®Ø±ÙĬÙĨ": 6120,
      "ĠØ£Ø¹ÙĦÙī": 6121,
      "ĠÙĪØ§ÙĦÙħÙĨ": 6122,
      "ĠÙĥØªØ³Øª": 6123,
      "ĠØ§ÙĦØ¬Ø§Ùħ": 6124,
      "ĠØ§ÙĦØ£ØŃ": 6125,
      "ĠØ§ÙĦÙĤØ¶": 6126,
      "ĠØ§ÙĦØµØºØ§Ø±": 6127,
      "ĠØ§ÙĦØ®Ø¯Ø§ÙħØ©": 6128,
      "ĠØ§ÙĦØ·ÙĦØ¨Ø©": 6129,
      "ĠØ¨ÙĬÙĨØ§Øª": 6130,
      "ÙĩØ±Ø³": 6131,
      "ĠØ®Ø§ÙĬÙģ": 6132,
      "Ø°ÙĥØ±Ùī": 6133,
      "ĠÙħØ´ÙĬØªÙĬ": 6134,
      "29": 6135,
      "://": 6136,
      "ĠÙĬØ®Ø¯ÙħÙĪ": 6137,
      "ĠØ§ÙĦÙħØ¯Ø©": 6138,
      "ĠØ§ÙĦÙħØ±Ø¶": 6139,
      "Ø§Ø¹ÙĦ": 6140,
      "ĠØ§ÙĦØªÙĥ": 6141,
      "ĠÙĪÙĥÙħÙĦ": 6142,
      "ĠØ§ÙĦØ¨Ø±Ø¯": 6143,
      "ĠÙĥÙĬØ¹ÙĨÙĬØ´": 6144,
      "ĠÙħÙĪØ±Ø§": 6145,
      "ĠØ§ÙĨØªØ®": 6146,
      "ĠØ¹Ø§ÙĬØ´Ø©": 6147,
      "ĠÙħØ·ÙĦØ¹Ø©": 6148,
      "Ø¨ØªØ³Ø§ÙħØ©": 6149,
      "ĠØ®ØªÙĥ": 6150,
      "ÙĪÙģØ§Ø¡": 6151,
      "ĠØ§ÙĦØ§Ø³ØªØ±Ø§ØªÙĬ": 6152,
      "ĠØ·ÙĦØ¹ÙĪ": 6153,
      "ÙĨØ²Ø§Ø±": 6154,
      "27": 6155,
      "ÙħØ§ÙĦÙĥ": 6156,
      "Ø±Ø§Ùĥ": 6157,
      "ÙģØ±Ø©": 6158,
      "ĠØ¨ØªØ³": 6159,
      "ĠÙĦØ§Ø¦ØŃØ©": 6160,
      "Ø§Ø¯ÙĦØ©": 6161,
      "ĠØ³ÙĦØ§": 6162,
      "ĠØ§ÙĦÙĨØ§ÙħÙĪØ³ÙĬØ©": 6163,
      "ĠÙħØªØ¹Ø¯Ø¯Ø©": 6164,
      "Ø³Ø±ØŃ": 6165,
      "ĠØªÙħØ§ÙħØ§": 6166,
      "Ø§Ø¹Ø¯Ùĥ": 6167,
      "ĠØ§ÙĦØµØŃØ§ÙģØ©": 6168,
      "ĠØ§ÙĦØ§Øº": 6169,
      "ĠÙĦÙĬØ§Ø§": 6170,
      "ĠØ¨Ø§ÙĦÙĦ": 6171,
      "ĠØ§ÙĨØªÙĩ": 6172,
      "ĠÙħØªØ´": 6173,
      "ĠÙĦØ¹Ø§ÙĦÙħ": 6174,
      "ĠØ§ÙĦØ«ÙħÙĨ": 6175,
      "ĠY": 6176,
      "ĠØªÙĪØ±": 6177,
      "ĠØ®ÙĪÙģ": 6178,
      "ĠÙĥÙĬØº": 6179,
      "Ġ45": 6180,
      "Ø§ÙĪÙĦØ§Øª": 6181,
      "ĠØ§ÙĦÙħÙĤØ¯ÙħØ©": 6182,
      "ĠÙħÙĦØ§Ùĥ": 6183,
      "ĠØ§ÙĦØ¢Ø®Ø±ÙĬÙĨ": 6184,
      "ÙĦÙħÙĬØ°": 6185,
      "ĠØ¨ØªØ§Ø³ÙħØ§Øª": 6186,
      "ÙĨØ§Ø¶": 6187,
      "ĠØªØ¹Ø¯": 6188,
      "ÙĪÙĨØª": 6189,
      "ĠØ¬ÙĨØ©": 6190,
      "Ø£Ùħ": 6191,
      "ÙħÙĪØ§ÙĦ": 6192,
      "Ø³ÙħØ§ØŃ": 6193,
      "ĠÙĥÙĬØªØ¹": 6194,
      "ĠÙĪÙģÙĨÙģØ³": 6195,
      "ĠÙĥØ±Ø³ÙĬ": 6196,
      "ÙĩÙĩÙĩÙĩÙĩ": 6197,
      "ĠØ§ÙĦØ¹ÙħÙĦÙĬØ§Øª": 6198,
      "ĠÙĬØ§ÙĥÙħØ§": 6199,
      "ĠØ§Ø¨ØªØ§Ø³Ùħ": 6200,
      "ĠØ§ÙĦÙĤØ·Ø§Ø¹": 6201,
      "ÙģØªØŃ": 6202,
      "ĠÙĦØ§Øµ": 6203,
      "ĠØªØ§ÙĥÙĦ": 6204,
      "ĠØŃØ¶Ø±": 6205,
      "ĠØ§ÙĦÙħØ²ÙĬØ§ÙĨ": 6206,
      "ĠØ´Ø§Ø±Ùĥ": 6207,
      "ĠØ¬Ø¯ÙĬ": 6208,
      "ĠÙħØªÙĨ": 6209,
      "Ø¬Ø±Ø¯Ø©": 6210,
      "ĠØ§ÙĦØ³ÙĬØ§Ø±Ø§Øª": 6211,
      "Ø¨Ø§ÙĦÙĨØ³Ø¨Ø©": 6212,
      "ĠÙĬØ¯ÙĪØ²": 6213,
      "à¤": 6214,
      "ĠÙĦØªÙĤ": 6215,
      "ĠØ´Ø±ÙĥØ§Øª": 6216,
      "ĠØ±ÙĤ": 6217,
      "ĠÙĥÙĬØªØ±": 6218,
      "ÙĪØ±Ø¬": 6219,
      "ĠØ·Ø§ÙĩØ±Ø©": 6220,
      "ĠÙģØ§ÙĦÙģÙĬ": 6221,
      "ĠØ§ÙĦØµÙĨ": 6222,
      "ĠØ§ÙĦØµÙĬÙģ": 6223,
      "Ø¥ÙĦØ§": 6224,
      "ĠÙĪØ±Ø§Ø¡": 6225,
      "ĠØ¹Ø§ÙħØ§": 6226,
      "ĠØ§ÙħÙĬØ±": 6227,
      "ĠØ¯ÙĪØ±Ø§Øª": 6228,
      "ĠÙĦÙĦØŃÙħØ§Ùħ": 6229,
      "ass": 6230,
      "ĠÙħÙĥØ§ÙĬÙĨØ´": 6231,
      "ïºİï»": 6232,
      "ĠÙĪØ§Ø³Ø¹Ø©": 6233,
      "ĠØ§ÙĦÙħØŃØªÙħÙĦØ©": 6234,
      "ØªØ§ÙĦ": 6235,
      "ĠÙħØ¯Ø§Øª": 6236,
      "ĠØ¨ØªØ±": 6237,
      "ĠÙĥÙĦØ§": 6238,
      "ĠÙģÙī": 6239,
      "ĠÙĩÙĪÙĦ": 6240,
      "ĠÙĨÙĪÙĪ": 6241,
      "ĠÙĪØ§ÙĦÙĩ": 6242,
      "Ø±ÙĪØ³Ø©": 6243,
      "ÙĬÙĬÙĬØª": 6244,
      "ĠØ§ÙĦØ³ÙĥØ±": 6245,
      "ÙĥÙĪÙĨØ´": 6246,
      "ĠÙħØªØ¨Ø¹": 6247,
      "ĠØ§ÙĦÙĪØ³Ø·": 6248,
      "Ø§Ø§Ø§Ø§Ùĥ": 6249,
      "Ø§Ø§Ø§Ø§ÙĨ": 6250,
      "ĠØ§ÙĦØªØ¹ÙĦÙħ": 6251,
      "Ø¹Ø¹Ø¹Ø¹": 6252,
      "ĠÙģØ§ÙĦØ·Ø±ÙĬÙĤ": 6253,
      "ĠÙĪØ¯Ø§Ø±Øª": 6254,
      "ÙħØ§ÙĬ": 6255,
      "ĠÙĦÙĪØ¬": 6256,
      "ĠÙĦØŃØ§ÙĦ": 6257,
      "ĠØ¨Ø§ÙĦÙħÙĪ": 6258,
      "ĠØ·Ø¨ÙĦØ©": 6259,
      "ĠÙģØ§ÙĦØ¨ÙĬ": 6260,
      "ĠØ§ÙĦØŃØ³ÙĬÙħØ©": 6261,
      "ĠØ§ÙĦØ¯ÙĪØ±": 6262,
      "ĠØ§ÙĦÙħØ±Ø§Øª": 6263,
      "ĠØ³Ø§ÙĥØª": 6264,
      "ĠØ§ÙĦØªÙĤØ±ÙĬØ±": 6265,
      "ÙģØ§Ø¯Øª": 6266,
      "ĠØ¨ØªØŃ": 6267,
      "ĠÙĨÙĬÙģ": 6268,
      "ĠÙĨÙĦÙĤØ§ÙĪ": 6269,
      "ĠØ´Ø§": 6270,
      "ĠØ¬Ø§Ø¨Øª": 6271,
      "ĠÙĥØªØºÙĪØª": 6272,
      "ĠØ§ÙĦØ¹Ø¨": 6273,
      "ĠØ§ÙĦØ¨ÙĨ": 6274,
      "ĠØ§ÙĦØ¬ÙĬØ´": 6275,
      "ĠØ§ÙĦÙĨØ§Ø¯ÙĬ": 6276,
      "ĠØ§ÙĦÙĦÙĪÙĦØ©": 6277,
      "ĠÙĥÙĨØŃØ³": 6278,
      "Ø³ÙħØª": 6279,
      "ĠØ¯Ø§Ø±ÙĩØ§": 6280,
      "ĠØ¨ØªØ¹": 6281,
      "ĠØ¬Ø§ÙĦØ³ÙĬÙĨ": 6282,
      "ĠÙĥØ±ÙĬÙħØ©": 6283,
      "ĠÙĦØ§Øª": 6284,
      "Ø´Ø§Ø¡": 6285,
      "ĠØ¹ÙĦØ§ÙĤ": 6286,
      "ĠÙĬÙĦ": 6287,
      "ĠØŃØ§Ø¶ÙĬ": 6288,
      "ĠØ§ÙĦÙħØ¨Ø§Ø±Ø§Ø©": 6289,
      "Ø§ÙĤØ¯": 6290,
      "ĠÙħØªÙĥÙĬ": 6291,
      "Ø¶ÙĬØ¹": 6292,
      "ĠØ¨Ø§Ø§Ø´": 6293,
      "ĠØ´ÙģØªÙĩØ§": 6294,
      "ĠÙĪÙĬÙĦ": 6295,
      "ĠÙĬØ³Ø±": 6296,
      "ĠÙĬØ¬ÙĬØ¨": 6297,
      "ĠÙħÙĨØŃ": 6298,
      "Ø§Ø¨ÙĬÙĨ": 6299,
      "ĠØ®Ø¨Ø§Ø±": 6300,
      "ĠØ¹ÙĨÙĤÙĪ": 6301,
      "ÙĦÙĪØ´": 6302,
      "ÙĦÙħØ§ÙĨÙĬØ§": 6303,
      "ĠØ§ÙĦÙĥÙĩØ±Ø¨": 6304,
      "Ø·ÙĬØ·": 6305,
      "ĠÙħØŃØ§ÙĪÙĦØ©": 6306,
      "Ø³Ø¨Ø§ÙĨÙĬ": 6307,
      "ĠØ§ÙĦÙħÙĨØ§Ø³Ø¨": 6308,
      "ĠØ§ÙĦØ¥ÙĨØªØ±ÙĨØª": 6309,
      "ĠØ§ÙĦØºØ§ÙĦÙĬØ©": 6310,
      "ĠØ§ÙĦÙģØ±Ø§Ø´": 6311,
      "ĠÙģÙĥØ§Ø²Ø§": 6312,
      "Ø¨Ø´ÙĥÙĦ": 6313,
      "âĺħ": 6314,
      "Ø¯ÙĪÙĨ": 6315,
      "ĠØ¨Ø¯ÙĬÙĥ": 6316,
      "ĠØªÙĥØªØ¨": 6317,
      "Ø®ÙĬÙĨ": 6318,
      "ĠÙĨÙĪÙĨ": 6319,
      "ĠÙĨÙģÙĥØ±ÙĪ": 6320,
      "ĠÙĦÙĦØ´Ø±Ø·Ø©": 6321,
      "ØªÙĪØ¨Ø©": 6322,
      "ĠØ¨Ø¹Ø¯Ùħ": 6323,
      "ĠØªÙĨÙģ": 6324,
      "ĠØŃØ¯Ø«": 6325,
      "Ø²ÙĦØ§ÙĨ": 6326,
      "art": 6327,
      "ĠØ¨Ø³ÙĩÙĪÙĦØ©": 6328,
      "Ø¬Ø²Ø¡": 6329,
      "ĠØ®Ø§Ø±Ø¬ÙĬÙĨ": 6330,
      "ĠØŃÙĬØ¯Ø§Øª": 6331,
      "ĠØ³ÙĨØ§ÙĨÙĪ": 6332,
      "âµ": 6333,
      "ĠÙĪØ¶Ø±Ø¨": 6334,
      "ĠØ¹Ø§ÙĪÙĨ": 6335,
      "ĠØªØ¨ÙĬÙĨ": 6336,
      "ĠØ¯Ø±ÙĬ": 6337,
      "ĠÙĩØ§ÙĨØ§": 6338,
      "ĠØºØ¯": 6339,
      "ĠØºØ±ÙĬØ¨Ø©": 6340,
      "ĠÙĤØ§Ø¹Ø¯Ø©": 6341,
      "ĠØ·Ø¨ÙĬ": 6342,
      "ØªØµØºÙĬØ±": 6343,
      "ĠØªÙĨØ¹Ø³": 6344,
      "ĠÙħØ®ÙĨØ²Ø±": 6345,
      "ĠÙĪØµÙĦÙĨØ§": 6346,
      "ĠÙĬØ§ÙĦÙĩ": 6347,
      "ĠØ¨ÙĪØŃØ¯Ùĥ": 6348,
      "ĠÙħØ±ÙĬØŃØ©": 6349,
      "ÙģØ§Ø¡Ø©": 6350,
      "ĠØ§ÙĦØ§Ø´ØªØ±": 6351,
      "ĠØªÙĪØŃØ´ØªÙĥ": 6352,
      "ÙĥØ±ÙĪ": 6353,
      "ĠÙĦÙĤÙĬ": 6354,
      "ĠØ¯Ø§Ø¨Ø©": 6355,
      "ĠØ³Ø¬ÙĦ": 6356,
      "ÙĪÙħØ§ØªÙĬ": 6357,
      "Ø§ÙĤÙħ": 6358,
      "ĠØ¥ÙģØ±ÙĬÙĤÙĬØ§": 6359,
      "ĠØ§ÙĦÙĩØ§ØªÙģ": 6360,
      "ĠØ¹Ø·Ø§ÙĩØ§": 6361,
      "ÙĪÙĬØª": 6362,
      "ÙĥØ¨": 6363,
      "ĠÙĩØ§Ùħ": 6364,
      "ĠØŃØ¬Ø²": 6365,
      "ĠØ³Ø§Ø¹": 6366,
      "ĠØ¨Ø§ÙĦØ§ÙĬ": 6367,
      "ÙĨÙĪØŃ": 6368,
      "ĠØ§ÙĦØ£Ø¹ÙħØ§ÙĦ": 6369,
      "ĠÙĪÙħØŃ": 6370,
      "ĠØ§ÙĦØ²ÙĪØ¬": 6371,
      "ĠØ¸Ø±ÙĪÙģ": 6372,
      "ĠØ·Ø§ÙĦØ¹Ø©": 6373,
      "ĠØ£ØµÙĦØ§": 6374,
      "ĠØ§ÙĦØ¶ÙĬÙĪÙģ": 6375,
      "ah": 6376,
      "pt": 6377,
      "Ø§ÙĦÙī": 6378,
      "ÙĪØ¨ÙĬ": 6379,
      "Ø±Ø§ÙĪ": 6380,
      "ÙĩØ°Ø§": 6381,
      "Ø§ÙĨÙĪÙĨÙĬ": 6382,
      "ĠÙħÙĨÙĤØ¯Ø±Ø´": 6383,
      "ĠØ´ÙĥØ±": 6384,
      "ÙĪÙĦØ´ÙĬ": 6385,
      "ĠÙĥÙĬØ¹Øª": 6386,
      "Ø§ÙĥÙĩ": 6387,
      "ÙħÙĨØ¹": 6388,
      "Ø¶ÙĬØŃØ©": 6389,
      "ØªÙĦÙĩØ§": 6390,
      "Ø¬ÙħØ§Ø¹Ø©": 6391,
      "ĠØ²ÙĬØ§Ø±Ø©": 6392,
      "ĠØ¬ÙĪØ¯Ø©": 6393,
      "Ø¯Ø®Ø§ÙĦ": 6394,
      "ØªÙĪÙĪ": 6395,
      "ĠÙĬØ§ÙħÙĨØ©": 6396,
      "ĠØ´Ø¨Ùĩ": 6397,
      "ĠÙĤÙĬÙħ": 6398,
      "ĠØ¨Ø´ÙĪÙĬ": 6399,
      "Ġ3000": 6400,
      "ĠÙħØ§ØªØª": 6401,
      "ĠØ¨Ø§ØºØ©": 6402,
      "ĠØ¨ØŃÙĥÙħ": 6403,
      "Ø±ÙĪÙĬØ¬": 6404,
      "26": 6405,
      "ĠØ§ÙĦØ§Ø¬": 6406,
      "ĠØ§ÙĦÙĨØªØ§Ø¦Ø¬": 6407,
      "ĠÙĪØ¯Ø§": 6408,
      "ĠØ¨Ø¨Ø±ÙĪ": 6409,
      "Ø§Ø±ÙĬÙĨ": 6410,
      "Ø§Ø¯ÙħØ©": 6411,
      "ĠÙĨØ§ÙĪÙĬ": 6412,
      "ĠÙĥØªØ®ÙĦÙĬ": 6413,
      "ĠØ§ÙĦØ¹ÙĤÙĦ": 6414,
      "ĠØ§ÙĦØªØ¬ÙħØ¹": 6415,
      "ÙĨÙĪØ´": 6416,
      "Ø³ÙĬÙħ": 6417,
      "ĠØ¨ÙĬØ¬": 6418,
      "ĠÙĦÙħØ´": 6419,
      "ÙģØªØ§ØŃ": 6420,
      "ÙĤØ¯Ø±ÙĪ": 6421,
      "ĠØ¹ÙħØ±ÙĨÙĬ": 6422,
      "Ġ80": 6423,
      "ĠÙĩØ§Ø§Ø¯": 6424,
      "ÙĨØ§Ùĩ": 6425,
      "ÙĨØµØ±": 6426,
      "Ø¨ØŃØ§ÙĦ": 6427,
      "ĠØªØªÙħ": 6428,
      "ĠÙĬØ¬Ø¨": 6429,
      "ĠØ§ÙĦÙħØ§Ø³": 6430,
      "ĠØºØ±ÙĬØ¨": 6431,
      "ÙĩÙħØ³": 6432,
      "ĠØ§ÙĦØŃØ¯": 6433,
      "ØªÙĪÙĬ": 6434,
      "ĠØ§ÙĦÙģØ¦Ø§Øª": 6435,
      "ĠØ§ÙĦØ£ÙĩØ¯Ø§Ùģ": 6436,
      "ÙħÙĨÙĬÙĨ": 6437,
      "Ø§Ø¦ÙĬØ§": 6438,
      "ĠÙĬØ¯ÙĬÙĥ": 6439,
      "arn": 6440,
      "ĠØ®ÙĦØµ": 6441,
      "ĠØ§ÙĦØ¯Ø±Ùĥ": 6442,
      "ĠØ§ÙĦÙĪØ¶Ø¹ÙĬØ©": 6443,
      "ĠØ®ÙĦÙģÙĬØ©": 6444,
      "ĠØ§ØŃØ¯": 6445,
      "ĠØ§ÙĦÙĪØ¬Ùĩ": 6446,
      "Ø¯Ùģ": 6447,
      "ĠÙħÙģÙĬ": 6448,
      "ÙģÙĬØ±": 6449,
      "ĠØ¨Ø§ÙĬØª": 6450,
      "ĠØªØ§ÙĩÙĪ": 6451,
      "ØµÙĬÙĦ": 6452,
      "ĠÙĩØ§Ø¨Ø·": 6453,
      "ĠÙĨØ¯Ùħ": 6454,
      "ĠÙĨÙħØ±Ø©": 6455,
      "ĠØ®Ø·Ø©": 6456,
      "ĠÙĪØ§ÙĦØ³ÙĬ": 6457,
      "Ø´ÙĬØ·Ø©": 6458,
      "ĠØ§ÙĦØŃØ§ÙĦÙĬØ©": 6459,
      "ĠØ§ÙĦØ£Ø¯Ø§Ø¡": 6460,
      "ĠÙĪÙĤØ±Ø¨": 6461,
      "ĠØ§ÙĦØ±ØŃ": 6462,
      "ÙĤÙĪÙĦÙĪ": 6463,
      "ĠØ§ØªØµØ§ÙĦ": 6464,
      "ĠØ§ÙĦÙħÙĤØ¨ÙĦØ©": 6465,
      "ĠÙĥØ§Ø§ÙĨ": 6466,
      "ĠÙĨØŃÙĦÙĪÙĩØ§": 6467,
      "pl": 6468,
      "ĠÙĦÙĥØª": 6469,
      "ĠØªØ¨Ø§Ø±Ùĥ": 6470,
      "Ø§Ø±Ùħ": 6471,
      "Ø§Ø¯ÙĩØ§": 6472,
      "ĠÙħÙĨØ²ÙĦ": 6473,
      "ĠØ±ÙĪÙĨ": 6474,
      "ĠØ±Ø§Ùģ": 6475,
      "ĠØ§ÙĦØ³ÙĦØ§ØŃ": 6476,
      "ĠØ§ÙĦØ´ÙĪÙģØ©": 6477,
      "ĠØ¨ÙĬÙĨÙĩØ§": 6478,
      "Ø³Ø¨ÙĤ": 6479,
      "ĠØ¨ØŃØ§ÙĦÙĪ": 6480,
      "ĠÙĥÙĬÙģÙĥØ±": 6481,
      "Ø§Ø±ÙĥÙĬÙĨ": 6482,
      "ĠØªÙĦÙģØª": 6483,
      "ĠÙĦÙħØ¯ÙĬÙĨØ©": 6484,
      "Ø´ÙĬØ±": 6485,
      "Ø¬Ø§ÙĦ": 6486,
      "ĠØ¯Ø§Ùģ": 6487,
      "ĠØŃØ±Ùģ": 6488,
      "ĠÙĦÙĬØ«": 6489,
      "ĠÙĥÙĬÙĦÙĪÙħ": 6490,
      "ÙĪØ±ÙĨ": 6491,
      "ĠØ§ÙĦØ¹Ø´ÙĬØ©": 6492,
      "Ø§ØµØ¨": 6493,
      "ĠØ²ÙĩØ±Ø©": 6494,
      "ØŃØ§ÙĦÙĬÙĦ": 6495,
      "ĠÙĪÙĤØ¹Ø§Øª": 6496,
      "ĠØ§ÙĦØµÙĬ": 6497,
      "Ø¦ÙĬØ©": 6498,
      "ĠÙĦÙħØ³Øª": 6499,
      "ĠØ§ÙĬØ§Øª": 6500,
      "Ġ2011": 6501,
      "ĠØ¬ÙĪØ²ÙĬÙģ": 6502,
      "Ø±Ø§ÙĬ": 6503,
      "ĠÙģÙĪØ¯": 6504,
      "Ø¬Ø§Ø¨Ø©": 6505,
      "ĠØ¹ÙĪ": 6506,
      "ĠØªØ¯ÙĪ": 6507,
      "Ø²Ø§ÙĦØ©": 6508,
      "Ø§Ø³ÙĬØ§": 6509,
      "ĠØ´Ø§Ø±": 6510,
      "ĠÙģÙĬØ¯ÙĩØ§": 6511,
      "Ø§ÙĥÙĬØ©": 6512,
      "ÙĦØ§ÙĤØ§Øª": 6513,
      "Ø§Ø¹ÙĬÙĦ": 6514,
      "Ø±Ø¬Ùģ": 6515,
      "ÙĥÙĬÙĥ": 6516,
      "Ø¬ÙĬØ¨ÙĪ": 6517,
      "ÙĥÙħØ´": 6518,
      "ĠÙĥØ§ÙĬÙĨØ´": 6519,
      "ĠÙħÙģÙĩÙħ": 6520,
      "PI": 6521,
      "Ø§ÙĦÙħØ¹": 6522,
      "ÙĥØ²": 6523,
      "Ø¹Ø§Ø±": 6524,
      "ĠÙģÙĤÙĦØ¨": 6525,
      "ĠØ³Ø§ÙĩÙĦ": 6526,
      "Ø¯ÙĬØ§ÙĦ": 6527,
      "ĠØ§ÙĦØ¯Ø®ÙĦ": 6528,
      "ØŃÙĬÙħ": 6529,
      "Ø§ÙĦØªØ§ÙĦÙĬ": 6530,
      "ĠÙĩØ²Øª": 6531,
      "ĠÙĨØ¹Ø§ÙĪØ¯": 6532,
      "ÙħØ§Ø±Ø³Ø©": 6533,
      "Ġ2000": 6534,
      "ĠÙħØ§ÙģÙĩÙħ": 6535,
      "90": 6536,
      "Ø§ÙĦÙĬØ¯": 6537,
      "ĠÙģØ³ÙĬ": 6538,
      "Ø¶Ø§ÙģÙĬØ©": 6539,
      "Ø§Ø¯ÙĬØ§": 6540,
      "ÙĦØ§ØªÙĪ": 6541,
      "ĠØ¨Ø¹ÙĬÙĨÙĬÙĩØ§": 6542,
      "ĠÙĨÙĪØµÙĦ": 6543,
      "ĠÙħØ§Ø¨ØºÙĬØªØ´": 6544,
      "ĠÙħØ¨Ø§Ø±Ø§Ø©": 6545,
      "ĠÙĦÙĥØ±": 6546,
      "ĠÙĦØ®Ø¯ÙħØ©": 6547,
      "ĠØ³Ø§ÙĬ": 6548,
      "ĠØ£ÙĦÙģ": 6549,
      "ĠØ£ÙĥØªÙĪØ¨Ø±": 6550,
      "Ø´ÙĬØ´": 6551,
      "ĠØªØªØ´ÙĪÙģ": 6552,
      "ĠØ§ÙĦØ²Ø±": 6553,
      "ont": 6554,
      "ĠØ¬ÙĪØ¯ÙĬØ§": 6555,
      "ĠÙĥØªØ¹Ø·ÙĬ": 6556,
      "ĠØ¬Ø§ÙĨØ¨ÙĬØ©": 6557,
      "ĠØ§ÙĦÙĩØ¯": 6558,
      "ĠÙĪØªÙĬ": 6559,
      "ĠØªØ¬ÙĬØ¨": 6560,
      "Ø§ÙħÙĪ": 6561,
      "ĠØ³Ø§ÙĦØ§Øª": 6562,
      "ĠØ¬Ø§Ùħ": 6563,
      "ĠØµØ¯ÙĬÙĤ": 6564,
      "ÙĪÙĤÙĪÙģ": 6565,
      "Ø§ÙĤØ§Øª": 6566,
      "ĠØ§ÙĦÙĨÙħÙĪ": 6567,
      "ĠÙĪØªØ¨": 6568,
      "ĠÙĪØªØ¬": 6569,
      "Ø¯Ø§Ø§Øª": 6570,
      "ĠÙĪØ¬Ø¯": 6571,
      "ĠØ§ÙĦÙħØŃÙĦÙĬ": 6572,
      "ĠØ§ÙĦØ§Ø¬ØªÙħØ§Ø¹": 6573,
      "ĠØ§ÙĦØŃÙĤÙĪÙĤ": 6574,
      "ĠÙĤÙĨØ§Ø©": 6575,
      "Ø®Ø¯ÙĬØ¬Ø©": 6576,
      "ĠØŃØ§ÙĦØª": 6577,
      "ĠØ´Ø§Ø§": 6578,
      "Ø±ÙĬØŃØ©": 6579,
      "ĠØ³ÙħØ±": 6580,
      "ĠØ§ÙĦØ´Ø§Ø¨": 6581,
      "ĠÙħØªØ¨ÙĪØ¹": 6582,
      "Ø¹Ø±ÙģØ´": 6583,
      "ĠÙĥÙĦØ§ÙħÙĪ": 6584,
      "Ġch": 6585,
      "ÙĬØµ": 6586,
      "ĠÙĪØ¹Ùħ": 6587,
      "ĠÙħØ±Ùģ": 6588,
      "ĠÙĦÙĪÙĥ": 6589,
      "ĠØªØ¨Ø§ÙĨ": 6590,
      "ĠØ¯Ùĥ": 6591,
      "ĠÙĬØ®Ø¯Ùħ": 6592,
      "ĠØŃÙĦÙĬÙħØ©": 6593,
      "ĠØ§ÙĦÙħØ±Ùĥ": 6594,
      "ĠØ³Ø§": 6595,
      "ĠØµØ±Ø§ØŃØ©": 6596,
      "ĠØ§ÙĦÙĪØ«": 6597,
      "ĠØ¨Ø¹Ø¯ÙĩØ§": 6598,
      "ĠÙħØ±ÙĪØ±": 6599,
      "Ø§ÙĦØªÙģÙĥÙĬØ±": 6600,
      "ĠØ§ÙĦÙħØªØ¹ÙĦÙĤØ©": 6601,
      "###": 6602,
      "ÙĬØ§Ùĥ": 6603,
      "ÙħÙĩÙħ": 6604,
      "ĠØ³ÙĬÙĦ": 6605,
      "ĠØ¬ÙĬØ¨": 6606,
      "Ø§ÙĩÙĬØ±": 6607,
      "ÙĦÙħØ§ÙĨÙĬØ©": 6608,
      "ĠØ§ÙĦØ·Ø¨ÙĬØ¹ÙĬØ©": 6609,
      "ĠÙħÙĪØ¹Ø¯": 6610,
      "Ø³ÙĨØ©": 6611,
      "ĠØªØªØ¹": 6612,
      "ĠØªÙģØªØŃ": 6613,
      "ÙĪÙĩØ±Ø©": 6614,
      "Ġ2016": 6615,
      "ĠØ¬ÙĨØ¨ÙĩØ§": 6616,
      "ĠØ§ÙĦØµØŃÙĬØŃ": 6617,
      "ØªÙĨÙĩØ¯Ø§Øª": 6618,
      "Ø¨ØµÙĪØª": 6619,
      "ÙĬØ¶": 6620,
      "ØªØ¨Ø§Ø±": 6621,
      "ĠÙģÙĪÙĤØª": 6622,
      "Ø®Ø§ÙģÙĬØ´": 6623,
      "ĠÙĬØŃØª": 6624,
      "ĠÙĬÙĪÙĤØ¹": 6625,
      "ĠØŃØ¯ÙĪØ¯": 6626,
      "ĠØŃØ¨ÙĬØ¨ÙĬ": 6627,
      "ĠØ§Ø§": 6628,
      "ÙĪÙĤÙģÙĪ": 6629,
      "Ø§Ø±ÙĬÙģ": 6630,
      "Ø´Ø±Ø§Ùģ": 6631,
      "Ø§ØªÙĪØ´": 6632,
      "ÙĨÙĩØ¬": 6633,
      "ØµÙĬÙĦØ©": 6634,
      "ĠÙģØ§ÙĦØ£Ø±Ø¶": 6635,
      "ĠØ¨Ø³ÙĬØ·Ø©": 6636,
      "```": 6637,
      "ÙĦØ§Ø©": 6638,
      "ĠØ§ÙĦØ§Ø³Ø¨": 6639,
      "ÙĤØ±Ø§": 6640,
      "ĠØªØºÙĬØ±": 6641,
      "ĠØ§ÙħÙĬ": 6642,
      "ĠØ®Ø¯ÙĩØ§": 6643,
      "ĠÙĤØ§Øª": 6644,
      "Ø£ÙĨ": 6645,
      "Ø§ÙĪÙĥ": 6646,
      "ĠÙħØ³ÙĥÙĬÙĨØ©": 6647,
      "ĠØ³ÙĬÙħØ§ÙĨØ©": 6648,
      "ĠÙĤØ±Ø±Øª": 6649,
      "ÙĪÙĤÙģØ§Øª": 6650,
      "ĠØ§ÙĦÙħØŃØªÙĪÙī": 6651,
      "ĠØ§ÙĦÙħØ¯ÙĨ": 6652,
      "ÙĬÙĬÙĬÙĬÙĬÙĬÙĬÙĬ": 6653,
      "ĠÙĪØ¬ÙĩÙĥ": 6654,
      "ĠØ¬Ø±Ùī": 6655,
      "Ø§Ø¸ÙĪØ±": 6656,
      "Ġde": 6657,
      "Ø¨Ø§Ø³Øª": 6658,
      "ĠÙĪÙĩÙħØ§": 6659,
      "ĠÙħÙĦØ§ÙĦ": 6660,
      "ĠÙĦØ°ÙĦÙĥ": 6661,
      "ĠÙĬÙĩÙĪ": 6662,
      "ĠÙĨØ§Ùģ": 6663,
      "ĠÙĥØ§ÙĨØ´": 6664,
      "ÙĪØªØ©": 6665,
      "Ø¬ÙĬØ´": 6666,
      "ĠØ³ÙĬØ§Ø³ÙĬ": 6667,
      "ĠØªØ¬Ø§ÙĪ": 6668,
      "ĠØ§ÙĦÙĩÙĨØ¯": 6669,
      "ĠØ´ÙģØªÙĥ": 6670,
      "ÙĩÙĬØ¨": 6671,
      "ĠÙħØ§Ø¹Ø§Ø±Ùģ": 6672,
      "ĠÙħØ±ÙĬØ¶Ø©": 6673,
      "ĠÙĨØ¹Ø·ÙĬÙĥ": 6674,
      "ĠÙħØ§Ø¨ÙĤØ§Ø´": 6675,
      "ÙĪØ§Ø±Ø²ÙħÙĬØ§Øª": 6676,
      "ÙĪØ§ÙĨÙĬ": 6677,
      "ÙģÙĪØª": 6678,
      "ĠØ¨ÙĢ": 6679,
      "ĠØ¹ÙĪÙĬÙĨ": 6680,
      "ĠÙĩÙĨØ¯": 6681,
      "Ø²Ùģ": 6682,
      "ĠØµØŃØ©": 6683,
      "ĠØ·Ø§": 6684,
      "ĠØ·Ø±Ø§": 6685,
      "ĠÙħØ³ÙĥÙĬÙĨ": 6686,
      "ÙĤÙĦØ¨ÙĬ": 6687,
      "ĠØ§ÙĦØ¶ØºØ·": 6688,
      "ĠØºØ§ÙĬÙĥÙĪÙĨ": 6689,
      "ĠÙĥÙĬØ´ÙĬØ±": 6690,
      "Ø·Ø¨Ø§Ø¡": 6691,
      "ĠÙĬØ´ÙĪÙģÙĪ": 6692,
      "ĠØªÙĬÙĦÙĬÙģÙĪÙĨÙĩØ§": 6693,
      "ĠØ´Ø¨ÙĥØ©": 6694,
      "Ø±Ø§Ø¶ÙĬ": 6695,
      "ĠØ§ÙĦÙĦØ¨": 6696,
      "ĠØ¨Ø§Ø±Ø¯": 6697,
      "ĠÙģØ¨Ø§ÙĦ": 6698,
      "ÙĦÙĬÙĤØ§Øª": 6699,
      "Ø®Ø§": 6700,
      "Ø²ÙĪÙĨ": 6701,
      "ĠØºØ§Ø¯Ø§": 6702,
      "ĠÙģØ§ÙĦØ³ÙĬ": 6703,
      "ĠÙģØ§ÙĦØ¥": 6704,
      "ĠØ§ÙĦØŃÙĦÙĬØ¨": 6705,
      "ĠØ§ÙĦÙĪØ³": 6706,
      "Ø·ÙĬÙģ": 6707,
      "ĠØ§ÙĦØ´Ø®ØµÙĬØ§Øª": 6708,
      "ĠØ³ÙĥÙĬÙĨØ©": 6709,
      "ĠÙģØ±ÙĬØ§ÙĦ": 6710,
      "ĠÙĨØ¹Ø§ÙĪÙĨÙĥ": 6711,
      "Ø¯Ø§ÙĪ": 6712,
      "ĠØ§ÙĦØ¹ÙĨØ§ØµØ±": 6713,
      "ĠØ§ÙĦØŃØ§Ø¯Ø«": 6714,
      "ĠØ§ÙĨØ§Ø§Ø§": 6715,
      "ĠØ¨ÙĬØ¯ÙĬ": 6716,
      "ĠØ¶Ø±Ø¨Ø©": 6717,
      "ĠØŃÙĬØ§ØªÙĥ": 6718,
      "ĠÙĬÙĤØ¯Ùħ": 6719,
      "Ġ36": 6720,
      "ĠÙĨØ³Ø®Ø©": 6721,
      "ĠØ§ÙĦÙĬÙĪÙħÙĬØ©": 6722,
      "ĠØ§ÙĦÙģØ±ØŃØ©": 6723,
      "ĠÙĦÙģÙĦÙĪØ³": 6724,
      "Ø±Ø±Ø±Ø±": 6725,
      "ĠØºØ§ØªÙĥÙĪÙĨ": 6726,
      "ĠØ¨Ø£ÙĨ": 6727,
      "ĠÙģÙĪØ¬ÙĩÙĪ": 6728,
      "28": 6729,
      "ÙĥØ§Ø¯ÙĬ": 6730,
      "ĠÙħÙĤÙĦ": 6731,
      "ĠØ¨Ø¯ÙĬØª": 6732,
      "ĠØªØ§Ùĥ": 6733,
      "ĠØªØ¬Ø±": 6734,
      "ÙĦÙĬØ§Ø³": 6735,
      "ĠÙĨØ¹ÙĬØ´": 6736,
      "ĠØŃØ§Ø¶": 6737,
      "ĠØ³ÙĦØ§ØŃ": 6738,
      "ĠØ³ÙĩØ§Ùħ": 6739,
      "ĠÙħØ¹Ø¯": 6740,
      "ĠØ§ÙĦÙĨÙħÙĪØ°Ø¬": 6741,
      "Ø®ÙĦØ¹Ø©": 6742,
      "ĠØ¹ÙĬÙĨÙĬÙĥ": 6743,
      "ĠØ¹Ø§ÙħØ±Ø©": 6744,
      "ĠÙĬØ´Ø¯": 6745,
      "ĠØŃÙĥÙĪÙħÙĬ": 6746,
      "ĠØ§ÙĦØªØ£Ø«ÙĬØ±": 6747,
      "qu": 6748,
      "ĠØ¨ÙĦÙĤ": 6749,
      "Ø´Ø¯Ø§Øª": 6750,
      "ĠØ¹Ø±": 6751,
      "ĠØªØ§ÙĪ": 6752,
      "ĠÙĩØ¨Ø©": 6753,
      "ĠÙĬØ¨Ø¯Ø§": 6754,
      "ĠÙĨÙħÙĪØ°Ø¬": 6755,
      "ĠÙħÙĨØ§": 6756,
      "Ø§Ø³ÙħØ©": 6757,
      "ĠØ¬ÙĩØ§Ø¯": 6758,
      "ĠÙĥÙĬØ®Ø¯Ùħ": 6759,
      "ĠØ§ÙĦØªØ§ÙĦÙĬ": 6760,
      "ĠØ§ÙĦÙģØµÙĦ": 6761,
      "ĠØ§ÙĦØ£ÙĥØ«Ø±": 6762,
      "Ø®Ø±Ø§Ø¬": 6763,
      "ĠÙĨÙĤØ·": 6764,
      "ĠØ§Ø´ÙħÙĨ": 6765,
      "Ġ!!!": 6766,
      "ate": 6767,
      "ÙħÙĥØ§ÙĨÙĬØ©": 6768,
      "se": 6769,
      "ÙĨÙĬØª": 6770,
      "ÙħØ§Ø§": 6771,
      "ĠØ§ÙĦÙĬØ³": 6772,
      "Ø¯Ø§Ø²": 6773,
      "ĠÙĪØ¨Ø¯": 6774,
      "ĠÙĥØ³": 6775,
      "ĠØ¯ÙĦÙĬÙĦ": 6776,
      "ĠÙĬØ¬Ø±ÙĬ": 6777,
      "ÙĪÙĦÙģ": 6778,
      "ĠÙĥØªÙģÙĪ": 6779,
      "ĠØ§ÙĦØ¹Ø§ÙĦÙħÙĬ": 6780,
      "ĠØ§ÙĦØŃØ¬Ùħ": 6781,
      "ØŁ!": 6782,
      "ĠØ§ÙĦÙģÙĥØ±Ø©": 6783,
      "ĠØ¥ÙħØ§": 6784,
      "Ø§Ø¦Ø´Ø©": 6785,
      "ĠØ¶ÙĩØ±ÙĩØ§": 6786,
      "ÙĪØ§Ø¬Ùĩ": 6787,
      "ĠØ¨Ø®ÙĪÙģ": 6788,
      "Ġï»Ń": 6789,
      "ĠÂŃ": 6790,
      "ĠØ¨ÙħÙĨØ·ÙĤØ©": 6791,
      "ĠÙĥØ´ÙģØª": 6792,
      "ĠØ¬Ø¹ÙģØ±": 6793,
      "ĠÙĥÙĬØ³ØªØ¹ÙħÙĦ": 6794,
      "ĠØ¨Ø§ÙĦØ¬ÙĪØ§Ø¨": 6795,
      "ÙĨØªØ§": 6796,
      "ĠØ§ÙĦØ¯ÙĤÙĬÙĤØ©": 6797,
      "ĠØªÙĤÙĨÙĬØ§Øª": 6798,
      "ĠØªØŃÙĪÙĦ": 6799,
      "ĠØ¸ÙĦ": 6800,
      "ĠÙħØ§ÙĦÙĩØ§": 6801,
      "ĠÙĩÙĨØ§Ø§": 6802,
      "Ø°ÙĥØ±Ø©": 6803,
      "ÙħØ§Ùĥ": 6804,
      "ĠÙĥÙĨÙĪ": 6805,
      "Ø²ÙĤ": 6806,
      "ĠÙĨØ¯ÙĪØ²": 6807,
      "ĠØŃÙĦÙĬ": 6808,
      "ĠØ§ÙĬØ±": 6809,
      "Ø¶Ø§Ø±": 6810,
      "ÙĦÙħØ§ÙĨ": 6811,
      "ĠØºÙĬÙĥÙĪÙĨ": 6812,
      "ĠÙĪØ±ÙĤØ©": 6813,
      "Ø¶ØŃÙĥÙĪ": 6814,
      "ĠØ§ÙĦØŃØ±Ø§Ø³Ø©": 6815,
      "ĠØŃÙħÙĬØ¯": 6816,
      "Ø£ÙħØ¬Ø§Ø¯": 6817,
      "ÙĩØ¨Ø©": 6818,
      "Ø³Ø¨ÙĪÙĥ": 6819,
      "Ø¬ÙĩØ§Ø¯": 6820,
      "ĠØ±Ø£ÙĬ": 6821,
      "ÙĪÙĦÙĪÙĨ": 6822,
      "ĠØ¬ÙĬÙĨ": 6823,
      "Ø§ÙĤÙĦ": 6824,
      "ĠØªØŃØ±": 6825,
      "ĠÙħØŃØ¯Ø¯Ø©": 6826,
      "ĠØªØµÙħÙĬÙħ": 6827,
      "ÙĪØ§Ø±Øª": 6828,
      "Ġ90": 6829,
      "ĠØ§ÙĦÙĨØ¸Ø±ÙĬØ©": 6830,
      "ik": 6831,
      "ÙĬÙĦØ©": 6832,
      "ÙĬÙĪÙĨØ³": 6833,
      "ĠØ§ÙĦØ²ÙĬØ§Ø¯Ø©": 6834,
      "ĠÙĪØ§Ø¹Øª": 6835,
      "ĠØªÙĪÙĤØ¹": 6836,
      "ĠØªØ§Ø¨Ø¹Ø©": 6837,
      "ĠØªØºÙĬÙĬØ±": 6838,
      "ĠÙģÙĬØ¯": 6839,
      "ĠÙĪØªØµ": 6840,
      "ĠØ§ÙĦØ¯Ø±ÙĪØ¬": 6841,
      "ĠÙħØªØ³": 6842,
      "ĠÙĪÙĨØµ": 6843,
      "ĠÙħÙĤØ±": 6844,
      "Ġ300": 6845,
      "ØŃØ±Ø§Ø±": 6846,
      "ĠÙĨÙģØ³ÙĪ": 6847,
      "ĠØ§ÙĦØ§Ø³ØªØ«ÙħØ§Ø±": 6848,
      "ÙĩØ²Ø§Ø¡": 6849,
      "ĠØ£Ø³Ø§Ø³ÙĬØ©": 6850,
      "ĠÙģØ£ÙĬ": 6851,
      "ĠØ§ÙĦØ¯Ø§Ø®ÙĦØ©": 6852,
      "ĠØ¹Ø¯ÙĨØ§ÙĨ": 6853,
      "ÙĦØ²": 6854,
      "Ø¯ÙĦØ§ÙĦ": 6855,
      "ĠØ³ÙĦÙĬÙħØ§ÙĨ": 6856,
      "ĠØ¬Ø¹ÙĦ": 6857,
      "ĠØµØ§Ùģ": 6858,
      "Ø§ÙĩØ§Ø´": 6859,
      "ĠØ§ÙĦÙĦØ§Ø¹Ø¨ÙĬÙĨ": 6860,
      "ØªØµØ§Ø±": 6861,
      "ĠØ§ÙĦØ¥ÙĨØ¬": 6862,
      "ĠØ§Ø¨ØªØ³Ø§Ùħ": 6863,
      "ĠÙħØ¯Ø±Ø¨": 6864,
      "ïºį": 6865,
      "ĠØ¹Ø´ÙĤ": 6866,
      "45": 6867,
      "ĠØ§ÙĦØ¹Ø²ÙĬØ²": 6868,
      "ĠØ§ÙĦØªÙĩ": 6869,
      "ĠÙģØ§ÙĦØº": 6870,
      "ĠÙģØ§ÙĦÙħÙĪ": 6871,
      "Ø§Ø¦Ø±Ø©": 6872,
      "ĠØ§ÙĦØ¯ÙĥØªÙĪØ±": 6873,
      "Ø²ÙĬØ¯ÙĬ": 6874,
      "Ø§Ø§Ø§Ø§Ùĩ": 6875,
      "ĠÙħØ²ÙĬØ§Ø§ÙĨ": 6876,
      "Ø¨ØºÙĬØ´": 6877,
      "ĠØ§ÙĦÙĪÙĦØ§Ø¯Ø©": 6878,
      "ĠØ³ÙĥØªÙĬ": 6879,
      "ĠØ¹Ø§ÙĪØªØ§ÙĨÙĬ": 6880,
      "ĠÙħØºÙĬØ«": 6881,
      "ĠØ§ÙĦØ¨ÙĬØ¶Ø§ÙĪÙĬ": 6882,
      "ĠØ§Ø¯ÙĬ": 6883,
      "Ø³Ø¹Ø¯": 6884,
      "ĠØ¨Ø¶": 6885,
      "ĠÙĦØ§Ø¹": 6886,
      "Ø´Ø±Ø©": 6887,
      "ĠØªØªØ±": 6888,
      "ĠØªÙĦØ¹Ø¨": 6889,
      "Ø§ÙħØª": 6890,
      "Ø§Ø¬Ø§": 6891,
      "ÙĥÙĦØ´ÙĬ": 6892,
      "ĠØ§ÙĦØ¯Ø®ÙĪÙĦ": 6893,
      "ĠÙĥØ§ØªØ¨": 6894,
      "ĠÙħØ¨ÙĨÙī": 6895,
      "ĠØªØ¨Ø¹Ø¯": 6896,
      "ĠØ§ÙħØ§ÙħØ§": 6897,
      "ĠØµØŃÙĬÙģØ©": 6898,
      "ĠÙģÙĦØŃ": 6899,
      "ĠØ§ÙĦØªÙģØ§ØµÙĬÙĦ": 6900,
      "ĠØ§ÙĦÙħØ¯ÙĬØ±ÙĬØ©": 6901,
      "ĠØ§ÙĦØªØŃØªÙĬØ©": 6902,
      "Ø³Ø§Ø¯": 6903,
      "ØŃØ±ÙĥØ§Øª": 6904,
      "Ø§ØµÙĬ": 6905,
      "Ø§ÙĤÙĪØª": 6906,
      "Ø§Ø·Ø¦": 6907,
      "ĠØ§ÙĦØ®Ø±ÙĪØ¬": 6908,
      "ĠÙħØ±Ø§ØªÙĪ": 6909,
      "Ø¹Ø±ÙģØ©": 6910,
      "ĠÙħØºÙĨ": 6911,
      "ĠÙħØ§ÙĥØ§Øª": 6912,
      "Ø¬ÙħÙĩÙĪØ±": 6913,
      "ĠÙĬØ³ÙħØ¹": 6914,
      "ĠØ®Ø¯ÙħÙĪ": 6915,
      "ÙĨÙĨÙĨÙĨ": 6916,
      "ĠØ¹ÙĤÙĦÙĩØ§": 6917,
      "ĠÙħØ§ÙĥØ§ÙĬÙĨØ´": 6918,
      "ov": 6919,
      "Ġ_": 6920,
      "ĠØªØ¶Ø±Ø¨": 6921,
      "Ø²Øª": 6922,
      "ĠÙĨÙħØ±": 6923,
      "ĠØ®Ø·ÙĪØ§Øª": 6924,
      "ĠÙĬØªØµ": 6925,
      "ĠØŃØ¯Ø§ÙĩÙħ": 6926,
      "ÙĨØ¯ÙĪØ´": 6927,
      "ĠØ¨Ø§ÙĦØ§ÙĬØ¬Ø§Ø¨": 6928,
      "ĠØ§ÙĦÙ¾": 6929,
      "ĠØ¨Ø³Ùħ": 6930,
      "ĠØ¨ÙħØ³": 6931,
      "ĠÙĬØ±Ø¶ÙĬ": 6932,
      "ĠØ±Ø¶Ùī": 6933,
      "ĠØ®Ø°": 6934,
      "Ø§ÙģØ³Ø©": 6935,
      "ĠÙħØ¹ÙĬÙĨ": 6936,
      "Ø§Ø²ÙĬØ©": 6937,
      "Ø¥Ø°ÙĨ": 6938,
      "ÙĪÙĬØ¶": 6939,
      "ĠÙħÙĤØ·Ø¹": 6940,
      "ĠØ§ÙĦØ¯ÙĪØ±ÙĬ": 6941,
      "ĠØ´Ø±ØŃ": 6942,
      "ĠØ§ÙĦØ¯ÙħÙĪØ¹": 6943,
      "ĠÙĨÙģØ³ÙĬ": 6944,
      "ĠÙĦØ¨ÙĦØ§ØµØ©": 6945,
      "ĠÙħØ³Ø¤ÙĪÙĦ": 6946,
      "ĠØ¬Ø¨ÙĩØªÙĩØ§": 6947,
      "ĠØ§ÙĦØŃÙħØ±Ø§Ø¡": 6948,
      "ĠÙĥØ§ÙĦØ³": 6949,
      "Ø¶Ø±Ø§": 6950,
      "Ø§Ø´Ùģ": 6951,
      "ĠØ®Ø§ÙĦØ¯": 6952,
      "Ø¯ÙĪØ©": 6953,
      "ĠØ§ÙĦØŃØ¨Ø³": 6954,
      "ĠØ§ÙĦØ³ÙĦØ³ÙĦØ©": 6955,
      "ĠØ§ÙĦÙĥÙĪØ²ÙĬÙĨØ©": 6956,
      "ĠØ§ÙĦÙĥØ§ØªØ¨": 6957,
      "ĠÙģØ¹ÙĨÙĤÙĩØ§": 6958,
      "ĠØºÙĨÙħØ´ÙĬ": 6959,
      "********": 6960,
      "ĠØ§ÙĦØ¬Ø²Ø¡": 6961,
      "ĠØ§ÙĦÙģÙĦØ§ØŃØ©": 6962,
      "Ø¨Ø¯Ø©": 6963,
      "ĠÙĪØ®ÙĦÙĬ": 6964,
      "ĠÙħØ¯Ø±": 6965,
      "ĠÙħÙģØ±": 6966,
      "ĠÙħØ¨ÙĤ": 6967,
      "ĠØ¨Ø±ÙĥØ§ÙĨ": 6968,
      "ĠØ£Ø¨": 6969,
      "Ø¯ÙĪÙĬØ©": 6970,
      "Ø§ÙĩØ´": 6971,
      "ĠØ§ÙĦØ¬ÙĩØ§Øª": 6972,
      "Ø§Ø±ÙĬÙĬÙĨ": 6973,
      "ĠÙĥÙĨØ¹Ø±Ùģ": 6974,
      "ĠØ§ÙĦØ±Ø³ÙħÙĬØ©": 6975,
      "ĠØ¨ØŃØ§ÙĦÙĩØ§": 6976,
      "ĠÙħØ³ØªØ®ÙĦØµ": 6977,
      "ĠØµØ¨Ø±ÙĬ": 6978,
      "ĠØ§ÙĦØ¹Ø¯ÙĦ": 6979,
      "ĠØ§ÙĦØ±Ø³Ø§ÙĦØ©": 6980,
      "ĠØ§ÙĦØ¹ÙĦØ§Ø¬": 6981,
      "Ø§ÙĦÙħÙĪ": 6982,
      "Ø´Ùĩ": 6983,
      "Ø¬ØªÙħØ¹": 6984,
      "Ø·ÙĪÙĦ": 6985,
      "ĠØ¯ÙĪØ±Ø©": 6986,
      "ĠØ±Øµ": 6987,
      "ĠÙĪØ§ÙĦØªÙĤ": 6988,
      "ĠØ§ÙĦØªÙĦØ§ÙħÙĬØ°": 6989,
      "ĠÙģØ§ÙĦØ²ÙĨÙĤØ©": 6990,
      "Ø§Ø®Ø±Ø©": 6991,
      "ĠÙħØ´ÙĬØ±Ø§": 6992,
      "ĠØ§ÙĦØ±Ùħ": 6993,
      "ĠÙĪÙĨØ²ÙĦ": 6994,
      "ØªØ±Ø§Ùģ": 6995,
      "ĠØ§Ø³ØªØ®Ø¯Ùħ": 6996,
      "........": 6997,
      "ĠØªØ¬Ø§Ùĩ": 6998,
      "ĠØ§ÙĦØ±ÙĬÙģ": 6999,
      "ĠØ±Ø§Ø¬ÙĦÙĥ": 7000,
      "ĠØ§ÙĦÙħØªÙĪØ³Ø·": 7001,
      "ĠØ§ÙĦÙĨØ´Ø§Ø·": 7002,
      "Ø±ÙĨ": 7003,
      "ÙĩÙĨØ§": 7004,
      "Ø©Ø©": 7005,
      "ĠØŃØ¯ÙĬØ«": 7006,
      "ĠØ§ÙĦÙħØ¬Ø±": 7007,
      "Ø§Ø´ÙĨÙĪ": 7008,
      "Ø«ÙĬ": 7009,
      "ĠÙĥØªØ§ÙĥÙĦ": 7010,
      "ÙĪÙĤØ§Øª": 7011,
      "Ø§Ø¦Ø¯Ø©": 7012,
      "ĠØ§ÙĦÙĦØ§Ø²ÙħØ©": 7013,
      "ĠØ§ÙĦØ®Ø·ÙĪØ©": 7014,
      "ĠÙĪØ³Ø§ÙĬ": 7015,
      "ĠØ§ÙĦØªÙĤØ¯Ùħ": 7016,
      "ĠØ§ÙĦÙĤÙĬÙħØ©": 7017,
      "ÙħÙĪÙĦ": 7018,
      "ĠÙĥØ§ÙĦ": 7019,
      "Ø´ÙĥØ±Ø§": 7020,
      "ĠÙĬØ§Ø§Ùĥ": 7021,
      "ĠÙĨØ±Ø¬Ø¹ÙĪ": 7022,
      "ĠØ±Ø´ÙĬØ¯": 7023,
      "ĠØºÙĬØª": 7024,
      "Ø®ÙĦØ¹": 7025,
      "ĠÙħØ´Øº": 7026,
      "ĠØ¨Ø¹ÙĬÙĨÙĬÙĩ": 7027,
      "ĠØ¯Ø±Ø§Ø³Ø©": 7028,
      "ĠØ§ØŃÙħØ¯": 7029,
      "ĠÙģØ¹Ø§Ùħ": 7030,
      "ÙĬÙĩÙħ": 7031,
      "ÙĪÙĩÙĪ": 7032,
      "Ø´ÙĨ": 7033,
      "ĠØªØ±Ø¬": 7034,
      "ĠÙĨÙĪØ±ÙĬ": 7035,
      "ĠØ®ØªØ§Ø±": 7036,
      "ĠØºØ¨Ø±": 7037,
      "Ø«ÙĪÙħ": 7038,
      "ĠØµØ§ÙĥÙĩØ§": 7039,
      "ĠÙģØ§ÙĦØ¨ÙĬØª": 7040,
      "ĠØ§ÙĦØ³Ø±ÙĬ": 7041,
      "ÙĦÙĪØ©": 7042,
      "Ø¯Ø±Ø§": 7043,
      "ÙģÙĬÙĦ": 7044,
      "ĠØ¨ÙĬØ¶Ø©": 7045,
      "ÙĪØ¯Ø§Ø¡": 7046,
      "ĠØ§ÙĦÙĥØ¨Ø§Ø±": 7047,
      "ĠÙĪØŃÙĬØ¯": 7048,
      "Ø§Ø°Ø¬": 7049,
      "ĠÙģØ§ÙĦÙħÙĬØ©": 7050,
      "ĠØ§ÙĦÙħØ¯Ø±Ø¨": 7051,
      "ĠØ§ÙĦØ¯Ø±Ø§Ø³Ø©": 7052,
      "ĠØ§ÙĦÙĪÙģØ§Ø©": 7053,
      "ĠÙħØŃÙĥÙħØ©": 7054,
      "ĠÙħØ¨ÙĦØº": 7055,
      "Ø®Ùħ": 7056,
      "ĠØ±Ø§Ø§": 7057,
      "ĠØ®Ø§ÙĪÙĬØ©": 7058,
      "ĠØºØ¶": 7059,
      "ĠÙĥÙĬØªÙĥ": 7060,
      "Ø¯ÙĬØªÙĬ": 7061,
      "ĠÙĦÙĦÙħØ±": 7062,
      "ÙĪÙĪØ³": 7063,
      "ĠØ§ÙĦØ¹ÙĪØ§ÙħÙĦ": 7064,
      "ĠØ¨Ø§ÙĦØ§ÙĨ": 7065,
      "Ø¬ÙĬÙĪ": 7066,
      "ØªÙħØ§Ø¯": 7067,
      "ĠØ¨ØŃØ²ÙĨ": 7068,
      "ĠØ³Ø§ÙĥÙĨÙĬÙĨ": 7069,
      "ĠØ§ÙĦØ¸Ø±ÙĪÙģ": 7070,
      "ĠÙģÙĪØ¬ÙĩÙĩØ§": 7071,
      "Ġand": 7072,
      "ĠÙħØ¯Ùħ": 7073,
      "ĠØªÙĥØª": 7074,
      "ĠÙĨØ¨ÙĤÙī": 7075,
      "ĠØŃØ¯Ø¯": 7076,
      "Ø±ÙĬØ²": 7077,
      "ĠÙĥØªØº": 7078,
      "ĠØ¨ÙĬØ¦Ø©": 7079,
      "ĠÙħØªÙĪÙĤØ¹": 7080,
      "Ø¥ÙĦÙī": 7081,
      "ĠÙĪØ§Ø§Ø´": 7082,
      "ĠÙĪØ§Ø§ØŃØ¯": 7083,
      "Ø¯Ø§Ø±ÙĬØ©": 7084,
      "ĠØ§ÙĦØ«Ø§ÙĦØ«Ø©": 7085,
      "ĠÙĩØ²ÙĪ": 7086,
      "ĠØ§ÙĦØªØ¹Ø§ÙĪÙĨ": 7087,
      "ĠÙĥÙĦØ§ÙħÙĩØ§": 7088,
      "Ø¶ÙħÙĨÙĪ": 7089,
      "ĠØ¨ØŃÙĬØ«": 7090,
      "Ø¯ÙģØ¹": 7091,
      "Ø¨Ø§Ø¯": 7092,
      "ĠÙĪØ¨ÙĦ": 7093,
      "ĠÙģØ§ØªÙĬ": 7094,
      "ĠØºØ§Ø§": 7095,
      "ĠÙĥØªØŃØ±Ùĥ": 7096,
      "ĠØ¥ÙĨØ´Ø§Ø¡": 7097,
      "ĠÙĪØªØ§": 7098,
      "ÙĤÙĬÙĩ": 7099,
      "ĠÙĦÙħÙĥ": 7100,
      "ĠØ¹ÙħØ§Ø±": 7101,
      "ĠÙħØ§ÙĥØ§ÙĬ": 7102,
      "ĠÙģÙĩØ§Ø¯Ø´ÙĬ": 7103,
      "ĠØ£Ø³Ø¯": 7104,
      "iz": 7105,
      "pp": 7106,
      "ĠØ§ÙĦÙĥØªØ¨": 7107,
      "Ø¨Ø§ÙĬ": 7108,
      "Ø¹ÙĤØ¯": 7109,
      "ĠÙĦØ¹ÙĬ": 7110,
      "ĠØªØ¨ÙĤØ§": 7111,
      "ĠÙĨÙĥÙħÙĦ": 7112,
      "ĠØ´Ø§Ø§Ùģ": 7113,
      "ĠÙĤÙĩÙĪØ©": 7114,
      "ĠØ§ÙĦØªØ§ÙĨÙĬ": 7115,
      "ĠØ§ÙĦØ¨Ø¯Ø§ÙĬØ©": 7116,
      "ĠØ§ÙĦÙģÙĬØ±ÙĪØ³": 7117,
      "ĠØ§ÙĦØ´Ø§Ø±Ø¹": 7118,
      "ĠÙĪØ¬ÙħØ¹": 7119,
      "ÙģØ±Ø§Ø´": 7120,
      "ĠÙĥÙĨØŃ": 7121,
      "ĠÙħØ±Ø§ÙĤØ¨Ø©": 7122,
      "ĠØªÙĨÙģÙĬØ°": 7123,
      "Ø³ÙĪØ·": 7124,
      "ï»®": 7125,
      "ĠÙĪÙĦÙĬØªÙĬ": 7126,
      "ĠÙĨØ®ÙĦÙĬÙĥ": 7127,
      "ĠØ§ÙĦØ¨Ø´Ø±ÙĬØ©": 7128,
      "Ø¹Ø§ÙĪÙĨ": 7129,
      "Ø¬Ø³ÙĪØ±": 7130,
      "ĠØ¹Ø±ÙĤ": 7131,
      "ĠØ¯Ø®ÙĪÙĦ": 7132,
      "ĠÙĬØ¹Ø¯": 7133,
      "ĠÙĬØ¨ÙĦØº": 7134,
      "Ø£ÙĥÙĬØ¯": 7135,
      "Ø¸ÙħØ§Øª": 7136,
      "Ø¨ÙĪÙĩ": 7137,
      "ĠÙĦØ¹ÙĤØ¯": 7138,
      "ĠÙĥÙĬØªØ³": 7139,
      "Ġ35": 7140,
      "ØŁØŁØŁØŁ": 7141,
      "ØºÙħØ¶": 7142,
      "ĠSt": 7143,
      "ĠØªØ´ÙĪÙģÙĪ": 7144,
      "ĠÙĦÙĤØ§ØªÙĩØ§": 7145,
      "ĠÙĪØ±Ø¬Ø¹Øª": 7146,
      "ĠÙħÙĦØ§ÙħØŃÙĩØ§": 7147,
      "ĠØªÙĪÙģÙĬØ±": 7148,
      "ĠØ§ÙĦØ§ÙĦ": 7149,
      "ĠÙĥØ¯ÙĪØ±": 7150,
      "ĠØŃÙĦÙħ": 7151,
      "ĠØ¬Ø§Ø§": 7152,
      "ĠØ§ÙĦØ¹ÙĤØ¯": 7153,
      "ÙģÙĬØ¯ÙĬÙĪ": 7154,
      "ĠØ§ÙĦØµØ¯ÙħØ©": 7155,
      "ĠØ¶Ø§Ø±Øª": 7156,
      "Ø¥ÙĬ": 7157,
      "ĠÙĨØ³ÙĬØª": 7158,
      "ĠØ§ÙĦÙħØ±Ø§ÙĤØ¨Ø©": 7159,
      "ĠÙħØ¯Ø±ÙĬØ¯": 7160,
      "ĠØ®ØµÙĨÙĬ": 7161,
      "ÙĪÙħÙĪØ¨ÙĬÙĦØ§Øª": 7162,
      "ĠØ§ÙĦÙħÙĨØªØ¬Ø§Øª": 7163,
      "Ø¯ÙħÙĪØ¹ÙĩØ§": 7164,
      "ĠØ¬Ø¨ÙĩØ©": 7165,
      "99": 7166,
      "ĠÙĪØ³Øª": 7167,
      "ĠØ±Ø¯Ø©": 7168,
      "ĠÙĤØ±Ø§": 7169,
      "ĠØ§ÙĨÙĨÙĬ": 7170,
      "Ø¨ÙĪØ´": 7171,
      "ĠÙĪÙħØ§Øª": 7172,
      "Ø¬ÙĬØ¹": 7173,
      "ĠÙħØ±Ø§Ø¬Ø¹Ø©": 7174,
      "ĠØ´Ø¹ÙĪØ±": 7175,
      "ĠÙĪÙĥÙĦØ´ÙĬ": 7176,
      "ĠØ±ÙĪØ¹Ø©": 7177,
      "ĠÙģØŃÙĬØ§ØªÙĬ": 7178,
      "ĠØ§Ø±ØªÙģØ§Ø¹": 7179,
      "ĠØ§ÙĦØ§ÙĪÙĦÙī": 7180,
      "ĠØŃØ¨ÙĬØ¨ØªÙĬ": 7181,
      "ĠØ±Ø¦Ø¨Ø§ÙĦ": 7182,
      "ÙĨØ·": 7183,
      "ĠÙħÙĩØ¯": 7184,
      "ĠØ´Ø¬Ø±Ø©": 7185,
      "ĠØ§ÙĦØªÙĪÙĤ": 7186,
      "ĠÙģØ§ÙĦÙħØ¯ÙĬÙĨØ©": 7187,
      "Ø¯ÙħØ§Ø¬": 7188,
      "Ø¯Ø±Ø§ÙĦÙĬØ©": 7189,
      "ĠØ§ÙĦÙĨØ²": 7190,
      "ĠØ§ÙĦÙĥØ«ÙĬØ±": 7191,
      "Ø¹ÙĦÙĨØª": 7192,
      "ĠØ£ÙĨÙĩÙħ": 7193,
      "ĠØ§ÙĦØ²ÙĬØª": 7194,
      "ĠÙħØ²ÙĪØ¬": 7195,
      "Ø§Ø°ÙĬ": 7196,
      "ÙĪÙĩÙĬ": 7197,
      "ĠØ§ÙĦØ³ÙĬØ§ØŃÙĬØ©": 7198,
      "ÙħØ§Ø±Ø§": 7199,
      "ÙħØ§Ø±Ø³Ø§Øª": 7200,
      "ĠØ§ÙĪÙĦØ§": 7201,
      "ĠÙħØ§ÙĦÙĥÙĬ": 7202,
      "Ø·Ø¨Ø®": 7203,
      "ĠÙħØ³ÙĬ": 7204,
      "Ø³ÙħØ©": 7205,
      "Ø¬ÙĦØ©": 7206,
      "ØµÙĦØ©": 7207,
      "Ø®ÙĨ": 7208,
      "ĠÙħÙĨØµØ¨": 7209,
      "Ø§Ø¬Ø¨": 7210,
      "Ø³ØªØ¹ÙħÙĦÙĪ": 7211,
      "ĠÙĪÙĤÙģÙĪ": 7212,
      "ĠØ§ÙĦØ¯ÙģØ§Ø¹": 7213,
      "ĠØ³ÙĬØ§ÙĤ": 7214,
      "ØªØ±Ø§Øª": 7215,
      "ĠØ±ÙĬØ§ÙĦ": 7216,
      "Ú¯ÙĪØ±ÙĬ": 7217,
      "ĠØ¨ØµØ¹ÙĪØ¨Ø©": 7218,
      "ĠÙģÙħÙĥ": 7219,
      "ĠØ¹Ø·Ø§Ùĩ": 7220,
      "Ø¨ØºÙĬÙĥ": 7221,
      "ÙĨÙĩØ§ÙĬØ©": 7222,
      "ÙĩÙĩÙĩÙĩÙĩÙĩÙĩÙĩ": 7223,
      "ĠÙħØ¹Ø§ÙĥÙħ": 7224,
      "ĠØ¯Ø§Ø²ÙĪ": 7225,
      "ĠØ¶ØŃÙĥØ©": 7226,
      "ĠØ¶ØŃÙĥØª": 7227,
      "ĠØ§ÙĦØ¬ÙĩÙĪÙĬØ©": 7228,
      "ĠÙĩØ§Ø±ÙĪÙĨ": 7229,
      "ÙĤØ§Ø·Ø¹": 7230,
      "ØµØ§ÙĦØ§Øª": 7231,
      "Ø§Ø±ØªÙĪ": 7232,
      "ĠÙĬÙĪØ±ÙĪ": 7233,
      "ĠØ³Ø§Ùħ": 7234,
      "Ø§Ø¹Ø´": 7235,
      "Ø§Ø¬Ø¦": 7236,
      "ÙħØ§Ø§Øª": 7237,
      "ĠØªØªØ¹ÙĦÙĤ": 7238,
      "Ø¨ØªÙĩ": 7239,
      "ĠØ¨ÙĪØ§Ø³": 7240,
      "ĠØªØ²Ø§Ø¯": 7241,
      "ÙĪÙħÙĬØ²": 7242,
      "ĠØ§ÙĦØ§Ø³ØªÙĬ": 7243,
      "ell": 7244,
      "ÙĦÙĥØªØ±ÙĪÙĨÙĬ": 7245,
      "ĠØªÙģÙĥÙĬØ±": 7246,
      "ĠÙĪÙĥØªØ¨": 7247,
      "ĠÙĥÙĦØ¨": 7248,
      "ĠØªØ·ÙĪØ§ÙĨ": 7249,
      "Ø§ÙĨÙĪØª": 7250,
      "ĠØŃÙħØ¯": 7251,
      "Ø±ÙĪØ©": 7252,
      "ĠÙģØ§ÙĦØ®Ø¯ÙħØ©": 7253,
      "ÙĪÙĬÙĬÙĨ": 7254,
      "ĠØ¨ØŃØ¯Ø©": 7255,
      "ĠØ§ÙĦØ³ÙĦØ§ÙħØ©": 7256,
      "Ø¬Ø²Ø§Ø¡": 7257,
      "ĠÙĨÙĬÙĪÙĬÙĪØ±Ùĥ": 7258,
      "ĠØ·ÙĬØŃ": 7259,
      "ure": 7260,
      "ĠÙħØ§Ùĩ": 7261,
      "Ø³ØªÙĬ": 7262,
      "ĠØ¯ÙħØ¹Ø©": 7263,
      "Ø®ÙĦØ©": 7264,
      "ĠØ¬ÙĪÙĩØ±Ø©": 7265,
      "ĠØ§ÙĦØ¬Ø±ÙĬÙħØ©": 7266,
      "ÙĪØ³Ø¹": 7267,
      "ĠØ´ÙģØªÙĪ": 7268,
      "Ġ2012": 7269,
      "ĠØ§ÙĤØ¨Ø§ÙĦ": 7270,
      "ĠØ§ÙĦØ§Ø¨ØªØ³Ø§ÙħØ©": 7271,
      "Ø´ÙĥØ§ÙĦ": 7272,
      "ĠÙĪÙĦÙī": 7273,
      "ĠÙħØ³Ø¨": 7274,
      "ÙĤÙĦØ©": 7275,
      "ÙģÙī": 7276,
      "ÙģØ§ÙĩÙħ": 7277,
      "ĠÙĬØ§Ø§": 7278,
      "ĠØ§ÙĦÙħØ§ÙĦÙĬ": 7279,
      "ĠØ§ÙĦÙħØ§Ø¶ÙĬØ©": 7280,
      "Ø§Ø§Ø§ØŃ": 7281,
      "ĠÙĤØ¶Ø§ÙĬ": 7282,
      "ĠØ¬Ø¨Ø±": 7283,
      "Ø«ÙĨÙĬÙĨ": 7284,
      "ÙħÙĦØ§Ùĥ": 7285,
      "Ø¨ÙĪØ§": 7286,
      "ĠØ§ÙĦÙĪØ¹ÙĬ": 7287,
      "ĠØªØ¹Øª": 7288,
      "ĠØªØ¹ØµØ¨": 7289,
      "ĠØ±ÙĬØ§Ø¶": 7290,
      "ĠØ§ÙĩÙī": 7291,
      "ĠÙĥØ±Ùĩ": 7292,
      "ĠØ¨ÙĨØªÙĥ": 7293,
      "ĠÙħØŃØªØ§Ø¬Ø©": 7294,
      "ĠØ§ÙĦØ£Ø³Ø¦ÙĦØ©": 7295,
      "ĠÙĥÙĬØµÙĪÙĨÙĬ": 7296,
      "Ø£ÙĥØ¯Ø©": 7297,
      "ES": 7298,
      "ÙĥÙĪØ¨": 7299,
      "ĠØ¨Ø§Ø¹": 7300,
      "ĠÙĦÙĥÙħ": 7301,
      "ĠÙĨØ¹ÙĬ": 7302,
      "ĠÙĨØ²ÙĬØ¯": 7303,
      "ĠØ´Ø¨Ø§Ø¨": 7304,
      "ĠÙħØ¹ÙĨÙĤ": 7305,
      "ĠØ£ÙģØ¶ÙĦ": 7306,
      "ĠØ§ÙĦØªÙĦÙĬÙģÙĪÙĨ": 7307,
      "ĠØ¶Ø¹Ùģ": 7308,
      "ĠØ¨ÙĨØªÙĪ": 7309,
      "ĠØªØ³ÙĪÙĦ": 7310,
      "Ø·Ø±Ø·ÙĤ": 7311,
      "ĠØªØ±ÙĥÙĬØ§": 7312,
      "ÙĦÙĬÙħØ§Øª": 7313,
      "ĠØ¨ØŃØ¨": 7314,
      "ÙĦØ§ÙĤØ§ÙĪ": 7315,
      "ĠØ¬ÙĦØ³ÙĪ": 7316,
      "ĠØ¬ÙĦØ³Ø©": 7317,
      "Ø¹Ø·ÙĬÙĨÙĬ": 7318,
      "ost": 7319,
      "ĠÙħØµØ¯ÙĪÙħ": 7320,
      "ĠØ§Ø®ØªØ¨Ø§Ø±": 7321,
      "ĠÙĪØ®Øµ": 7322,
      "ĠØ¨ØªÙĨ": 7323,
      "ĠÙĥØ§Ø¶": 7324,
      "ĠØªØ¶ÙħÙĨ": 7325,
      "ĠØŃØ§Ø§": 7326,
      "ĠÙĥØªÙģÙĩØ§": 7327,
      "ĠØµÙħØª": 7328,
      "ĠØ¨Ø§ÙĦØ¨ÙĬ": 7329,
      "ĠØ§ÙĦÙģÙĪØ±": 7330,
      "Ø§Ø¦Ø²Ø©": 7331,
      "ØŃÙĬØ¯ÙĪ": 7332,
      "ĠØ¨ÙĬÙĨØ§ØªÙĨØ§": 7333,
      "ĠÙĦØ£ÙĨ": 7334,
      "ĠØ§ÙĦÙħØµØ§ÙĦØŃ": 7335,
      "ĠØ³ÙħØ¹ØªÙĬ": 7336,
      "ĠÙĩØ¯Ùģ": 7337,
      "Ø§ÙĦÙĦÙĦÙĬ": 7338,
      "Ø±Ø§Ø±": 7339,
      "Ø¯Ø¨ÙĬØ±": 7340,
      "ĠÙĪÙħÙĬ": 7341,
      "ĠØ¨ØªÙĤ": 7342,
      "ØµØ¯Ø±": 7343,
      "ĠØ§ÙĦÙħØ§Ø¯Ø©": 7344,
      "ĠÙĥÙĬØ¬": 7345,
      "Ø§ÙĥØ±Ø©": 7346,
      "Ø§ÙĨÙĬØ§Øª": 7347,
      "ØªØµØ§Ø¯ÙĬØ©": 7348,
      "ĠÙĪØ¹ÙĬÙĨÙĬÙĩ": 7349,
      "Ø¹ÙĪØ§Ùħ": 7350,
      "ĠØ§ÙĦÙħØ±ØªØ¨Ø·Ø©": 7351,
      "ĠØ¹Ø·Ø§": 7352,
      "ang": 7353,
      "ĠØ§ÙĦØªØ±Ø§Ø¨": 7354,
      "ĠØ¬ÙħÙĩÙĪØ±": 7355,
      "ĠØ§ÙĦØµÙģØŃØ©": 7356,
      "tps": 7357,
      "arning": 7358,
      "ain": 7359,
      "ÙĤØ§ÙĦØ©": 7360,
      "ĠÙĥØ¨": 7361,
      "ĠÙĥØ§Ø¨": 7362,
      "ĠØ¯Ø§Ø§": 7363,
      "ĠØ±ÙĪØ¨": 7364,
      "ĠØªØŃØ¯Ø¯": 7365,
      "Ø§Ø¨ÙĬØ¹": 7366,
      "ĠØªØ³ØªØ®Ø¯Ùħ": 7367,
      "ĠØ±ÙĥØ¨Ø§Øª": 7368,
      "Ġst": 7369,
      "ĠÙĦÙĩØ§Ø¯Ø´ÙĬ": 7370,
      "ĠØ®ÙĦØ§ØªÙĩØ§": 7371,
      "ĠÙĦØ¨ÙĦØ§Ø¯": 7372,
      "Ġ;": 7373,
      "ÙĬØ¯Ø©": 7374,
      "ĠÙĦØŃÙĬ": 7375,
      "ĠÙĥÙĪÙĨÙĬ": 7376,
      "ĠÙĨØ§Ø¯ÙĬØ©": 7377,
      "ĠØ§ÙĬÙĨ": 7378,
      "ĠØ´Ø±Ùģ": 7379,
      "Ø´ÙĬÙħØ§Ø¡": 7380,
      "ØŃÙĬØŃ": 7381,
      "ĠÙĥÙĨÙĤÙĪÙĦ": 7382,
      "ĠØªÙĨÙģØ³": 7383,
      "ÙħØªØ§": 7384,
      "ĠØªØ¨Ø³ÙħØ§Øª": 7385,
      "ĠØ§ÙĦØŃÙĥÙĪÙħÙĬ": 7386,
      "Ø³ÙĥÙĦÙĬØª": 7387,
      "ĠØ¨Ø§ÙĦØ¹ÙĥØ³": 7388,
      "ĠØªÙĪØµÙĦØª": 7389,
      "ĠÙĥÙĨØ¨ØºÙĬÙĥ": 7390,
      "ÙħÙħØ©": 7391,
      "ĠØ¨Ø±ÙĬØ·": 7392,
      "ĠÙĥØ°": 7393,
      "ĠØŃØ±Ø¨": 7394,
      "ĠØŃÙĤÙĬÙĤÙĬØ©": 7395,
      "ÙĬØ±ÙĬÙĨ": 7396,
      "ÙĪØ±Ø§": 7397,
      "ĠØ£ØµÙĦ": 7398,
      "ĠØ§ÙĦØŃÙĪØ§Ø±": 7399,
      "ĠØªÙĤØ·Ø¹": 7400,
      "Ø¨Ø¯ÙĦÙĪ": 7401,
      "ĠÙĪØ´Ø¯": 7402,
      "ĠØ§ÙĦÙħØ´Ø§Ø±ÙĥØ©": 7403,
      "ĠØ§ÙĦØ³ÙĬØ§Ø³Ø©": 7404,
      "ant": 7405,
      "ĠÙģØŃØ§ÙĦØ©": 7406,
      "ĠØ§ÙĦØ§Ø´ØªØ±Ø§ÙĥÙĬ": 7407,
      "ÙĩØ¦": 7408,
      "Ø¯Ø®ÙĦÙĪ": 7409,
      "Ø¹ÙĩØ¯": 7410,
      "ĠØ¨ÙĬÙĨÙĬ": 7411,
      "ĠÙĦØ§ÙĦ": 7412,
      "ĠØ¹Øª": 7413,
      "ĠÙĥÙĬØ²": 7414,
      "Ø§ÙĥØ§": 7415,
      "ĠØµØ¯ÙĤ": 7416,
      "Ø±ÙĪÙĤØ§Øª": 7417,
      "Ø§Ø·ÙĦ": 7418,
      "ĠØ§ÙĦØ´Ùģ": 7419,
      "ĠØ§ÙĦØ¯ÙĤ": 7420,
      "Ø¨Ø§ÙĨÙĬØ§": 7421,
      "ĠÙĦÙĪØ·ÙĪ": 7422,
      "ĠÙĦØ¨ÙĬØªÙĪ": 7423,
      "ĠÙħØ§ÙħØ§ÙĩØ§": 7424,
      "ĠØ§ÙĦØªÙĤÙĦÙĬØ¯ÙĬØ©": 7425,
      "ÙĨØ§Ø±": 7426,
      "ØªÙĦÙĥ": 7427,
      "ĠÙĥÙĪÙĦÙĬ": 7428,
      "ĠØªÙĬØ³": 7429,
      "ĠÙħÙĨØ¸ÙħØ©": 7430,
      "ĠØ±Ø´": 7431,
      "ĠØ¬Ø§ÙħØ¹": 7432,
      "ĠØ§ÙĦØ¬ÙĪØ¬": 7433,
      "Ø²ÙĬÙĪÙĨ": 7434,
      "ĠØ§ÙĬØ¯ÙĬÙĩ": 7435,
      "ĠØ§ÙĦØ¥ÙĨØ³Ø§ÙĨ": 7436,
      "ĠØªØ³Ø§Ø¹Ø¯": 7437,
      "ÙĬÙĬÙĬÙĥ": 7438,
      "ĠØ§ÙĦØ´ÙĬØ®": 7439,
      "Â».": 7440,
      "ĠÙĬÙħØ´ÙĬÙĪ": 7441,
      "ĠØ§ÙĦÙĨÙģØ³ÙĬØ©": 7442,
      "ĠØ§ÙĦØ¨Ø·ÙĪÙĦØ©": 7443,
      "ÙĨØ§Ùĥ": 7444,
      "ÙĩØ´Ø©": 7445,
      "ĠÙħØ·Ø§Ø±": 7446,
      "ĠØ¨ÙĪÙĪ": 7447,
      "ĠØªÙĪØ±Ø·": 7448,
      "ĠÙĩØ±Ø¨": 7449,
      "ĠÙĬØ·ÙĦØ¨": 7450,
      "ĠØŃØ¶": 7451,
      "Ø§Ø¨Ø³Ø©": 7452,
      "ĠØ³Ø§Ø¬Ø¯": 7453,
      "Ø¯ÙĬÙĦØ§Øª": 7454,
      "ĠÙħØ¹Øª": 7455,
      "ĠØ§ÙĦØ£ÙħØ±ÙĬÙĥÙĬ": 7456,
      "ĠØ§ÙĦÙĤØ§Ø¶ÙĬ": 7457,
      "ÙħÙĨØµÙĪØ±": 7458,
      "Ø§Ø¦ÙĬØ§Øª": 7459,
      "Ø§ÙĦÙĬÙĪÙħ": 7460,
      "ĠÙħØ³Ø±": 7461,
      "ĠØ§Ø³ØªØ¹ÙħØ§ÙĦ": 7462,
      "ĠØ°Ø§ØªÙĩØ§": 7463,
      "ĠÙģÙĪÙĤØ§Ø´": 7464,
      "ØŃØ³ÙĬÙĨ": 7465,
      "ĠÙĤØ±Ø§Ø±Ø§Øª": 7466,
      "ĠØ§ÙĦØ¯ÙĪØ§": 7467,
      "Ø®Ø·Ø§Ø¡": 7468,
      "ĠØ§ÙĦØ«ÙĤØ§ÙģÙĬØ©": 7469,
      "ĠØ§ÙĦØ®ØµØ§Ø¦Øµ": 7470,
      "ne": 7471,
      "ÙĬØ§Ø¨": 7472,
      "Ø§ÙĨØ´": 7473,
      "ĠÙĬÙĪØ±ÙĬ": 7474,
      "ĠÙĬÙħÙĬÙĨ": 7475,
      "Ø§Ø¨ÙĦÙĪ": 7476,
      "ĠØ®Ø¯ÙĪ": 7477,
      "ĠÙĤØ§ÙĦÙĥ": 7478,
      "ĠØ¬Ø«Ø©": 7479,
      "ĠÙĥØªÙĪÙģØ±": 7480,
      "ĠØ§ÙĦØ¹ÙĪØ¯Ø©": 7481,
      "ĠØ§ÙĦÙĤÙĪØ§Øª": 7482,
      "Ø®ÙĦÙĤÙĪ": 7483,
      "ĠÙĪÙĦÙĤ": 7484,
      "ÙģÙĬÙĬÙĨ": 7485,
      "ĠÙĥÙĦÙħØ§": 7486,
      "Ø§ØªÙĩØ§Ø§": 7487,
      "ĠÙĪÙģÙĬÙĨ": 7488,
      "ĠØ§ÙĦÙħØ¹ÙĨÙĬØ©": 7489,
      "ÙħØ´ÙĥÙĦ": 7490,
      "ĠØ§ÙĦØ´ÙĬØ¡": 7491,
      "ÙĤØµÙī": 7492,
      "ĠÙĪØ·ÙĦØ¨": 7493,
      "ĠØ§ÙĦØ¬ÙħØ§Ø¹Ø©": 7494,
      "achine": 7495,
      "Ø³Ø§ÙĦÙĬ": 7496,
      "ØŃÙĨØ§": 7497,
      "ØŃØ³Ø¨": 7498,
      "ĠÙģØ±Ø¶": 7499,
      "ĠØ¹ÙĬØ§": 7500,
      "ĠØ§Ø§Ø§Ùĩ": 7501,
      "ĠØ³Ø§Ùĩ": 7502,
      "ĠØ³ÙĪØ³": 7503,
      "ĠÙĤÙĪØ³": 7504,
      "ĠÙĥÙĬØ¨ÙĪØ³": 7505,
      "ĠØ§ÙĦØ¬ÙĪÙĬØ©": 7506,
      "ØªÙĪØŃØ´": 7507,
      "Ø§ÙĦÙĬÙĥ": 7508,
      "ĠÙĪÙħÙĤ": 7509,
      "Ø¬ÙĬÙĩØ©": 7510,
      "Ø§ØºÙĬØ´": 7511,
      "ĠÙĬØªØ¶ÙħÙĨ": 7512,
      "ĠØ¨ÙĦØ§ÙĦ": 7513,
      "ĠØ§ÙĦÙħÙĪØ§ÙĤØ¹": 7514,
      "ĠØ§ÙĦØ«ÙĤØ©": 7515,
      "ĠÙħØ²ÙĬØ±Ø©": 7516,
      "ĠØ®ØµÙĥ": 7517,
      "ĠÙĬØ´Ø±ÙĬ": 7518,
      "ĠØ§ÙĦÙģÙĬÙĦØ§": 7519,
      "ĠØ§ÙĦØ§ÙĤØªØµØ§Ø¯": 7520,
      "Ø¸ÙĬÙģØ©": 7521,
      "ĠÙħØ±Ùĥ": 7522,
      "ĠÙĩØ§ÙĩÙĬ": 7523,
      "ĠØ§ÙĦÙħÙĩØ§Ùħ": 7524,
      "ĠØ´Ø¹ÙĦ": 7525,
      "ĠØ®Ø§Ø§": 7526,
      "ĠÙĪØ§ÙĦØ±ÙĬ": 7527,
      "ĠÙĦÙĦÙĪØ±": 7528,
      "ĠØµØ¨Ø¹": 7529,
      "ĠØ§ÙĦØŃØ¯ÙĬØ«": 7530,
      "ÙĪÙģÙĬØ¯": 7531,
      "ØªÙĪØ§": 7532,
      "ĠØ¹ÙĨØ¯ÙĩØ§Ø´": 7533,
      "ĠØ§ÙĦØ·Ø§Ø¨ÙĤ": 7534,
      "ĠÙħØªØ£ÙĥØ¯": 7535,
      "ÙĥØ§ÙĨÙĪ": 7536,
      "ĠÙĨØªØ²ÙĪØ¬": 7537,
      "ĠØ³ÙĬØ§Ø³ÙĬØ©": 7538,
      "ÙģÙĪØ§ÙĨ": 7539,
      "Ø¨Ø§ØªØ§Øª": 7540,
      "ĠØ§ÙĦÙħØ¹Ø·ÙĬØ§Øª": 7541,
      "Ø¹Ø±ÙģÙĪØ´": 7542,
      "ÙĦØ§ÙĤÙĬØ©": 7543,
      "ĠÙħØ§ÙĦÙĤ": 7544,
      "ĠÙĦØºØ±ÙģØ©": 7545,
      "ĠØ¯ÙĤØ§Ø¦ÙĤ": 7546,
      "Ø·Ø§ÙĦÙĬØ§": 7547,
      "Ø§ÙĬØ³Ø¨ÙĪÙĥ": 7548,
      "¤£": 7549,
      "Ø¨ÙĦÙĬ": 7550,
      "ĠÙĪÙĪØ¬": 7551,
      "Ø³Ø±Ø©": 7552,
      "ĠÙĦÙĪØŃ": 7553,
      "ĠØ¹Ø±Ø³": 7554,
      "Ø²ÙĩØ§": 7555,
      "ĠÙĬØŃÙĦ": 7556,
      "ĠØŃÙĤÙĬÙĤØ©": 7557,
      "ÙĬØ±ÙĬØ§": 7558,
      "ĠØ§ÙĦØ¹Ø´Ø§": 7559,
      "ĠØ§ÙĦØ£Ø®ÙĬØ±": 7560,
      "ĠØ§ÙĦØ±Ø§Ø¨Ø¹": 7561,
      "ĠÙĨØªØ§Ø¦Ø¬": 7562,
      "ĠØ§ÙĦÙħÙĨØ·ÙĤ": 7563,
      "ĠØŃØ¯Ø§ÙĬØ§": 7564,
      "Ġ2013": 7565,
      "Ø¨ÙĬØ¨ØªÙĬ": 7566,
      "ĠØ§ÙĦØ§Ø¨ØªØ¯Ø§ÙĬ": 7567,
      "ĠØ¨ÙĪØ§Ø³Ø·Ø©": 7568,
      "ĠØ§ÙĦØ¶ØŃÙĥ": 7569,
      "ÙĩÙī": 7570,
      "ĠÙĪÙĪÙģ": 7571,
      "ĠÙĥÙħÙĬØ©": 7572,
      "ĠØ¯ÙĪÙĬ": 7573,
      "ĠØ§ÙĦÙħØ±Ø¶Ùī": 7574,
      "ĠØ·ÙģÙĦ": 7575,
      "ĠØ¹ÙĦÙĬÙĬÙĥ": 7576,
      "...)": 7577,
      "ĠØªØŃÙĬØ¯": 7578,
      "ĠÙģØ±Øµ": 7579,
      "Ø¹ÙħØ§Ø±": 7580,
      "ĠØªÙĨØ²ÙĦ": 7581,
      "ĠÙħØ³ØªÙĤØ¨ÙĦ": 7582,
      "ĠÙĬÙĪÙħÙĬÙĨ": 7583,
      "ĠØ·ÙĦØ¨Ø§Øª": 7584,
      "ĠÙĬØ¹Ø·ÙĬÙĥ": 7585,
      "ĠØºÙħØ¶Ø§Øª": 7586,
      "ĠØ¨ÙĪØ³Ø©": 7587,
      "Ġlearning": 7588,
      "Ø¹Ø§ÙĨ": 7589,
      "ĠÙĥØ§Ø±Ø¯": 7590,
      "ĠÙģÙĪÙĦ": 7591,
      "ĠÙĨÙĪÙģ": 7592,
      "ĠØ±Ø§Ø§Ùĩ": 7593,
      "ĠÙĥÙĬØªØµ": 7594,
      "ÙĪØ±ÙĬÙĨ": 7595,
      "ĠÙĥØªÙĤØ¯Ùħ": 7596,
      "Ø´ÙĬØª": 7597,
      "Ø³ØªÙĤØ¨ÙĦ": 7598,
      "ĠØ¹ÙĦÙĬØ§Ø§": 7599,
      "Ø§ÙĪÙĩØ§": 7600,
      "ÙĨØªØ¬": 7601,
      "ĠØ§ÙĦØ®ÙĦÙĬ": 7602,
      "ĠÙĪÙħØ¯": 7603,
      "Ø¶Ø±Ø§Øª": 7604,
      "ÙĨØ¯ÙĨ": 7605,
      "ÙĦØ§ÙĦØ§Øª": 7606,
      "ĠØ¨ØªØ¹Ø¨": 7607,
      "ÙģÙģÙģÙģ": 7608,
      "ĠÙĨÙĬØ§Ø±": 7609,
      "ĠØ¹Ø¯ÙĨ": 7610,
      "ĠØŃØ§Ø§Ø¬Ø©": 7611,
      "ÙĬØ³Ø©": 7612,
      "ÙĬÙĪØ³Ùģ": 7613,
      "ÙģÙĦØ§Øª": 7614,
      "Ø¬Ø¹ÙĪ": 7615,
      "ÙĦÙĬÙĪÙĨ": 7616,
      "ĠÙĬØ·ÙĦÙĤ": 7617,
      "ĠØŃÙĨÙĥÙĩØ§": 7618,
      "Ø§Ø³Ø¯": 7619,
      "ĠØ®Ùģ": 7620,
      "ĠÙģØ§ÙĦÙħØ±": 7621,
      "ĠØ§ÙĦØ³Ø¹ÙĪØ¯ÙĬØ©": 7622,
      "Ø§ÙĪØ©": 7623,
      "ÙĬØ¯Ø§": 7624,
      "ĠØ§ÙĦÙĤØ³Ùħ": 7625,
      "ÙĦØ¨ÙĩØ§": 7626,
      "Ø´ÙĪÙģÙĬ": 7627,
      "Ø§ÙĦÙĬÙģ": 7628,
      "ĠÙĪØŃÙĨØ§": 7629,
      "ĠÙĪØ¨Øº": 7630,
      "ĠØ¨Ø´Ø§": 7631,
      "ĠØ§ØªÙģØ§ÙĤ": 7632,
      "Ø§ÙĨØªØ§": 7633,
      "ĠØ§ÙĦÙħØŃØ§ÙħÙĬ": 7634,
      "ĠØ§ÙĦØ¨ÙĦØ§Øº": 7635,
      "Ø¬Ø§Ø¨ÙĪØª": 7636,
      "ĠØ²Ø§Ø¯ÙĩÙĪÙħ": 7637,
      "ÙĪÙĦÙĪØ¬ÙĬØ©": 7638,
      "ĠÙĥØªØ´ÙħÙĦ": 7639,
      "ĠIn": 7640,
      "ĠØ§Ø¨ØªØ¯Ø§Ø¡": 7641,
      "ĠÙĦÙĦÙĥÙĪØ²ÙĬÙĨØ©": 7642,
      "ĠØ¯Ø§Ø±ÙĬØ¬Ø§Ø¨ÙĪØª": 7643,
      "ĠÙĦÙĥÙĬ": 7644,
      "ĠÙĬÙĪØµÙĦÙĪ": 7645,
      "Ø§Ø¨ÙĤØ§": 7646,
      "Ø§Ø´Ø§Øª": 7647,
      "ĠØ±ÙĩÙĨ": 7648,
      "ĠÙĥÙĬØ¹Ø±Ùģ": 7649,
      "ĠÙĦÙĦÙħÙĨ": 7650,
      "ĠØ§ÙĦØªØ§ÙĦÙĬØ©": 7651,
      "ÙĨÙĬÙħ": 7652,
      "ÙĦÙĪØ¨Ø©": 7653,
      "ĠØ§ÙĦØ¬Ø³Ùħ": 7654,
      "Ø§Ø·ÙĦÙĬÙĨ": 7655,
      "ĠØ¥Ø¯Ø§Ø±Ø©": 7656,
      "Ø§Ø¦ÙĦØ§Øª": 7657,
      "Ø§Ø§Ø§Ø§Ø§Ø§Ø§": 7658,
      "ĠÙĦØ¨Ø³Øª": 7659,
      "ĠØ§Ø®Ø§ÙĦØªÙĬ": 7660,
      "ĠÙĬØ¹Øª": 7661,
      "ÙĦØªÙĩ": 7662,
      "ĠÙĪÙģØ§ÙĦ": 7663,
      "Ġ48": 7664,
      "ĠØ³ØªØ©": 7665,
      "ĠØ¹Ø§Ø§Ø¯": 7666,
      "ĠÙĦÙģØª": 7667,
      "Ø¬ÙĪÙĨ": 7668,
      "ĠØªØ§Ùħ": 7669,
      "ĠØ¯ÙĤØ§Øª": 7670,
      "ĠÙĨØ¨ÙĤØ§": 7671,
      "ĠØ§ÙĦÙħØŃØ¯": 7672,
      "ĠÙħÙĨØ´": 7673,
      "ĠÙħÙĨØ²": 7674,
      "ĠÙĥØªØ²ÙĬØ¯": 7675,
      "ĠØµÙĤØ±": 7676,
      "ĠØ¨Ø§ÙĦÙħØ¹": 7677,
      "ĠØ§ÙĦØŃÙģØ§Ø¸": 7678,
      "ĠØ§ÙĦÙĤÙĪØ§ÙĨÙĬÙĨ": 7679,
      "ÙħØ±Øª": 7680,
      "ØŃØ¯Ø¯ÙĪ": 7681,
      "ĠØ³ÙħÙĬØ±": 7682,
      "ĠÙĤØ±Ø¹Ø©": 7683,
      "ÙĨØ¬Ø§Ø²": 7684,
      "ÙħØ¬ÙħÙĪØ¹Ø©": 7685,
      "ĠØ§ÙĦØ§ÙĤØªØµØ§Ø¯ÙĬ": 7686,
      "Ø±Ø²Ø§ÙĨ": 7687,
      "ĠÙħØ§Ø·": 7688,
      "ÙĤØªÙĦ": 7689,
      "ĠÙĦØ§Ø§Ø§": 7690,
      "ÙĦÙĬØ²ÙĬ": 7691,
      "Ø§Ø±ÙĤØ©": 7692,
      "ĠÙĬØ®Øµ": 7693,
      "ĠØ®ÙĦØ¹": 7694,
      "ĠØºØ§Ø¯ÙĬÙĨ": 7695,
      "ĠÙĦÙĦØ¹ÙħÙĦ": 7696,
      "ĠØµØ±Ùģ": 7697,
      "Ø§ÙĩØ©": 7698,
      "ĠØ·ÙĬØ¨": 7699,
      "Ø¯Ø§Ø§Ø±": 7700,
      "ĠØ§ÙĦÙĥØ§ÙħÙĦ": 7701,
      "ĠØ§ÙĦÙĥÙħØ¨ÙĬ": 7702,
      "ĠÙĪØŃØ¯ÙĬÙĨ": 7703,
      "ĠØ§ÙĦØ²ÙĬÙĨ": 7704,
      "ĠØªÙħØªÙħ": 7705,
      "end": 7706,
      "ĠØŃÙħØ²Ø©": 7707,
      "ĠØ§ÙĦÙĪØ±Ø¯": 7708,
      "ĠÙĨØ®Ø±Ø¬ÙĪ": 7709,
      "ĠÙĨÙĪÙĨØ¨Ø±": 7710,
      "35": 7711,
      "48": 7712,
      "ĠØ¯ÙĪØ±ÙĬ": 7713,
      "ĠØ®ÙĪÙĩØ§": 7714,
      "Ø§ØŃÙħ": 7715,
      "ĠØ£Ø¯Ø§Ø¡": 7716,
      "ĠØµÙĪÙĨØ§": 7717,
      "ĠØµØŃÙĬØ©": 7718,
      "ĠØ§ÙĦØ³Ø§Ùĥ": 7719,
      "Ø§ÙĪØ§": 7720,
      "ĠØ´ÙĬØŃ": 7721,
      "Ø³ÙħÙĬØ±": 7722,
      "ĠÙħØ±ØªØ§ØŃ": 7723,
      "ĠÙĦÙĤÙī": 7724,
      "Ø±ÙĤÙĬØ©": 7725,
      "ĠØ§ØªØ®Ø§Ø°": 7726,
      "ĠØ£Ø³Ø§Ø³ÙĬ": 7727,
      "ĠØªÙĥØ§Øª": 7728,
      "ĠØ³Ø§ÙĥÙĨØ©": 7729,
      "ĠØµÙģÙĪÙģ": 7730,
      "ĠÙĥÙĬÙĤÙĪÙĦÙĪ": 7731,
      "ĠØ±ÙĬØŃØ§ÙĨ": 7732,
      "ĠĊĊĠ": 7733,
      "rb": 7734,
      "ÙĤÙĪØ³": 7735,
      "Ø³ÙĦØ³ÙĦØ©": 7736,
      "ĠÙĦØ§Ø§": 7737,
      "ĠØªØ¹ÙĬ": 7738,
      "Ø·Ø±ÙĬÙĤØ©": 7739,
      "ĠØ¯Ø¹": 7740,
      "ĠÙĬÙĥÙĨ": 7741,
      "ĠÙĥÙĬØ¯Ø®ÙĦ": 7742,
      "ĠÙĥÙĬØ¯ÙĪØ±": 7743,
      "ĠÙĦÙĦÙģÙĬ": 7744,
      "ĠØ§ÙĦØŃÙĪ": 7745,
      "ÙĨÙĪÙĬ": 7746,
      "ĠØ§ÙĦØ®Ø¶Ø±": 7747,
      "Ø¨Ø¹Ø§Ø¯": 7748,
      "Ġ2022": 7749,
      "ĠØ¢Ø´": 7750,
      "ĠØ¹ÙĬÙĬØª": 7751,
      "ĠÙĨØ¹Ø³Ø§Øª": 7752,
      "Ø·ÙĦØ¹Ø§Øª": 7753,
      "ĠØ¨Ø§ØºÙĬÙĬÙĨ": 7754,
      "Ġ70": 7755,
      "Ø®Ø§ØµÙĥ": 7756,
      "ĠØªØ¹Ø±ÙģÙĬ": 7757,
      "Ġ~.": 7758,
      "ĠÙħÙĪØ¬ÙĪØ¯Ø©": 7759,
      "ĠÙĦØ§ØŃØ¸": 7760,
      "ĠØ§ÙĦØ¹ÙĬØ§ÙĦØ§Øª": 7761,
      "ĠØ±ÙģÙĤØ©": 7762,
      "ĠÚ¤": 7763,
      "ÙĪØ¨Ø©": 7764,
      "ÙĩÙĪÙĦ": 7765,
      "ĠØ¨ÙĪØ¹": 7766,
      "ĠØ¨ÙĤÙĬØªÙĬ": 7767,
      "ĠØªÙĪÙģØ±": 7768,
      "ĠØ£ÙĥÙĬØ¯": 7769,
      "ĠÙĥØªØª": 7770,
      "ĠØ§ÙĦØ¬ÙĪØ¯Ø©": 7771,
      "ĠØ¶ØºØ·": 7772,
      "ĠÙĪÙĬØ§Ùĥ": 7773,
      "ĠØ¨Ø¯ÙĦØ§Øª": 7774,
      "ØºÙĬØ±Ø§Øª": 7775,
      "ĠÙĨØ¬ÙĪÙħ": 7776,
      "ĠØ§ÙĦØªÙĤÙĨÙĬØ©": 7777,
      "ĠÙĤØ·Ø§Ø¹": 7778,
      "ĠØ±Ø§Ø¬ÙĦÙĬ": 7779,
      "ÙĤØ²": 7780,
      "ĠÙĦÙĥÙĪÙĨ": 7781,
      "ĠÙĦØ¯ÙĬÙĥ": 7782,
      "Ø§ØªØ§": 7783,
      "Ø²ÙĪØ§Ø¬": 7784,
      "Ø§Ø¨ÙĪØ±": 7785,
      "ĠØºØ§Ùħ": 7786,
      "ĠØ£ØºÙĨÙĬØ©": 7787,
      "ĠÙĦÙĦØº": 7788,
      "ĠØ·ÙħÙĪØ¨ÙĬÙĦ": 7789,
      "ĠØ¹ÙĨØ¯ÙĥÙħ": 7790,
      "ĠØ§ÙĦØ·ÙĪÙĬÙĦ": 7791,
      "ĠÙģÙĬÙĩÙĪÙħ": 7792,
      "ĠØ§ÙĦØºØ¯Ø§": 7793,
      "ï»²": 7794,
      "ĠØ§ÙĦÙħØ±ØŃÙĦØ©": 7795,
      "ĠØ§ÙĦÙħØ³ØªØ´Ø§Ø±": 7796,
      "ĠØ§Ø³ÙĬÙĦ": 7797,
      "ĠØ§ÙĦÙħØ¯ÙĨÙĬ": 7798,
      "ĠÙĦØ¬ÙĩØ©": 7799,
      "ĠØ§ÙĦØ·ÙĬØ§Ø±Ø©": 7800,
      "ĠØ§ÙĦÙħÙħØ±Ø¶Ø©": 7801,
      "ÙĤÙĦÙĬÙħÙĬ": 7802,
      "ĠØ±ÙĬÙĨØ§ÙĦ": 7803,
      "ĠÙħØ¸": 7804,
      "Ø²ÙĨØ³": 7805,
      "ĠÙĬØ¨ÙĤØ§ÙĪ": 7806,
      "ĠØŃÙħØ§ÙĬØ©": 7807,
      "ĠØ´ØºÙĦ": 7808,
      "Ø¯ÙĬÙĪÙĩØ§Øª": 7809,
      "ĠÙħØ¹Ø§Ø§Ùĩ": 7810,
      "ÙĨØªÙĩØ§": 7811,
      "ÙĨØªÙĬÙĨ": 7812,
      "ĠØ§ÙĦØ£Ø¯": 7813,
      "Ø¨ÙĪÙĦÙĬØ³": 7814,
      "ÙģØ³Ø±": 7815,
      "ĠÙħØ±Ø³": 7816,
      "ind": 7817,
      "Ø¨ØŃØ§Ø«": 7818,
      "ĠThe": 7819,
      "*****": 7820,
      "ĠÙĨÙĩØ¶Ø±ÙĪ": 7821,
      "ec": 7822,
      "ĠÙĪÙĪÙĦ": 7823,
      "Ø¬Ø¬": 7824,
      "Ø§Ø±ÙĨ": 7825,
      "ĠÙĨÙħÙĪ": 7826,
      "ĠØ§ÙĦÙħÙĬÙĥ": 7827,
      "Ø§Ø¨ÙĪÙĨ": 7828,
      "ĠØ£ÙģÙĥØ§Ø±": 7829,
      "ĠØ£ÙĩÙħÙĬØ©": 7830,
      "ÙĪÙħØ§ÙĨ": 7831,
      "ĠØ¨Ø§ÙĦÙĪ": 7832,
      "ĠØ§ÙĨØªÙĬ": 7833,
      "ĠØ§ÙĦÙĨÙĪØ±": 7834,
      "ÙħÙĬØµ": 7835,
      "ĠÙĪÙĤØ¨ÙĦ": 7836,
      "ĠØªÙĤØ§Ø±ÙĬØ±": 7837,
      "ØŃÙĬØ§Ø¡": 7838,
      "Ø§ÙģÙĬÙĬÙĨ": 7839,
      "ĠØ§ÙĦÙħÙĨØ¸ÙħØ©": 7840,
      "ØºØ±Ø§ÙģÙĬØ©": 7841,
      "Ø¹Ø±Ø§Ø¶": 7842,
      "ÙĤÙĪÙī": 7843,
      "ĠØ§ÙĦÙħØ±Ø£Ø©": 7844,
      "ĠØ±Ø§Ø§Ø³ÙĪ": 7845,
      "ĠØ§ÙĦØ¬ÙĦØ³Ø©": 7846,
      "ĠØ§ÙĦÙĪØ§ÙĦÙĬØ¯": 7847,
      "ĠØµØ§Ø§ÙģÙĬ": 7848,
      "36": 7849,
      "Ø§Ø§Ø³": 7850,
      "ÙĦÙĩÙħ": 7851,
      "Ø§ÙĦÙħØ³": 7852,
      "ĠÙĥØ£Ø³": 7853,
      "ĠØªÙĪÙĦØ¯": 7854,
      "ĠØªØ³Ø¨Ø¨": 7855,
      "ĠØŃØ¨ÙĬ": 7856,
      "Ø§ÙħÙĩØ§": 7857,
      "ĠØ±Ø¶Ø§": 7858,
      "ĠØ¯ÙĬØ¬Ø§": 7859,
      "ĠØ£ÙħØ¬": 7860,
      "Ø¨ÙĬØ¹Ø§Øª": 7861,
      "ĠÙĦÙĦØ±": 7862,
      "ĠØµØ¨Ø¹ÙĩØ§": 7863,
      "ĠØ§ÙĦØ¹Ø§Ø¯ÙĬ": 7864,
      "Ø§Ø¯ÙĬÙĥ": 7865,
      "ÙĨØªØ´": 7866,
      "Ø¯Ø§ÙĩØ§": 7867,
      "ĠÙĥÙĨØ¸ÙĨ": 7868,
      "ÙĪØ§ÙĬØ©": 7869,
      "ĠØºÙĬØ§Ø¨": 7870,
      "ĠØ¹ÙħÙĪÙħØ§": 7871,
      "ĠØªÙĪØ²ÙĬØ¹": 7872,
      "___": 7873,
      "ĠØ®ÙĦØ§Øµ": 7874,
      "ĠÙĬØ´Ø§Ø±": 7875,
      "ĠÙħØ§ÙħØ§Ùĥ": 7876,
      "ĠØŃØ±Ø§Ùħ": 7877,
      "ĠØ·ÙĦÙĤØ§Øª": 7878,
      "ĠØ¹ÙĤÙĦÙĥ": 7879,
      "act": 7880,
      "ÙĥÙĪØ±ÙĪÙĨØ§": 7881,
      "ĠÙĪØ§ØµÙĦØ©": 7882,
      "ĠÙĪØŃØªØ§": 7883,
      "Ø®Ø¶": 7884,
      "Ø²Ø§ÙĨÙĬØ©": 7885,
      "ĠØ§ÙĦÙħØŃÙĦ": 7886,
      "ĠØ³Ø§ÙĩÙĬØ©": 7887,
      "Ø±Ø¨Ø§ØŃ": 7888,
      "ĠØ§ÙĦØ¹Ø¶": 7889,
      "ĠØ§ÙĦØŃÙĪØª": 7890,
      "ĠØ§ÙĦØµÙĨØ¯ÙĪÙĤ": 7891,
      "ĠØ§ÙĦØ¯Ø§Ø®ÙĦ": 7892,
      "ĠAPI": 7893,
      "ĠØ§ÙĦØ§ÙĨØ³Ø§ÙĨ": 7894,
      "Ø§Ø¨ØªØ§Ø³Ùħ": 7895,
      "ill": 7896,
      "ĠØ§ÙĦØ¨ØŃØ±ÙĬØ©": 7897,
      "~~~~": 7898,
      "ÙĦØ·": 7899,
      "ĠØ¨Ø§Ø±Ùĥ": 7900,
      "Ø²Ø§Ø²": 7901,
      "ĠØ®ØªÙĪ": 7902,
      "ĠØºØ§Ø¯": 7903,
      "Ø§Ø¬ÙĬÙĨ": 7904,
      "ĠÙĦÙĦØªØŃ": 7905,
      "ĠØ§ÙĦØ¹Ø³ÙĥØ±ÙĬØ©": 7906,
      "ĠØ§ÙĦÙĦÙĩÙħ": 7907,
      "ĠØªØ¹Ø¨ÙĬØ±": 7908,
      "ĠÙĪÙĬØŃ": 7909,
      "ĠÙħÙĤØ§Ø¨ÙĦØ©": 7910,
      "Ø¬Ø±Ø§ÙħÙĬØ©": 7911,
      "ĠÙħÙĦÙĬÙĥØ©": 7912,
      "Ø³ÙĬÙĤÙĬØ©": 7913,
      "ĠÙĨÙĩØ§ÙĬ": 7914,
      "ĠØ§ÙĦØ¨Ø±ÙĪØ¯ÙĪÙĬ": 7915,
      "ive": 7916,
      "ĠØ§ÙĦØ¨Ø±ÙĬØ·Ø§ÙĨÙĬØ©": 7917,
      "Ø§ÙĦØ³ÙĬ": 7918,
      "Ø´Ø±Ø¨": 7919,
      "ĠØªÙĦØ¨Ø³": 7920,
      "Ø®ØªÙĦÙģ": 7921,
      "ĠØŃØªÙĬ": 7922,
      "Ø«ÙĤ": 7923,
      "ÙĨÙĬÙĬ": 7924,
      "ÙģÙĬØ¶": 7925,
      "ĠØ§ÙĦØ·ÙħÙĪØ¨ÙĬÙĦ": 7926,
      "ĠØªØ¹Ø·ÙĦ": 7927,
      "ĠØ§ÙĦÙĩÙĬ": 7928,
      "ÙĩÙĬØ¨Ø©": 7929,
      "ĠÙħØ§Ø¹ÙĨØ¯ÙĬ": 7930,
      "ÙĪØ§Ø±Ø¹": 7931,
      "ark": 7932,
      "Ġ2010": 7933,
      "ĠÙħÙģÙĩÙĪÙħ": 7934,
      "ĠØ§ÙĦØ§ÙĨØªÙĤ": 7935,
      "ĠÙĦÙĦØŃØ²Ø¨": 7936,
      "ĠÙĥØªØ±Ø¹Ø¯": 7937,
      "ĠØµØ§ØŃØ¨ÙĬ": 7938,
      "ĠÙħØ§Ø¨ØºØ§ØªØ´": 7939,
      "ĠÙĥÙĬÙĦÙĪÙħØªØ±": 7940,
      "ĠØ§ØµÙĦ": 7941,
      "ĠØ¨ÙĪÙĨ": 7942,
      "ĠÙĦÙĨØ§": 7943,
      "ĠÙģØ¦Ø©": 7944,
      "Ø·ÙĩØ§": 7945,
      "ØµØ¯Ø§Ø±": 7946,
      "ĠÙĨØ±": 7947,
      "ĠÙĥÙĬÙĩØ¶Ø±ÙĪ": 7948,
      "Ø«ÙĦÙĪØ¬": 7949,
      "ĠÙĪØ§ÙĦÙħØ±": 7950,
      "ĠØµØºØ±": 7951,
      "Ø±Ø¬ÙĬ": 7952,
      "ÙĪÙĤØ¹Ø©": 7953,
      "ĠØ§ÙĦØ¨ÙĨØ§Ø¡": 7954,
      "ĠØ§ÙĦØ´Ø¨ÙĥØ©": 7955,
      "Ø§Ø¦Ùħ": 7956,
      "ĠÙĦØŃÙĤÙĪÙĤ": 7957,
      "ĠÙĪØ³Ø§Ø¦ÙĦ": 7958,
      "ĠØ¨Ø¯Ø§Ùĥ": 7959,
      "ĠØ§ØµØ§ØŃØ¨ÙĬ": 7960,
      "ĠÙĪÙĥÙĨØª": 7961,
      "ĠÚ¯Ø§ÙĦØ³ÙĬÙĨ": 7962,
      "ĠØ§ÙĦÙĨÙĩØ§ÙĬØ©": 7963,
      "100": 7964,
      "ØªÙĦÙĪ": 7965,
      "ĠÙĪØ¯ÙĬÙĥ": 7966,
      "ĠØ¨Ø¨Ø±": 7967,
      "ĠÙĨØ§Ø²ÙĦ": 7968,
      "ĠØ´Ø±ÙĬØª": 7969,
      "Ø¨ÙĬØ¯": 7970,
      "ÙĬØªÙĩÙħ": 7971,
      "Ø§ÙĩØ¯Ø©": 7972,
      "ĠØ²Ø¯": 7973,
      "ĠØ§ÙĦØ´Ùĩ": 7974,
      "ÙĦÙĤÙĩØ§": 7975,
      "ĠÙĪÙħÙĦÙĬ": 7976,
      "Ø¬ÙĬØ¯ÙĬ": 7977,
      "ĠØ§ÙĦØ±ØŃÙĦØ©": 7978,
      "ĠØ¨ØºÙĬÙĨØ§": 7979,
      "ĠØªÙĬÙĤ": 7980,
      "ĠÙĪÙģØ¹": 7981,
      "ĠØªØ¬Ø±ÙĬ": 7982,
      "ØŃØ³Ø§Ø¨": 7983,
      "ans": 7984,
      "ĠØªÙĥÙĦÙħ": 7985,
      "ÙĩÙĦØ§Ùĥ": 7986,
      "ĠÙĦØ¨ÙĦØ§Øµ": 7987,
      "ĠØ¨ÙģÙĬØ±ÙĪØ³": 7988,
      "ĠØ±Ø§Ø¬Ø¹": 7989,
      "ĠÙĦÙĤØ±ÙĪÙĨ": 7990,
      "ÙħØ²ÙĬØ§ÙĨ": 7991,
      "ØªØº": 7992,
      "Ø³Ùĩ": 7993,
      "ĠØ¨Ø§Ø±ÙĬØ³": 7994,
      "ĠØ¹Ø°Ø±Ø§Ø¡": 7995,
      "ĠØªØ³ÙĨ": 7996,
      "ĠÙħÙĨÙģ": 7997,
      "Ø§ÙģØŃØ©": 7998,
      "ĠÙĥØªØ¨ÙĬÙĨ": 7999
    },
    "merges": [
      [
        "Ø",
        "§"
      ],
      [
        "Ù",
        "Ħ"
      ],
      [
        "Ù",
        "Ĭ"
      ],
      [
        "Ġ",
        "Ù"
      ],
      [
        "Ġ",
        "Ø"
      ],
      [
        "Ø§",
        "Ø"
      ],
      [
        "Ø§",
        "ÙĦ"
      ],
      [
        "Ù",
        "Ī"
      ],
      [
        "Ù",
        "Ĩ"
      ],
      [
        "Ù",
        "ħ"
      ],
      [
        "Ø",
        "±"
      ],
      [
        "Ġ",
        "Ø§ÙĦ"
      ],
      [
        "Ø",
        "ª"
      ],
      [
        "Ù",
        "ĩ"
      ],
      [
        "Ø",
        "©"
      ],
      [
        "Ø",
        "¯"
      ],
      [
        "Ø",
        "¨"
      ],
      [
        "ĠÙ",
        "Ī"
      ],
      [
        "Ù",
        "ĥ"
      ],
      [
        "ĠÙ",
        "ħ"
      ],
      [
        "Ø",
        "¹"
      ],
      [
        "Ù",
        "Ĥ"
      ],
      [
        "Ù",
        "ģ"
      ],
      [
        "Ø",
        "³"
      ],
      [
        "ĠØ",
        "¨"
      ],
      [
        "Ġ",
        "ÙĦ"
      ],
      [
        "Ø",
        "Ń"
      ],
      [
        "Ø§Ø",
        "ª"
      ],
      [
        "ĠÙ",
        "ĥ"
      ],
      [
        "Ø",
        "´"
      ],
      [
        "ĠÙ",
        "ģ"
      ],
      [
        "Ø",
        "¬"
      ],
      [
        "ĠØ",
        "¹"
      ],
      [
        "Ùĩ",
        "Ø§"
      ],
      [
        ".",
        "."
      ],
      [
        "ĠØ",
        "ª"
      ],
      [
        "Ø§",
        "ÙĨ"
      ],
      [
        "ÙĬ",
        "ÙĨ"
      ],
      [
        "Ø",
        "·"
      ],
      [
        "ĠØ",
        "¯"
      ],
      [
        "Ø",
        "µ"
      ],
      [
        "ÙĦ",
        "ÙĬ"
      ],
      [
        "Ø",
        "®"
      ],
      [
        "Ù",
        "ī"
      ],
      [
        "Ø§Ø",
        "±"
      ],
      [
        "Ø",
        "Į"
      ],
      [
        "ĠÙ",
        "ĩ"
      ],
      [
        "Ø",
        "²"
      ],
      [
        "Ø§Ø",
        "¯"
      ],
      [
        "Ġ",
        "ÙĬ"
      ],
      [
        "ÙĬ",
        "Ø©"
      ],
      [
        "ĠÙ",
        "Ĩ"
      ],
      [
        "ĠØ",
        "Ń"
      ],
      [
        "ĠØ§ÙĦ",
        "Ùħ"
      ],
      [
        "ÙĬ",
        "Ø±"
      ],
      [
        "ĠÙħ",
        "ÙĨ"
      ],
      [
        "Ġ",
        "Ø§"
      ],
      [
        "Ø",
        "¶"
      ],
      [
        "Ø§",
        "Ø§"
      ],
      [
        "Ø§Ø",
        "³"
      ],
      [
        "Ù",
        "Ķ"
      ],
      [
        "Ø§Ø",
        "¨"
      ],
      [
        "ĠØ",
        "´"
      ],
      [
        "Ø§",
        "Ùħ"
      ],
      [
        "Ø",
        "º"
      ],
      [
        "Ø§Ø",
        "´"
      ],
      [
        "ĠÙģ",
        "ÙĬ"
      ],
      [
        "ĠÙĦ",
        "ÙĬ"
      ],
      [
        "Ġ",
        ".."
      ],
      [
        "ÙĦ",
        "Ùī"
      ],
      [
        "ÙĪ",
        "ÙĨ"
      ],
      [
        "ĠØ",
        "±"
      ],
      [
        "Ø±",
        "ÙĬ"
      ],
      [
        "ĠØ",
        "³"
      ],
      [
        "ĠØ",
        "®"
      ],
      [
        "ĠØ¯",
        "ÙĬ"
      ],
      [
        "ĠØ",
        "º"
      ],
      [
        "ĠØ¹",
        "ÙĦÙī"
      ],
      [
        "ĠÙ",
        "Ĥ"
      ],
      [
        "Ùĩ",
        "Ùħ"
      ],
      [
        "ÙĪ",
        "ÙĦ"
      ],
      [
        "ĠØ",
        "¬"
      ],
      [
        "Ø§",
        "ÙĬ"
      ],
      [
        "ĠÙĥ",
        "ÙĬ"
      ],
      [
        "ĠØ¯ÙĬ",
        "Ø§ÙĦ"
      ],
      [
        "Ø§",
        "Ùģ"
      ],
      [
        "Ø¯",
        "ÙĬ"
      ],
      [
        "Øª",
        "ÙĬ"
      ],
      [
        "ÙĪ",
        "Ø±"
      ],
      [
        "Ø§Ø",
        "Ń"
      ],
      [
        "ĠÙħ",
        "Ø¹"
      ],
      [
        "ĠØ",
        "£"
      ],
      [
        "Ø§",
        "Ùĥ"
      ],
      [
        "Ø",
        "£"
      ],
      [
        "ÙĦ",
        "Ø§"
      ],
      [
        "Ø§Ø",
        "¹"
      ],
      [
        "Ø¨",
        "ÙĬ"
      ],
      [
        "Ø",
        "«"
      ],
      [
        "ĠÙĪ",
        "Ø§ÙĦ"
      ],
      [
        "Ø§Ø",
        "¬"
      ],
      [
        "â",
        "Ģ"
      ],
      [
        "ĠÙĥ",
        "Øª"
      ],
      [
        "Ø§Ø",
        "¡"
      ],
      [
        "ÙĪ",
        "Ùħ"
      ],
      [
        "Ø",
        "°"
      ],
      [
        "Ø´",
        "ÙĬ"
      ],
      [
        "ĠÙĦ",
        "ÙĦ"
      ],
      [
        "ÙĪ",
        "ÙĪ"
      ],
      [
        "Ùĥ",
        "ÙĨ"
      ],
      [
        "Ø±",
        "Ø¨"
      ],
      [
        "ĠØ",
        "µ"
      ],
      [
        "ÙĬ",
        "Øª"
      ],
      [
        "ĠÙĩ",
        "Ø§Ø¯"
      ],
      [
        "ĠØ¹",
        "ÙĨ"
      ],
      [
        "ĠØ§ÙĦ",
        "Ø¹"
      ],
      [
        "ĠØ§ÙĦ",
        "Øª"
      ],
      [
        "Ø¯",
        "ÙĪ"
      ],
      [
        "ĠØ¨",
        "Ø§ÙĦ"
      ],
      [
        "Ø§",
        "Ùĩ"
      ],
      [
        "ÙĦ",
        "Ø©"
      ],
      [
        "ĠØ",
        "·"
      ],
      [
        "Ø§Ø",
        "µ"
      ],
      [
        "Ø±",
        "ÙĪ"
      ],
      [
        "ĠÙģ",
        "Ø§ÙĦ"
      ],
      [
        "ÙĨ",
        "ÙĬ"
      ],
      [
        "ĠØ§ÙĦ",
        "ØŃ"
      ],
      [
        "Ġ",
        ":"
      ],
      [
        "Ù",
        "ķ"
      ],
      [
        "Ø±",
        "Ø¬"
      ],
      [
        "ĠÙĥ",
        "Ø§ÙĨ"
      ],
      [
        "Ø±",
        "Ø©"
      ],
      [
        "ÙĨ",
        "Ø§"
      ],
      [
        "ÙĬ",
        "ÙĬ"
      ],
      [
        "ÙĪ",
        "Ùģ"
      ],
      [
        "Ø³",
        "Øª"
      ],
      [
        "ĠØ¹",
        "ÙĦÙĬ"
      ],
      [
        "ÙĪ",
        "ÙĤ"
      ],
      [
        "Ø¯",
        "Ø©"
      ],
      [
        "Ø",
        "Ł"
      ],
      [
        "ĠØ§ÙĦ",
        "Ø³"
      ],
      [
        "Ùħ",
        "Ø§"
      ],
      [
        "Ġ",
        "Ø§ÙĨ"
      ],
      [
        "Ø±",
        "Ùģ"
      ],
      [
        "Ø§",
        "ÙĪ"
      ],
      [
        "Ø§Ø",
        "®"
      ],
      [
        "Ø§",
        "ÙĤ"
      ],
      [
        "ĠØ§ÙĦ",
        "Ø¨"
      ],
      [
        "ÙĦ",
        "ÙĪ"
      ],
      [
        "ĠÙħ",
        "Ø§"
      ],
      [
        "ĠØ§ÙĦ",
        "Ø¬"
      ],
      [
        "Ø¯",
        "Ùħ"
      ],
      [
        "Øª",
        "ÙĪ"
      ],
      [
        "Ġ..",
        "."
      ],
      [
        "ĠØ§ÙĦ",
        "Ùģ"
      ],
      [
        "Ø¯",
        "Ø±"
      ],
      [
        "ĠÙĩ",
        "ÙĪ"
      ],
      [
        "..",
        "."
      ],
      [
        "Ġ",
        "("
      ],
      [
        "ÙĨ",
        "ÙĪ"
      ],
      [
        "Ùĥ",
        "ÙĬ"
      ],
      [
        "Ø§Ø¯",
        "ÙĬ"
      ],
      [
        "Ø¨",
        "Ø©"
      ],
      [
        "Ø¹",
        "Ø¯"
      ],
      [
        "Ø³",
        "ÙĬ"
      ],
      [
        "ĠØ§ÙĦ",
        "Ø§"
      ],
      [
        "ĠØ§ÙĦ",
        "ÙĦÙĬ"
      ],
      [
        "ÙĦ",
        "Ùħ"
      ],
      [
        "âĢ",
        "Ŀ"
      ],
      [
        "ÙĤ",
        "Ø©"
      ],
      [
        "ĠØ¨",
        "Ø§Ø´"
      ],
      [
        "Ùħ",
        "Ø¹"
      ],
      [
        "ÙĨ",
        "Øª"
      ],
      [
        "Ø",
        "¸"
      ],
      [
        "ĠØŃ",
        "Øª"
      ],
      [
        "Ùĥ",
        "ÙĪÙĨ"
      ],
      [
        "ÙĬ",
        "Ø¯"
      ],
      [
        "ÙĬÙĨ",
        "ÙĬ"
      ],
      [
        "ĠØ§ÙĦ",
        "ÙĨ"
      ],
      [
        "ĠÙĩ",
        "ÙĬ"
      ],
      [
        "ĠØ§ÙĦ",
        "Ø£"
      ],
      [
        "Ùħ",
        "ÙĪ"
      ],
      [
        "ĠØ§ÙĦ",
        "ÙĤ"
      ],
      [
        "ÙĦ",
        "Ø¨"
      ],
      [
        "Ùĩ",
        "Ùĩ"
      ],
      [
        "Ø§Ø",
        "·"
      ],
      [
        "Ùħ",
        "Ø±"
      ],
      [
        "ĠØ",
        "²"
      ],
      [
        "Ø®",
        "ÙĦ"
      ],
      [
        "ĠØ",
        "¥"
      ],
      [
        "ÙĪ",
        "Ø¬"
      ],
      [
        "Ø¨",
        "Ø±"
      ],
      [
        "Ø¹",
        "Ø©"
      ],
      [
        "Ùħ",
        "ÙĬ"
      ],
      [
        "Ùĥ",
        "ÙĦ"
      ],
      [
        "Ùĥ",
        "Øª"
      ],
      [
        "ĠØ§ÙĦ",
        "Ø´"
      ],
      [
        "Ùħ",
        "ÙĨ"
      ],
      [
        "ĠÙĪ",
        "ÙĦ"
      ],
      [
        "Ġ",
        "1"
      ],
      [
        "ÙĬ",
        "Ø§"
      ],
      [
        "ĠØ´",
        "ÙĬ"
      ],
      [
        "Ùħ",
        "ÙĦ"
      ],
      [
        "ØŃ",
        "Ø§ÙĦ"
      ],
      [
        "ĠÙĪ",
        "Øª"
      ],
      [
        "ĠØº",
        "ÙĬØ±"
      ],
      [
        "Ø§Ø",
        "²"
      ],
      [
        "Ø¯",
        "Ø§"
      ],
      [
        "ĠÙĪ",
        "Ùĩ"
      ],
      [
        "ĠØŃØª",
        "Ùī"
      ],
      [
        "ĠÙĦ",
        "Ø§"
      ],
      [
        "Ø¨",
        "ÙĦ"
      ],
      [
        "Ùģ",
        "ÙĬ"
      ],
      [
        "Ùħ",
        "Ø©"
      ],
      [
        "Ġ",
        "âĢ"
      ],
      [
        "ĠÙĪ",
        "ÙĤ"
      ],
      [
        "Ø§ØŃ",
        "Ø¯"
      ],
      [
        "Ø±",
        "Ùĥ"
      ],
      [
        "Ø§Ø",
        "¦"
      ],
      [
        "Ø§Ø³",
        "Øª"
      ],
      [
        "ĠØ§ÙĦ",
        "ÙĦ"
      ],
      [
        "Ø§Ø",
        "¶"
      ],
      [
        "Ùħ",
        "ÙĥÙĨ"
      ],
      [
        "ĠØ§ÙĦ",
        "Øµ"
      ],
      [
        "Ø´",
        "ÙĪÙģ"
      ],
      [
        "Ùĥ",
        "Ø±"
      ],
      [
        "ĠØ§ÙĦ",
        "Ø®"
      ],
      [
        "ĠØ¹ÙĨ",
        "Ø¯"
      ],
      [
        "ĠØ§ÙĦ",
        "Ø¯"
      ],
      [
        "ÙĪ",
        "Øª"
      ],
      [
        "ĠÙĪ",
        "ÙĦØ§"
      ],
      [
        "ĠØ¨",
        "ÙĬ"
      ],
      [
        "ĠÙģÙĬ",
        "ÙĩØ§"
      ],
      [
        "ĠÙĥ",
        "ÙĦ"
      ],
      [
        "ĠØ",
        "¶"
      ],
      [
        "ÙĪ",
        "Ø¯"
      ],
      [
        "Ġ",
        "2"
      ],
      [
        "ÙĬ",
        "ÙĦ"
[...]
